#version: 0.2
Ä ±
a r
Ã ¼
Å Ł
e r
a n
Ġ b
d e
i n
Ä Ł
a l
m a
o r
Ġ s
Ġ k
Ã §
i l
Ġ g
e n
i r
Ġ y
d i
Ä± n
m e
y or
d Ä±
Ã ¶
d a
o l
e l
e t
i m
Ġ t
a y
a t
Ġ i
a k
Ġ v
Ġ h
e k
Ã¼ n
u m
u n
o n
Ä± m
e s
Ġ ol
l a
a p
i z
i ÅŁ
Ġ de
u r
l ar
a s
Ġ S
Ġ al
i k
Ġ B
Ġb ir
Ä± k
Ġ Ã§
l e
Ã¼ r
Ä± yor
a m
Ġ T
Ġ d
l er
Ġ a
Ġ K
Ġ A
Ä± l
Ġ m
Ġv e
i t
in de
i s
Ġ f
Ä± ÅŁ
Ġ p
ar a
u l
i yor
Ä± z
o k
Ġ ÅŁ
Ä± r
2 0
a ÄŁ
Ã¶ n
a z
Ä °
Ġ n
Ġy ap
i p
c e
y e
Ġ 1
Ġ M
s t
Ġ Ã
d u
d an
Ġ e
Ġi Ã§
Ġ H
dÄ± m
Ġ da
Ġ Y
a ÅŁ
Ġ G
Ġ Ä°
Ġ ay
e m
t i
l i
dÄ± ÄŁ
Ġb u
Ġv er
Ġg el
t Ä±
er i
y a
de n
Ġ il
a b
in e
in i
Ġ D
Ã¼ ÅŁ
, "
l an
u z
Ġg Ã¼n
Ġ E
Ġ Ã¼
Ġ r
ar k
ĠiÃ§ in
Ġ P
ÄŁ im
ip ar
ipar iÅŁ
ma s
Ġk ar
Ġol du
d il
di m
r a
Ġb il
i y
Ä±n da
Ġ 2
Ġ et
e y
i h
Ġs on
Ġg Ã¶
Ġ di
Ä±n Ä±
Ã¶ y
t a
dÄ±ÄŁ Ä±m
a de
Ġ ma
Ġ u
la ÅŁ
un u
Ġ ara
k i
Ġ Ã¼r
Ġ ar
Ä± s
g o
me s
a h
c a
ĠÃ¼r Ã¼n
Ã¼ m
ĠÃ ľ
e f
Ġs ipariÅŁ
es i
e Ã§
Ġ an
as Ä±
l Ä±
Ġ Ã¶
Ġn e
t al
Ġi st
u k
Ã¼ k
' d
d er
m Ä±ÅŁ
Ġ o
a ma
Ġ V
Ġt ar
Ġh al
Ġ z
Ã¶y le
Ä±yor um
m en
i Ã§
Ġ F
a d
me di
c ak
ul lan
Ġoldu ÄŁ
Ä±n a
Ã¼ÅŁ t
Ġtar ih
me k
Ġde ÄŁ
Ġy ok
Ġ Ã¶n
m iÅŁ
Â ł
Ġb aÅŁ
al Ä±
a at
ma k
Ġ O
Ġg i
dÄ± r
Ġ 3
! ,
me t
d ir
Ġk ullan
ĠÃ ĩ
e di
ay Ä±
t Ä±m
u ÅŁ
ler i
ma dÄ±
er v
Ġa ma
r Ã¼n
lar Ä±
m iyor
Ã¼ z
ĠT L
al ar
inde n
Ġg eÃ§
m Ä±yor
p tal
20 20
et i
t an
Ġs Ã¼r
b i
Ã¼ÅŁt eri
0 0
Ġson ra
Ġb en
ÄŁ i
Ġv ar
ĠÃ§ Ä±k
er ek
Ġda h
Ġil e
s un
Ġ in
Ġs or
e p
e z
erv is
Ġal dÄ±m
Ġh iÃ§
o ÄŁ
dil er
* *
c r
el ef
iz met
Ġ N
Ã¶n der
elef on
e c
Ġk al
aÄŁ men
e b
Ġ C
ĠK ar
Ġa Ã§
Ġr aÄŁmen
Ġp ar
a f
ĠÃ¶n ce
u b
Ġk ad
l Ä±k
ar ak
Ġtarih inde
a c
t im
al Ä±ÅŁ
mas Ä±
er e
u yor
Ġk ap
ĠÃ§ ok
Ġkar go
Ġdah a
Ġkad ar
s e
u t
l ik
Ġ 4
Ġi ÅŁ
Ä±n dan
Ġi ade
Ġal dÄ±ÄŁÄ±m
ĠgÃ¶ r
Ġ 5
e v
ĠB u
Ġ c
iyor um
Ã¶ z
Ġh er
t ir
Ġy az
Ġdi ye
! ,"
r o
t e
an a
ĠÃľ rÃ¼n
l en
Ġ el
t Ä±r
Ġm ark
Ġu laÅŁ
k en
in iz
dÄ± k
g il
Ġgel di
Ġh izmet
Ġs aat
b ir
s i
ĠS or
Å ŀ
Ġi ptal
ek il
ma ya
Ġg Ã¶nder
at ur
a Ã§
ĠÃ§ alÄ±ÅŁ
um ar
ak at
im i
20 1
ĠÃ¶ de
Ġf ir
Ġt es
o s
tÄ± ÄŁ
Ġy an
Ġyap Ä±l
Ġgi bi
i g
l Ã¼
Ġs ervis
Ġg it
ur um
Ġol arak
t r
a da
Ġb ek
Ġt elefon
cr et
g i
t Ä±k
in in
l im
Ġhal a
di ÄŁim
Ġd Ã¶n
a v
c Ä±
t en
Ġ Åŀ
am an
ĠÅŁ ey
Ġd ol
ik ay
Ġe dil
ĠKar go
Ġk on
Ġol ma
d um
t Ã¼
Ġs Ã¶yle
Ġm Ã¼ÅŁteri
Ġ ek
Ġt ek
Ġn umar
n Ä±
s an
o m
t er
u s
Ġy Ä±l
ĠA r
Ġs at
Ġy er
d ur
e me
Ä± p
ĠdeÄŁ iÅŁ
ar t
di yor
Ġt ak
o z
ĠA l
Ġz aman
n et
el ik
is i
m an
mes i
ar an
le m
ĠÅŁ ekil
ikay et
Ġb ul
ĠÃ¼ z
ĠSor unu
ĠA n
Ġf akat
e de
l u
Ġde n
ĠÅŁekil de
t ik
Ġ on
Ġe v
ler ini
Ä±m Ä±
' t
u y
ĠY ap
ĠhiÃ§ bir
Ġg ir
g Ã¼n
o t
Ġ L
Ä±n Ä±z
me m
Ġol an
ĠB ir
ĠdeÄŁ il
Ġay nÄ±
o y
ĠV e
o p
ec ek
Ġ R
di k
el i
ara f
Ġma ÄŁ
Ġg erek
y on
Ã¼ yor
Ġh at
Ġh af
l et
Ġk i
Ġ1 0
Ġf atur
Ġ or
ĠA y
Ġver il
er s
Ġy ar
ĠÅŁ ub
Ġb iz
ĠG el
ĠÃ¼ cret
ter net
y i
Ġs it
ÄŁ Ä±
il er
Ġsor un
Ġ U
Ġ ak
an k
Ġ en
Ġb el
Ġk en
ay a
la m
tÄ±ÄŁ Ä±m
Ã¼ t
Ġb Ã¶yle
la ma
ĠS ipariÅŁ
Ä± ma
Ġb ak
ĠÅŁ ikayet
Ġk es
Ġe diyor
e ce
Ġy aÅŁ
Ġtes lim
Ġ at
Ġ l
ĠolduÄŁ um
r ar
Ġb ana
Ġt araf
Ġg eri
Ġy ol
Ġp ara
Ġil gil
Ġo t
Ġbul un
ĠÃ¼z er
Ġ ce
ĠÄ° ade
ti ÄŁim
r an
Ä±n Ä±n
ac aÄŁ
Ġk Ã¶
Ġd urum
Ġhaf ta
i me
en i
Ġ 6
Ġmark a
c i
Ġ (
ÄŁ ini
Ġs iz
c u
Ġ 0
ma y
ay Ä±s
Ġde f
r Ä±
s Ä±z
ĠB il
am Ä±yorum
dÄ±ÄŁ Ä±
Ġbil e
Ġne den
Ġara dÄ±m
s a
ek li
ĠÃ ĸ
laÅŁ Ä±k
sun uz
d Ã¼r
ak k
as Ä±l
k a
Ġk ur
Ġdi yor
e ÅŁ
m uÅŁ
ĠT V
mas Ä±na
Ġet tim
ÄŁ r
me ye
as tan
Ġu y
r edi
ĠdÃ¶n Ã¼ÅŁ
Ġy ak
Ġde v
Ġm u
Ġt al
Ġd Ã¼ÅŁ
er k
Ġy et
y en
ĠolduÄŁ unu
ab il
aran ti
g is
ĠM Ã¼ÅŁteri
Ġan cak
v en
iy le
ĠÃ§ Ã¶z
aÄŁ Ä±
Ġk Ä±r
el er
Ġf ark
Ġs u
iy at
ĠolduÄŁ u
ma m
il i
ĠÃ§ ek
ĠiÃ§ inde
Ġz or
Ġ "
un da
a j
Ġ 7
Ġk Ä±s
Ġist iyorum
ig or
. "
0 5
ĠG Ã¼n
Ġver dim
n un
Ġ ark
Ã¼ p
Ġy a
Ġt em
Ġil k
Ġnumar alÄ±
ĠkÃ¶ tÃ¼
ek tr
Ä±m Ä±z
ĠÄ° l
Ġma k
Ġ mes
en e
Ġal mÄ±ÅŁ
Ġist e
t u
Ġb it
Ġce v
Ġi ki
ĠV er
an Ä±n
201 9
1 0
r e
Ã¼ s
le ÅŁ
Ġgel en
b ul
st an
Ġkar ÅŁ
Ġtek rar
ma dan
Ġs aÄŁ
Ġn asÄ±l
ĠÄ° n
o b
Ġ 20
Ã¼ ÄŁ
de t
ĠM ayÄ±s
Ġe de
ĠP ar
ĠgÃ¶ z
mes ini
Ġin ternet
v er
Ġy at
Ġpar Ã§
erk ez
s ik
il di
im iz
lar Ä±n
Ġcev ap
c el
ar Ä±
Ġk an
Ġp ro
ĠÄ° ptal
Ġar Ä±z
al an
Ġin san
h an
Ã¼ ven
ade ce
ektr ik
u p
Ġ 2020
Ġs Ã¶y
Ġk iÅŁ
Ġh em
un a
Ġa d
stan bul
s iz
Ã¶ r
as Ä±nda
ĠB en
am Ä±
ih az
Ġhal de
i v
i ye
Ġal dÄ±k
Ġd Ã¼z
Ä±l dÄ±
e ÄŁ
un un
la dÄ±
ĠE k
Ġk ab
et ir
i f
Ä± f
Ä±s Ä±
Ġbek le
Ã¼ l
Ġb ay
es inde
Ġa det
ĠÃ¼ y
Ġmes aj
Ġ Z
er Ã§
Ġde diler
Ä±yor uz
Ġm i
ĠgÃ¼n Ã¼
lÄ± ÄŁÄ±
Ġilgil i
Ġ 8
ÄŁ er
Ġk ay
Ġ1 5
li ÄŁi
ĠÃ¼ st
ĠbaÅŁ v
ĠsÃ¼r ekli
Ġdol ayÄ±
a cak
l ay
o ÅŁ
t Ã¼r
Ã¼ y
Ġy Ã¼z
Ġt e
ĠS ervis
Ġp ak
Ġver diÄŁim
or m
az la
Ġil et
Ġma il
Ġk ol
Ġt an
Ġh es
Ġal Ä±n
is t
Ġhizmet lerini
t el
Ä± la
Ġb aÄŁ
ÄŁ um
Ġbel ir
Ġi z
mas Ä±nÄ±
f en
m i
ĠH al
ine ma
iy et
ĠiÅŁ lem
ada ÅŁ
ĠmaÄŁ az
e ye
Ġf iyat
Ġtal ep
g u
y la
Ġyar dÄ±m
c il
l at
Ġ me
Ġgel medi
Ġbil et
Ġfatur a
Ġdev am
5 0
ĠS on
ĠS Ã¼r
am p
Ä±ÅŁ ver
Ä±ÅŁver iÅŁ
al Ä±k
Ġk im
Ġy eni
Ä±yor lar
ra f
ĠN e
l Ä±ÅŁ
Ġb oz
as Ä±nÄ±
ik a
am sun
Ġda k
ĠbaÅŁ ka
ĠÃ¶de me
s Ä±
Ġ as
Ġs Ä±k
Ġs adece
Ä±l Ä±
Ġf il
ĠÅŁ u
ĠÄ° Ã§
ĠbaÅŁv ur
Ġs an
Ġs al
es inden
is an
Ġbil gi
ĠÃ§Ä±k tÄ±
c ek
o c
Ġ la
ma ma
en iz
Ġd oÄŁ
ĠY an
dÄ±ÄŁ Ä±nÄ±
d Ã¼m
z el
Ġk redi
Ġbu gÃ¼n
Ġo y
Ġc ihaz
ĠdeÄŁiÅŁ tir
Ġyet k
t ur
v e
Ġk o
ur k
li ma
Ġson u
ĠÃ¼rÃ¼n Ã¼
o de
Ġt am
as yon
ĠÃĩ Ä±k
Ġark adaÅŁ
Ġiste dim
Ġ mem
Ġs Ã¶z
il ik
Ġh az
Ġara c
ĠÃ¼rÃ¼n ler
ĠsipariÅŁ im
cr eti
ĠmaÄŁ dur
erÃ§ ek
A r
h at
Ġ uz
lar a
Ġal mak
Ġf azla
Ġar tÄ±k
Ġben im
Ġkargo ya
Ġbek l
ĠÃ¼zer inden
ist em
i b
ĠT es
ĠT elefon
ler ine
ĠA t
iy im
ĠO l
e h
r es
t ar
Ġs ay
Ġol uÅŁ
Ġal Ä±ÅŁveriÅŁ
Ġd ur
ĠH astan
Ġediyor um
Ġdef a
Ġmem nun
0 4
m uyor
t or
t iler
Ä±n tÄ±
ĠK al
Ġm Ä±
Ġm erkez
ara ca
Ġist edi
ĠdÃ¼ÅŁ Ã¼n
amsun g
Ġg Ã¼ven
Ġyap tÄ±r
ĠY ok
me yen
Ġde di
lar Ä±nÄ±
ĠT ek
Ġr es
ĠgÃ¶ tÃ¼r
Ġfir ma
i d
y ip
Ġg etir
Ġi se
Ġh akk
ĠS aat
Ä±r ak
Ġyap tÄ±m
ah a
ayÄ± p
ĠaÃ§ Ä±l
Ġel ime
s il
Ġs es
Ġk ez
Ġol uyor
ĠE l
alar Ä±
Ġsat Ä±n
Ġbelir t
b lem
ay Ä±n
ay at
Ä±m da
ĠÄ° stanbul
Ġet mek
lik le
Ġpak et
Ġ '
Ġg aranti
Ġol masÄ±na
ĠgÃ¶ rÃ¼n
Ġara dÄ±ÄŁÄ±m
mes ine
Ġl ir
Ġmak in
Ã¼y Ã¼k
Ġdak ika
1 1
1 2
u ma
me den
on e
lar da
ĠM aÄŁ
ab Ä±
Ġkap at
Ã¼n de
ĠT Ã¼r
ĠgÃ¼n dÃ¼r
ÄŁim i
ama dÄ±m
ĠF atur
eb ek
ĠsÃ¶y len
ĠHastan esi
Ġ W
un dan
Ġol madÄ±
Ġa ÅŁ
ĠG Ã¶nder
ĠP ara
ĠsÃ¶yle diler
han gi
Ġ 9
Ä± cÄ±
Ġs eb
il en
me z
im di
Ä±m Ä±n
Ġol ur
Ġm ode
ĠÃ¼rÃ¼n Ã¼n
ĠsÃ¼r e
gil en
l Ã¼k
Ġs aÃ§
Ġy ine
im um
Ġh ep
Ġal t
iyor lar
Ġkar t
Ġkal it
0 2
ma z
Ġg erÃ§ek
um u
as Ä±ndan
Ġa z
Ġar Ä±yorum
** *
gis ay
Ã¼p Ã¼r
o v
s am
â Ģ
Ġs istem
Ġy Ã¶n
Ġi yi
ĠÄ° ÅŁ
Ġay Ä±nda
ĠÃľ cret
alar ca
g e
s uz
Ġ I
Ġb or
en c
di p
ol u
im in
at en
iyor uz
ĠD eÄŁ
ah at
Ġben i
ig it
Ġkes in
Ġhes ab
0 3
B u
c aÄŁ
me dim
Ġh as
le me
ĠT ur
ĠE n
Ġken di
ĠkÄ±s a
e mek
Ã¼ c
Ġb Ä±rak
ĠA ra
ok tor
Ġ1 2
Ġgel iyor
ĠE t
ayÄ± t
Ġyan i
ĠYap Ä±l
igit urk
A n
k ara
m art
ir k
Ġt ab
as k
ĠB aÅŁ
ĠH er
Ġhizmet leri
Ġkon u
aran t
ĠÃ§Ã¶z Ã¼m
d ar
Ġs ev
Ġt ut
ĠK on
st er
ĠH izmet
ĠbaÅŁ ladÄ±
Ġgit tim
Ġhaz Ä±r
f it
x imum
Ġ er
er is
an s
Ġs ene
Ã¶ l
da ÅŁ
es iz
ĠA k
ĠP ro
Ġher hangi
us u
Ã¼t Ã¼n
ĠyardÄ±m cÄ±
n ik
al e
Ġy Ã¼k
Ä±f Ä±r
gisay ar
0 6
an Ä±
ÄŁ u
Ġh av
iÅŁ im
Ä±yor sunuz
it ap
ce ÄŁim
ĠN isan
inema ximum
K araca
c om
p or
Ġ dÄ±
ĠS u
ler de
Ä±z Ä±
Ä±r ken
Ġbil dir
ama m
tr ol
ĠÄ°ade si
acaÄŁ Ä±m
abil ir
igor t
amp an
b ar
Ġb ur
iÅŁ man
ĠD aha
ĠE dil
Ġu Ã§
miyor um
ĠgeÃ§ ti
Ġvar dÄ±
os u
ers on
oc uk
ĠdÄ± ÅŁ
y erek
Ġ 201
an de
iz e
ĠsipariÅŁ i
uk uk
ĠkÄ±r Ä±k
ĠparÃ§ a
Ġkab ul
Ġsal on
lima t
r en
Ã ĩ
Ġi s
Ġay lÄ±k
ĠÃ¶ ÄŁr
Ġgi der
dir me
Ġin dir
Ġel ektrik
Ġlir a
a dan
l ine
r em
z a
il e
Ã¶ k
im de
ak laÅŁÄ±k
Ġol dum
ur t
Ġe ÅŁ
Ġara Ã§
ĠO p
ac fit
ĠAn cak
may an
igor ta
ĠkarÅŁ Ä±
ĠbaÄŁ lan
ĠHal a
3 0
d y
t uk
ir an
Ä±n ca
it e
Ä±z a
Ġay dÄ±r
ĠÃ¼ creti
ere de
Ġas la
c h
l ak
l uk
t o
Ġ ok
an t
Ġk or
me me
es ine
Ġa b
ĠK ap
ĠK Ä±r
Ġyap tÄ±ÄŁÄ±m
Ġ1 8
ĠH at
Ġet tiÄŁim
ĠÃ¶ zel
Ġ3 0
ĠÃĩ ok
ĠÃ§Ä±k ar
Ġservis e
ot oÄŁ
Ġilgil en
rÄ± ca
Ġuy gu
gis iz
ĠgÃ¶z Ã¼k
Ġpro blem
ĠdÃ¼z el
d Ã¼
Ġ es
Ġb eri
in ce
al g
dÄ± lar
Ġh astan
ĠB el
ĠÅŁ irk
az an
Ġet ti
ef er
mak ta
Ġiade si
Ġtaraf Ä±ndan
Ġfil m
ĠaradÄ±ÄŁÄ±m da
i da
s ek
s iniz
Ġk Ã¼
Ġk aÃ§
Ã¼n e
ĠB ank
ĠÃ§ aÄŁ
ĠiÃ§ eris
Ġr ez
Ġkar tÄ±m
Ġz aten
ĠF akat
Ġkargo m
ĠÅŀ ub
uy u
Ġkur ul
Ġ" "
Ġtem iz
eh ir
otoÄŁ raf
0 1
1 5
s el
Ġk ere
Ġt el
Ġt Ã¼m
Ġa ÄŁ
Ä±ÅŁ Ä±
du ÄŁum
em iyorum
Ġu ÄŁr
edi ye
Ġek ran
Ġtaraf Ä±ma
Ġzor unda
Ġmode l
e g
i ca
Ġb Ã¶l
Ġk ayÄ±t
il ip
et im
Ġt er
Ġh ar
Ġde dim
ĠS at
ĠA ma
Ġ1 6
ĠgÃ¶ ster
Ġdi ÄŁer
Ġyan lÄ±ÅŁ
Ġedil di
Ġgir iÅŁ
Ġgerek iyor
ĠkiÅŁ i
ĠEl ektrik
u a
Ġ Ä±s
Ġb ank
Ġk ut
ler in
Ġe der
ĠH az
ĠH ukuk
Ġver di
ab er
ĠÃĩ alÄ±ÅŁ
ĠsÃ¼r ec
00 0
ĠaÃ§ Ä±k
ĠgÃ¶r e
Ġolma dÄ±ÄŁÄ±nÄ±
Ġot ur
Ġyetk ili
" "
1 9
i a
k Ã¼
k aÃ§
m alar
Ġ mas
Ġ lÃ¼
ar j
Ġb oy
Ã§ elik
Ġg arant
Ġy as
me miÅŁ
lar Ä±m
Ġr ahat
Ġson r
Ġgit tiÄŁim
ĠU laÅŁ
lam Ä±yorum
ĠÄ°l k
Ã¼ÄŁ Ã¼m
ĠEk sik
Ġkim se
erson el
A l
B en
s ini
t fen
y an
Ġb unu
Ġs efer
Ã§ a
en in
ĠB oz
Ġve ya
Ġyap tÄ±
Ġ1 1
Ġ1 4
ĠM a
Ä±nda ki
ĠF ir
Ġtem sil
orm al
Ġbekl iyorum
ĠMaÄŁ dur
dar ik
2 4
b ur
d ol
d Ã¼k
w e
Ġb in
Ġb as
Ġb Ã¼yÃ¼k
ma mÄ±ÅŁ
Ġy Ä±k
ay Ä±m
ak in
on a
es tel
iz yon
as Ä±na
ĠÃ§ ocuk
Ġd oktor
ĠK en
ul du
ki ye
Ġsor unu
Ġyaz Ä±yor
Ġek sik
Ġtak ip
Ġdef alarca
ĠarÄ±z a
ĠlÃ¼ tfen
h al
n e
Ġ 2019
ar s
Ġs Ä±r
Ġk ok
il ir
Ġt a
Ã¼r osu
Ġa cil
Ä±l mÄ±ÅŁ
ĠE r
Ġ2 4
miyor lar
ec ik
Ġkon trol
Ġsit esinden
may Ä±
Ġfark lÄ±
ĠÃ¼y eli
ĠKal it
ĠFatur a
ĠsÃ¶ylen di
ĠiÃ§eris inde
ua we
uawe i
S amsung
d in
l eti
o ca
o cu
r u
Ġb Ã¼tÃ¼n
il miÅŁ
Ġy oÄŁ
Ġh ak
um suz
Ġol sun
ĠS igorta
Ġa it
ĠK redi
ĠM art
ĠH ak
ĠH iÃ§
ĠH ayat
Ġ2 1
ama z
mÄ±yor lar
ĠÃ§alÄ±ÅŁ an
Ġon ay
Ġdiyor lar
Ġyat Ä±r
Ġtan e
k e
m ir
n a
Ã ľ
Ġb ey
Ġb oÅŁ
Ġs Ã¼pÃ¼r
Ġk ir
Ġk at
Ġk ah
Ġk oy
Ġt Ã¼r
Ġt op
Ġi h
ler e
Ä±r Ä±
ĠÄ° z
ey i
lÄ± ÄŁ
** **
Ġkon uÅŁ
ĠsÃ¶yle di
man Ä±n
ĠkÄ±s m
r am
Ã ĸ
Ä± t
ma dÄ±m
Ġs ab
ĠÃ§ ekil
ler inde
ĠY az
Ġver iyor
ark en
Ã¼k eti
Ġhizmet lerine
Ġgit ti
uy la
Ġyak laÅŁÄ±k
ob il
ĠÄ°ptal i
Ġko d
Ġres men
ĠOp tik
M acfit
Y aklaÅŁÄ±k
n er
s in
s Ä±n
y asÄ±
ak i
Ä±m dan
lar Ä±nda
ĠT el
Ġd uy
Ġm Ã¼
ĠM ark
ĠM ah
Ġda v
ĠY et
dÄ±ÄŁÄ±m Ä±z
Ġar ay
Ġtarih i
ep si
ĠyapÄ±l madÄ±
diÄŁim iz
Ġbiz e
ĠGel medi
tÄ±ÄŁÄ±m da
ĠÄ°n ternet
Ġsonu Ã§
Ġuz un
l ilik
y Ä±
ÅŁ am
er t
Ġb ah
Ġk ul
Ġk Ä±z
Ġy en
Ġt aÅŁ
Ġi ti
Ġbir kaÃ§
ĠT em
Ġn erede
Ġyap Ä±la
Ġ1 7
Ġ1 9
st a
lan Ä±yor
Ġar ayÄ±p
Ġkap an
ĠulaÅŁ madÄ±
ĠSor un
Ġzaman da
ĠAn kara
ĠÃĸ de
ĠsÄ±k Ä±ntÄ±
ĠoluÅŁ tur
ĠTÃ¼r kiye
ren dy
P h
i c
m Ã¼yor
t esi
me diler
un uz
Ġde st
Ġd an
ĠK ullan
ĠA Ã§
ĠÅŁ imdi
du k
ĠG aranti
Ġver miÅŁ
Ä±s Ä±z
ĠbaÅŁ la
uyor um
ĠaldÄ±ÄŁÄ±m Ä±z
Ġmark et
ĠulaÅŁ amÄ±yorum
Ġneden iyle
Ġad res
Ġiz le
ĠsÃ¶z leÅŁ
hat ap
ĠTes lim
âĢ Ļ
ĠuÄŁr aÅŁ
ilip s
rendy ol
D igiturk
o ya
t op
Ġ &
Ġ im
Ġs Ä±fÄ±r
el eri
Ġi k
Ġol acak
Ġal maya
ĠB Ã¼rosu
am Ä±yor
ĠK ur
st ik
ab a
Ġbil gilen
ĠAr Ä±z
Ġsat Ä±ÅŁ
Ġveril di
ĠÃ¼y elik
Ġmakin esi
ĠtÃ¼r lÃ¼
in g
Ġk itap
Ġk ampan
il iyor
ir Ã¼s
Ġy emek
da ki
Ġt amam
Ã¼n den
es ini
ĠB Ã¶yle
Ġd on
Ġ1 00
ĠD oÄŁ
ĠgÃ¼n cel
ÄŁim iz
iy on
ĠBu gÃ¼n
Ġnumar asÄ±
san Ä±z
Ġgerek ti
ĠSipariÅŁ im
ĠkarÅŁÄ± laÅŁ
V M
e d
l ub
Ġt at
ek lam
un ca
ĠA VM
ĠH o
Ġda ir
ĠÃ¼ ye
Ġdi yerek
Ã¼m Ã¼
ĠÃľ y
Ġo da
ama ÅŁ
mek lilik
Ã¼z el
ev izyon
Ġev de
Ġor ta
Ġveril medi
ĠÃ¼zer inde
Ġsiz e
ĠSon ra
ĠSÃ¼r ekli
ĠbaÅŁvur u
ĠYan lÄ±ÅŁ
ĠdÃ¼zel t
ĠHaz iran
Ġtemsil c
Ġiti bar
C inemaximum
i j
i de
l k
ar Ä±m
or um
Ġs ah
Ġk azan
Ã§ e
me li
Ã¶ p
Ġp as
Ġp iÅŁman
ĠÅŁ arj
Ġyap mÄ±ÅŁ
Ġyap tÄ±k
ti ya
ĠE v
Ġet tir
mek te
ĠO n
Ġkullan Ä±yorum
Ġkap sam
ĠgÃ¶nder dim
Ġtes limat
Ġbek let
Ġolma dÄ±ÄŁÄ±
Ġhat a
ĠÃĸ n
10 1
Ġhem en
ĠuÃ§ uÅŁ
Ġab on
ĠÅŁirk et
' s
B ir
c ih
g ol
g Ä±sÄ±z
Ġ -
al es
Ã§ i
Ã§ Ã¼k
ir ken
Ġh ediye
ek l
ĠB ak
ĠÃ§ ocu
Ġf otoÄŁraf
Ġ1 3
Ġbu z
Ġr ica
Ġoldu k
Ġbil gisayar
ĠÃľ st
edi y
sun da
ĠC lub
ĠgÃ¶r dÃ¼m
Ġc am
Ġyaz Ä±k
Ġfir mas
lÃ¼ yor
ers iz
Ġbulun an
ci ye
Ġte darik
Ġkol tuk
ĠgerÃ§ek ten
Ġkesin likle
Bu gÃ¼n
Ġter cih
amaÅŁ Ä±r
ales ef
H uawei
d iniz
d Ã¼ÄŁÃ¼m
e den
e medi
o da
r on
ÄŁ iz
ÄŁ iniz
Ã§ iyim
et f
at an
Ġol muÅŁ
Ġol muyor
Ġde yip
ĠS Ã¶z
ler im
Ä±l an
Ġf orm
ĠH alÄ±
ĠG eÃ§
Ġ2 5
erv asyon
ĠÃľrÃ¼n Ã¼n
len dir
lÃ¼ ÄŁ
ĠÅŀ ikayet
ĠyÄ±l dÄ±r
oy ner
Ġot el
ĠÃ¼zer ine
Ġdurum u
ĠÄ°n san
ĠÃ¶ÄŁr en
ĠHo me
1 8
2 3
k es
v a
Ġ Ã¶yle
Ġb ez
Ġs e
il eri
ir aat
Ġy ayÄ±n
Ġt ur
Ġh an
as us
ĠS ay
ĠS amsung
Ġal Ä±p
Ġd Ã¼n
ĠK es
Ä±z da
Ġe dip
ĠH em
ĠE s
Ġbil g
madÄ± lar
Ġben de
Ġ5 0
ĠyapÄ±l dÄ±
Ġon line
ĠGel en
akk abÄ±
ĠÄ°l gisiz
Ġbit ti
Ã¼ÄŁ Ã¼n
ĠgÃ¶tÃ¼r dÃ¼m
eg asus
Ġrahat sÄ±z
Ã¼keti ci
S aat
b ank
c an
m alÄ±
y se
Ġs ok
Ġs oÄŁ
en el
Ġt ah
ek i
es t
Ġol masÄ±
Ġde dik
Ġbir i
ĠÃ§ ar
am Ä±yoruz
Ġa c
Ä±l t
Ä±l Ä±k
Ä° stanbul
ĠM u
ĠY at
li x
ĠE meklilik
Ġdi k
ca ciye
Ġne dir
ĠgeÃ§ mesine
Ġpar am
Ġher kes
ĠKargo m
ĠdeÄŁiÅŁ ik
ot or
Ġdurum da
Ġhafta dÄ±r
ĠalmÄ±ÅŁ tÄ±m
ĠZ Ã¼c
Ġboz uk
ĠDeÄŁ iÅŁ
ĠBank asÄ±
etf lix
ĠZÃ¼c caciye
1 3
1 7
A t
S mart
f ak
i bi
s it
y Ä±m
Ġ J
Ä± yla
Ġb unun
il mesini
Ġt av
um uz
es inin
ap or
lar la
ĠS al
ĠS Ä±k
ĠS por
Ġm al
Ġp at
Ġyap mak
ĠÄ° st
ĠgÃ¼n de
Ġr en
Ġkar tÄ±
Ġet tik
medi k
ĠgÃ¶r ev
201 8
Ġdol dur
Ã¼yor um
ĠAy rÄ±ca
ĠU y
Ġkan al
Ġkan dÄ±r
ĠÃĩÄ±k tÄ±
ĠgerÃ§ek leÅŁ
Ġbor c
Ġindir im
ĠKalit esiz
Ġdest ek
1 6
M ars
N G
V estel
c ut
g er
k at
n ak
o g
r esi
s iyon
u an
Ġb un
de ki
ma tik
Ġs en
Ġk urum
ol a
on u
lar Ä±mÄ±
lar Ä±mÄ±z
Ġal mam
ĠB ur
Ã¼r k
ĠÅŁ if
Ġn ormal
ĠP ark
iy eti
Ġan da
ama ya
ad olu
miÅŁ ler
Ġkullan dÄ±ÄŁÄ±m
ĠsÃ¼r esi
Ġ5 00
ĠÃľrÃ¼n Ã¼
ĠulaÅŁ tÄ±
Ġservis i
ĠdeÄŁiÅŁ im
Ġyol la
Ġsiz in
Ġtal eb
ĠkÄ±r Ä±ldÄ±
ĠVer il
ob Ã¼s
Ġkay b
ĠmaÄŁaz asÄ±ndan
Ġyetk il
Ġtam ir
Ġtel evizyon
Ġgarant isi
b a
b u
o f
r i
r at
s Ä±nÄ±z
Ä± da
in ir
al t
al Ä±m
ma dÄ±ÄŁÄ±
Ġk as
Ġk am
Ġg Ã¼zel
ak Ä±f
Ġv irÃ¼s
Ġh Ä±z
ek om
Ã¼n kÃ¼
la h
as un
ĠS aÄŁ
ĠT e
ĠT am
ul uk
Ä±r t
Ä±r Ä±m
Ä° n
Ġ2 3
tal ya
ĠV ar
medi ÄŁim
eb e
lik te
Ġ4 0
Ġtelefon u
ĠdÃ¶n em
ĠL Ã¼t
ece ÄŁi
Ġmu ay
ĠGÃ¼n dÃ¼r
Ġme v
enc ere
ande mi
ĠKÄ±r Ä±k
ĠyoÄŁ un
ĠTel ekom
T rendyol
g el
p p
Ä± ya
Ġb ede
ma masÄ±
Ġs igort
Ġy aÄŁ
at a
ak lÄ±k
um ara
Ġol up
iÅŁ ime
Ġal ak
ĠB iz
ĠK an
Ġm ik
Ġn o
ĠG eri
Ġay Ä±
Ġay rÄ±
Ġver ip
ĠgÃ¼n den
Ġma alesef
Ġar an
ĠÃ¶ den
miÅŁ tir
Ġgi dip
dÄ±k tan
ĠsÃ¶yle dim
Ġyer de
ĠR es
ĠAy nÄ±
Ġak ÅŁam
acaÄŁ Ä±z
ĠBil et
ĠdoÄŁ ru
ĠgÃ¶zÃ¼k Ã¼yor
alg az
Ġkurul um
Ph ilips
Ġbilgilen dirme
ĠÃľy elik
ediy esi
ĠLÃ¼t fen
2 2
4 0
f e
f i
g un
g daÅŁ
o d
s al
u v
y im
Ä± c
or ona
Ã¶ tÃ¼
lar dan
ĠB ay
ĠT ak
ĠT ab
Ġd ir
Ġbu laÅŁÄ±k
ĠD ef
ĠgÃ¼n lÃ¼k
Ġr eklam
Ġ2 8
ey im
ĠÃľ creti
Ġan lay
ĠF il
ĠdeÄŁ er
ĠO y
Ġdah i
Ġpar amÄ±
ĠgÃ¶r Ã¼ÅŁt
ĠÃ§alÄ±ÅŁ mÄ±yor
Ġfir masÄ±
tÄ±ÄŁ Ä±
Ġtek nik
eme ye
ĠÅŁub esine
Ġat tÄ±m
Ä±la mÄ±yor
ĠÄ°Ã§ in
Ġko du
Ar Ã§elik
ĠAt h
Ġseb eb
Ġih tiya
Ġmev cut
0 8
B ur
b ebek
c aÄŁÄ±
o j
p er
y in
ar da
ÅŁ im
er b
Ġb az
ÄŁ inde
al l
Ġy ere
di ÄŁi
me mesi
ek et
ĠS mart
Ġal alÄ±
ĠB ana
ler ce
ler den
ler inden
ĠA s
Ä±l masÄ±
Ġyap Ä±yor
ĠM akin
Ġgel miyor
ĠD Ã¼n
ĠO cak
diler ine
Ġkal dÄ±
ro s
ĠÅŀ imdi
ĠKargo ya
ĠyÄ±l lÄ±k
Ġyer ine
ĠAl dÄ±ÄŁÄ±m
Ġden di
ece ÄŁini
Ġede ceÄŁim
ĠsÃ¶y lÃ¼yor
Ġoy un
ib u
Ġsay f
Ġhakk Ä±nda
ĠgÃ¶rÃ¼n Ã¼yor
ida t
leti c
ĠHiÃ§ bir
Ġsab ah
ekl inde
ĠAth letic
4 4
A y
B oyner
T Ã¼rk
e x
i i
k an
k ur
l o
n in
Ġb ebek
Ġs eÃ§
Ġk om
en s
Ġy eri
me yi
Ġol ay
ĠB ek
ĠÃ§ Ã¶p
Ġd er
ĠA v
Ġm Ã¼ÅŁt
is h
is ik
ĠM em
ĠM erkez
ĠG Ã¼ven
Ġver miyor
Ġgel ecek
tÄ± lar
ĠD an
lan dÄ±
ÄŁim de
Ġ2 2
Ġhal en
madÄ± k
ĠgeÃ§ en
Ġkal k
Ġpar asÄ±nÄ±
Ġiade sini
ĠgÃ¶r Ã¼ÅŁ
ĠgÃ¶nder ildi
Ġfir maya
ig ros
ĠyÄ±l Ä±nda
ĠAl t
Ġor ada
Ġbiz i
ĠGel di
ece ÄŁim
may Ä±n
Ġyak Ä±n
Ġyak Ä±ÅŁ
Ġmu hatap
ĠPar Ã§a
Ġinsan larÄ±
iv ibu
ĠEk ran
ĠTek nik
ĠTÃ¼r k
Ġseb ep
ĠkÃ¼ Ã§Ã¼k
Ġrez ervasyon
ĠbÃ¶l Ã¼m
Ġbuz dol
Ġdik kat
2 5
S Ã¼r
ar b
an lÄ±
ÄŁ it
or a
Ġs il
il mesi
en ov
me ti
at Ä±
lar Ä±na
Ġal dÄ±
Ġbir likte
Ġd os
ĠK Ã¶tÃ¼
Ä±l Ä±yor
Ä±l mÄ±yor
Ġyap an
ĠM obil
ĠH es
ĠY Ã¶n
ĠG ir
ĠG Ã¶
Ġay da
em iyor
Ġver dik
ĠD igiturk
ĠP ersonel
Ġan la
Ġan laÅŁ
Ä±na v
Ġyok tu
ĠÃ¶n em
Ġkullan dÄ±m
ĠsÃ¼r ede
Ġben den
Ġdah il
ĠKar t
Ġkap alÄ±
ĠgÃ¶r medim
Ġtak Ä±mÄ±
ĠÃ¼z ere
Ġor t
ĠyaÅŁ a
Ġsiz i
Ġ0 8
ĠÃ§Ã¶z Ã¼l
iv ers
Ġkay nak
Ġilet iÅŁime
Ġfiyat Ä±
ĠÄ°Ã§ ecek
caÄŁ Ä±m
ask o
ĠhazÄ±r lanÄ±yor
ĠyÃ¼k sek
ande v
rem i
Ġuygu lama
makta dÄ±r
ĠsÃ¼rec inde
bur ada
epsi burada
ĠÃ§ocu ÄŁum
rat is
1 4
P egasus
e bi
n Ä±n
y u
Ã¼ f
in al
ol iÃ§
iz za
Ġde p
ĠB or
ĠB unun
ĠB Ã¼yÃ¼k
ĠÃ§ at
ĠT ar
Ġn umara
dan a
Ġe din
ĠH as
ĠD i
Ġkar gol
Ġan lat
ĠO r
ĠO t
Ġgi diyor
Ġkullan Ä±yor
ĠÃ§Ä±k Ä±yor
Ġin cel
ĠÅŀ u
Ġolma z
om i
ede k
Ġgerek li
Ġfatur am
Ġmak ine
ĠsaÄŁ lÄ±k
Ä±lÄ± ÄŁ
Ġsan ki
id di
ĠaÅŁ Ä±rÄ±
ĠkartÄ±m dan
Ġbey az
ĠYet k
Ġkapsam Ä±nda
ĠMem nun
enov o
2 9
A pp
Z iraat
h ar
m Ã¼ÅŁ
o w
Ġ .
Ġ w
an da
al a
Ġg ere
el l
et imi
Ġv ide
um un
la s
iz i
iz de
ĠS it
ĠS Ã¼pÃ¼r
ik ol
ĠB e
Ġa il
ĠK ol
Ġm il
Ġm en
ĠÅŁ eklinde
az i
ĠY Ä±k
ĠY ayÄ±n
ĠG etir
Ġgel ir
ab r
ĠD ev
Ġbil gil
Ġ2 9
Ġet meye
ĠÃ¼rÃ¼n leri
Ã¼m Ã¼z
dÄ±r ma
ĠÃĩ ek
ep e
ĠC inemaximum
Ġpar ayÄ±
Ġkap ak
iniz i
Ġiptal i
tr e
Ġedil medi
Ġolma dan
Ġtak sit
Ġev e
Ġhat ta
Ġhat asÄ±
ĠÃ¼cret siz
lama dÄ±m
ĠolduÄŁum uz
ĠBil gisayar
Ġbekle dim
Ġpak eti
ĠNe den
Ġdur uyor
Ä±ntÄ± sÄ±
ĠsaÃ§ ma
ĠHat asÄ±
Ġes ki
ĠÃ§aÄŁ Ä±r
ĠgittiÄŁim de
ĠBoz uk
ĠMa il
ĠsÃ¼pÃ¼r g
ĠÄ°z mir
ĠsÃ¶zleÅŁ me
Ġgerekti ÄŁini
0 7
2 8
M S
T T
V akÄ±f
k Ã¼n
s em
t ayÄ±m
â Ĥ
Ġ Ä±sÄ±
ar et
Ã¼ me
ÄŁ l
ÄŁ inden
Ġk il
en Ã¼z
ay laÅŁ
as Ä±z
ĠÃ§ amaÅŁÄ±r
ĠT Ã¼ketici
Ġa dÄ±
Ġp ersonel
ul muÅŁ
iyor sunuz
aÄŁ a
az a
Ä° gdaÅŁ
ĠH av
ĠY Ä±l
ĠY Ã¼k
ĠG ecik
em i
ĠÃ¼ Ã§
Ġet tiler
Ã¼m kÃ¼n
ĠÃ¶ z
ama dÄ±
Ġz am
ĠF iyat
ĠgeÃ§ er
Ġkal dÄ±r
ere ce
Ġfir manÄ±n
os ch
Ġtelefon da
diÄŁim de
Ġon u
Ġgerek en
ĠÅŁub esinde
iler in
Ġken d
Ġot obÃ¼s
Ġpro g
Ġhes ap
Ġoy n
ĠoluÅŁ tu
ĠÃ§aÄŁ rÄ±
ĠÅŀub at
Ġsebeb iyle
SÃ¼r at
ÄŁit im
2 1
2 7
d Ä±n
d Ä±nÄ±z
g an
l y
m ur
p top
t ay
z Ä±m
er m
Ġb una
ma dÄ±ÄŁÄ±m
Ġs i
en t
el im
Ġt Ã¼k
Ġh ay
Ġh aber
lar dÄ±r
lar Ä±nÄ±n
ĠS MS
Ġal Ä±rken
ĠÃ§ ev
ĠT araf
ĠT ivibu
ĠK as
Ġm is
Ġm Ã¼mkÃ¼n
Ġf alan
ĠM edi
ĠiÃ§ inden
ĠY ar
ĠG erek
ĠG Ã¶z
ĠG Ã¶r
Ġay r
Ġay rÄ±ca
ĠD Ã¶n
Ġr apor
Ġ2 6
Ġara ma
ah ve
ef al
ĠsipariÅŁ imi
Ġan n
ama men
Ġhal Ä±
Ġtarih li
Ġkullan mak
alar Ä±n
ut fak
Ġyaz Ä±l
ĠÃľrÃ¼n ler
Ġel em
Ġyer den
ĠAy dÄ±r
ĠÅŁub eye
Ġak tar
Ġbel li
Ġbak tÄ±m
Ġuy ar
Ġuy gun
Ġdev let
Ġinternet ten
eÄŁ en
ĠiÅŁlem i
Ä±lÄ± ÄŁÄ±
Ġla ptop
caÄŁ Ä±nÄ±
Ġ201 8
Ġis im
Ġkut u
Ġbah an
Ġorta da
Ġitibar en
Ġabon eli
Ġfirmas Ä±ndan
Ġbilg isi
Ġdir ek
âĤ º
2 6
7 5
E v
E bebek
K ar
M edi
S ipariÅŁ
b il
c al
m in
r ol
r ak
Ġ ap
er on
Ġg ece
Ġg ecik
Ġy e
Ġy ay
ol d
Ġv s
um ur
Ġol mak
Ġol abilir
la masÄ±
lar Ä±ndan
Ġd il
ler dir
Ġf Ä±r
Ä±ÅŁ Ä±k
Ġp iÅŁ
Ġp aylaÅŁ
ĠH af
ĠG it
Ġgel ip
Ġil aÃ§
ĠP iÅŁman
mas Ä±nda
Ġbil eti
Ġbil miyorum
Ġson unda
ta j
Ġara cÄ±
Ġara mama
ah h
tal ar
ad de
ĠÃ¶n c
miÅŁ ti
ĠgeÃ§ tim
Ġsor umsuz
Ġpar asÄ±
Ġtak Ä±m
Ġden ildi
ĠdeÄŁil im
Ġhat t
Ġyar Ä±m
Ġbiz im
Ġsit e
ĠÅŁikayet Ã§iyim
Ġl ek
Ġot o
Ġbulun dum
sÄ±z lÄ±k
Ġmu h
ĠdÃ¼z en
ĠdÃ¼z gÃ¼n
Ġistedi k
Ġhesab Ä±ma
An adolu
ĠPro blem
igort am
ĠÃ¶zel likle
ĠBel ediyesi
ĠMaÄŁdur iyet
Ġkok u
ĠsoÄŁ uk
Ġmuay ene
isik let
ivers it
andev u
4 5
P S
b o
m alÄ±k
n de
t um
t ok
Ġb er
or d
Ġk op
en ti
ol du
ay an
Ġh ayat
iz m
as Ä±nÄ±n
Ġal an
ĠÃ§ ay
Ġd erece
Ġa da
ĠK ab
ĠK araca
ĠK ampan
is ine
Ġn isan
ĠM NG
ĠH ot
ĠY aÅŁ
ĠY eni
Ġbu lamÄ±yorum
Ġ2 7
ey iz
Ġma h
Ġan a
Ġist eme
mÄ±ÅŁ tÄ±r
Ġ3 00
Ġkullan Ä±cÄ±
ĠgeÃ§ ir
ĠC ihaz
Ġc iddi
ĠgÃ¶nder il
ĠyapÄ±l an
ĠyapÄ±l masÄ±nÄ±
av aÅŁ
ĠAr Ã§elik
ĠAl Ä±n
Ġden eme
Ġsit ede
Ġak ti
ĠyaÅŁ Ä±yorum
rar la
imiz i
Ġad Ä±na
ĠÃ¼st Ã¼ne
Ġilet iÅŁim
Ġsonu cu
Ġarac Ä±n
ĠTes limat
ĠyaptÄ±r dÄ±m
ov id
ĠDeÄŁ il
ĠTur izm
Ġsev inir
ĠÄ±s Ä±n
ĠÃ¼yeli ÄŁimi
Ġkah v
ĠmÃ¼ dÃ¼r
Ġnerede yse
ĠArÄ±z asÄ±
ij inal
ĠÃľst elik
Ġform u
ĠSay gÄ±sÄ±z
ĠSÄ±k Ä±ntÄ±sÄ±
Ġsevinir im
6 6
C ola
b ey
s eniz
s App
Ã¼ st
ÅŁ tÄ±r
er a
Ġb at
Ġb eÄŁen
in em
ÄŁ in
al k
or k
Ġs er
Ġs Ã¼t
Ġs inema
di t
Ġt amamen
Ã¼n Ã¼
um da
es s
Ġal Ä±yorum
Ġal dÄ±lar
ĠÃ§ iz
ĠÃ§ ikol
ĠK o
ĠA cil
Ä±l dÄ±m
Ġm otor
inde ki
Ġp is
Ġp uan
ĠÅŁ iÅŁ
ĠiÃ§ i
ĠD e
ĠD av
iy i
ey n
Ġma aÅŁ
Ġara b
Ġara ÅŁtÄ±r
Ġar t
ĠÃľ n
Ġkullan Ä±m
ĠÃĩ aÄŁ
ĠÃ§Ä±k an
oÄŁ u
ĠaÃ§ an
tir az
tÄ±ÄŁ Ä±nÄ±
ĠyapÄ±l mÄ±ÅŁ
ĠyapÄ±l mÄ±yor
tÄ±k larÄ±
ĠÅŁey ler
om p
ĠAr k
ĠAr tÄ±k
Ġon un
Ġveril en
Ġsit esinde
Ġken dilerine
lam da
ece ÄŁiz
ĠÃĸ zel
Ġede cek
ĠgÃ¶z lÃ¼ÄŁ
Ġyat ak
cel l
ĠkiÅŁ ilik
siz liÄŁi
Ġla stik
Ġla zÄ±m
ĠmaÄŁdur iyet
hat sApp
ĠMaÄŁ az
Ġalt Ä±nda
Ġkalit esiz
Ġkonu da
Ġer tel
Ġeder im
Ġsonr asÄ±nda
ĠFir ma
Ġkah ve
lk er
mekte dir
ĠmÃ¼ÅŁt er
ĠMerkez i
ĠMobil ya
ĠTar ih
Ġoto matik
ĠHot el
9 0
A v
G eÃ§
d de
l Ã§
m alarÄ±
y o
y al
y le
z un
Ġ met
Ġ âĢ
an Ä±z
al ama
ma da
Ġs et
Ġs por
Ġk Ä±l
Ġg Ã¼
Ġg enel
da v
ol oj
ol ly
Ġt encere
Ġh enÃ¼z
Ġol amaz
Ġde mek
ĠS adece
ĠS Ä±fÄ±r
Ġal amÄ±yorum
Ġal dÄ±ÄŁÄ±
ĠB ey
Ġbir az
ler imi
ĠK ok
ĠK itap
it re
Ġf abr
Ġp ark
ul an
Ä° ÅŁ
Ġn ak
ĠM ar
ĠiÃ§ eri
ĠY ol
ĠY ak
ĠÄ° ki
em in
ĠE diyor
iy di
Ġet miyor
ey sel
Ġo ÄŁl
Ġz ar
Ġgi de
ĠN etflix
ub e
Ġ4 5
Ġ4 8
iniz e
ĠÃ§alÄ±ÅŁ ma
ĠÃ§alÄ±ÅŁ Ä±yor
Ġfir madan
tÄ±ÄŁ Ä±nÄ±z
Ġgit tik
Ġek st
ĠAn talya
lu ÄŁu
ĠÃ¼cret ini
acaÄŁ Ä±nÄ±
acaÄŁ Ä±mÄ±
meye cek
ĠÃ§ek im
Ġark a
Ġte h
ĠServis i
ĠalÄ±n dÄ±
Ġboz uldu
Ġarac Ä±m
Ġbekl iyor
ĠdÃ¼ÅŁÃ¼n Ã¼yorum
ĠW hatsApp
ĠsaÃ§ malÄ±k
Ġkalit eli
ĠyÃ¶n lendir
Ġhas ar
ĠAra Ã§
An kara
ĠHizmet leri
ĠdÄ±ÅŁ Ä±nda
ĠeÅŁ im
Ġhar eket
Ġboy unca
ĠsÄ±r a
ĠkÄ±sm Ä±
ĠBak an
ĠSÃ¶z de
At asun
ĠgerÃ§ekleÅŁ tir
Ġbede li
ĠFil m
ĠsÃ¶ylÃ¼yor lar
ĠYÄ±k ama
Ġbilgil er
eyn ir
9 9
A k
B ank
B osch
G aranti
S igortam
c Ä±m
c ra
c ana
g Ä±
h a
i ci
l ayÄ±p
o st
p res
r et
s p
u la
y Ä±z
Ġ %
Ä± lama
er di
Ġb i
in o
or t
Ġs Ä±
Ġs un
Ġs ap
Ġs esi
Ġk m
Ġg iÅŁ
ak et
ek o
um lu
iz meti
ur u
ĠS es
ĠS ep
Ġal ama
ĠB uz
ĠÃ§ Ã¼nkÃ¼
am il
Ġd ers
Ġa idat
ĠK im
ĠK ay
ĠK ing
Ä±l ma
is ini
is inden
Ġp andemi
Ġyap Ä±n
Ġyap Ä±p
Ġyap mam
ĠM Ã¼
ĠY o
ĠÄ° le
Ġay akkabÄ±
ya h
ya hat
ĠD oktor
Ġet me
Ġar am
Ġar alÄ±k
ĠÃ¼rÃ¼n Ã¼m
Ġist en
Ġo cak
Âł Âł
ĠbaÅŁ lat
ĠO to
Ġkal dÄ±m
eb il
eb ilir
ĠC ovid
Ġgeldi k
Ġtelefon a
Ġolma yan
ĠAr alÄ±k
ĠdeÄŁiÅŁ imi
ecek lerini
ĠR ahat
ĠÅŁub esinden
ĠGel miyor
Ġen gel
Ġ0 2
eÅŁ ke
Ġsu Ã§
ĠGÃ¼n Ã¼
ĠkarÅŁ Ä±lÄ±ÄŁ
ĠarÄ±z asÄ±
ĠyÃ¼z Ã¼nden
ĠsÃ¶z de
ĠTek rar
Ã¼c Ã¼
Ġer tesi
Ġ201 7
Ġgider ilmesini
ĠkÃ¼ f
Ġyas al
Ġta ahh
ĠÃĸde me
ĠgÃ¼ncel le
ron ik
ĠDÃ¼n yasÄ±
ĠÃ§Ã¶p e
Ġkaynak lÄ±
ĠDi ÄŁer
ĠSÃ¼pÃ¼r ge
Ġber aber
ĠÃľn iversit
pres s
E n
F ac
H epsiburada
b et
f one
g l
m uz
y dÄ±
Ġ am
Ġ lik
ar i
ar Ä±nda
Ã¼ dÃ¼k
Ġb ebe
in ci
al tÄ±
Ġs oy
Ġs uyu
Ġs Ä±nav
Ġk af
Ã§ ak
en ta
Ġy eme
Ġy alan
ay et
la mÄ±yor
ĠS an
ĠS ite
Ġal dÄ±ÄŁ
Ġal amadÄ±m
ĠB E
Ġbir bir
ĠT av
ler ken
Ġm an
Ġm on
Ġm obil
is inin
Ä±ÅŁ man
Ġp la
Ġp ah
Ġp eÅŁ
Ġn ey
Ġyap mÄ±yor
Ġyap maya
ce ÄŁini
ĠM ak
ĠH akk
Ġda ma
ĠY er
Ġay ak
Ġver en
Ġver diler
ĠÃ¼ tÃ¼
ĠP izza
ĠP TT
Ġkar ar
Ġkar de
Ġar asÄ±
Ġyok sa
alar Ä±nÄ±
ĠN asÄ±l
Ġkal an
ĠaÃ§ tÄ±m
ĠaÃ§ tÄ±ÄŁÄ±mda
ev i
ĠBu laÅŁÄ±k
Ġyaz Ä±
len di
maya cak
ĠÃ§alÄ±ÅŁ tÄ±r
Ġyan Ä±nda
ĠÅŁey i
Ġden e
uy um
ĠR en
Ġor ijinal
ĠÅŁub e
Ġbel g
Ġl itre
Ġyol a
Ġ0 1
ĠBil gilen
Ġdiyor um
mam Ä±za
imiz in
alan dÄ±
ĠBen im
Ġbay an
ĠOl du
ĠaÃ§Ä±l mÄ±yor
Ġhep si
ĠÄ°ÅŁ lem
ĠYapÄ±l madÄ±
Ġes n
Ġsefer inde
ĠYaz Ä±k
Ġkul aklÄ±k
ĠbaÅŁla dÄ±m
Ġizle ye
Ġdon dur
ĠÃĸn ce
oda fone
ĠKes in
Ġac aba
ĠgÃ¶rev li
ĠKalitesiz liÄŁi
Ä°n ternet
ĠyoÄŁun luk
ĠMakin esi
Ġbuzdol ab
Ġkend ine
Ġelem an
ĠÃľniversit esi
3 5
E A
E m
F i
G ratis
S un
T ek
X ia
b al
c uluk
d eri
g Ä±n
r amÄ±
s k
v et
Ã ¢
ar d
Ã¼ b
Ġs eti
Ġg ayet
at i
Ã¼n Ã¼n
Ġol sa
Ġde tay
ur ti
ĠS Ã¼t
Ġal Ä±yor
ĠB it
ĠB ul
ĠB ab
ĠÃ§ al
ĠT at
ĠT op
ler le
ler inin
ĠK ul
ce ÄŁi
ĠG old
Ġay Ä±n
Ġbu har
Ġver mek
ĠD en
ĠD iy
ĠE ÄŁitim
iy as
Ä±nÄ± f
dÄ±ÄŁÄ±m da
ĠÃ¶ d
Ġist emiyorum
mÄ±ÅŁ lar
ĠV atan
Ġhal e
ĠF ark
ĠF otoÄŁraf
ĠolduÄŁ undan
miÅŁ tim
Ġkullan ma
Ã¼z Ã¼
ĠsÃ¼r eÃ§
Ġin an
Ġsor dum
oÄŁ az
oÄŁ lu
ĠiÅŁ e
ĠiÅŁ i
ĠiÅŁ let
Ġc iv
ĠÃľrÃ¼n Ã¼m
ken t
ĠgÃ¶nder diler
ĠÃ¶de dim
tÄ±k tan
ĠYap mÄ±yor
ĠR ez
Ġsit esi
acaÄŁ Ä±
Ġsiz den
ayÄ±s Ä±yla
Ġyet er
ĠGÃ¼n cel
Ä±mÄ±z a
Ä±mÄ±z Ä±
ĠsaÄŁ lÄ±ÄŁÄ±
Ġ20 0
ĠPar am
ĠarÄ±z alÄ±
Ġkredi si
urk cell
Ġarac Ä±mÄ±
ĠÃ¼rÃ¼nler in
ĠOl mayan
Ġsay gÄ±sÄ±z
Ġistedi ÄŁimi
Ġbelirt tiler
ĠaÅŁ a
Ġseb ebi
ĠBaÅŁ ka
Ġsev erek
ĠhazÄ±r lan
Ġbur ada
ĠÅŁirk eti
Ġsonr asÄ±
ĠyÄ±k ama
ĠKen di
Ġkod lu
ĠMah all
Ġim z
Ġkampan ya
Ġmal z
ĠyaÄŁ mur
ĠDef alarca
arda k
arb ak
ĠYÃ¼k sek
ĠÃĩaÄŁ rÄ±
GeÃ§ en
Ġekst ra
ĠSep eti
ĠkarÅŁÄ±lÄ±ÄŁ Ä±nda
ĠBE S
ĠMahall esi
0 9
7 3
B A
B im
B eko
D an
K on
K EA
L enovo
M igros
N etflix
P ar
P enti
a iz
b ilir
i den
k s
n eler
s ak
z er
Ã¼ le
er j
Ġb undan
Ġb oya
de m
ÄŁ ine
ÄŁ inin
Ġs ur
Ġs Ä±z
Ġs ert
Ġs tok
Ġk it
Ġk Ä±ÅŁ
Ġk av
Ã§ ok
Ã§ uk
il miyor
Ġg r
Ġg az
Ġy orum
di ÅŁ
Ġt or
Ġt en
Ġt eÅŁ
ay ma
ay la
on un
iÅŁ ehir
lar ak
lar Ä±mÄ±n
ik li
ĠT a
Ġd Ã¼ÅŁt
Ġd Ã¶k
Ġd alg
ĠK ahve
ĠA ÅŁ
Ä±l dÄ±ÄŁÄ±
Ġm ar
it r
Ä±ÅŁ tÄ±r
Ġp er
Ġp az
Ġp oliÃ§
ce ÄŁiz
Ġe m
Ġe den
Ġe ÄŁer
ĠiÃ§ ine
em iz
Ġgel dim
Ġil gisiz
uz da
ĠP as
Ġdi z
Ġma y
Ġara da
Ġar asÄ±nda
ĠÃ¶ lÃ§
tal Ä±k
Ġist er
ĠV estel
Ġhal inde
ĠF azla
ĠÃ§Ä±k art
Ġkal dÄ±k
ĠC orona
Ġkargo da
Ġyaz dÄ±m
te me
len miyor
Ġmark anÄ±n
Ġgeldi ÄŁi
ĠSor umsuz
201 7
Ġtes t
Ġyan Ä±lt
ĠyapÄ±l masÄ±
Ġek mek
Ġtek li
om ino
us unu
ĠYap madÄ±
ĠL as
mem i
dik ten
Ġhat alÄ±
Ġveril miyor
ĠÅŁub at
ĠGel meyen
Ġsorun un
ĠÅŁikayet im
Ġediyor lar
ĠBil gi
ĠiÃ§inde ki
ĠsaÄŁ lan
ĠgÃ¶z lÃ¼k
imiz de
Ġad resi
Ġkay dÄ±
ĠÃ¼st elik
ĠverdiÄŁim iz
Ġkol tu
ĠalÄ±n mÄ±ÅŁ
ĠmaÄŁaz a
ĠSÃ¼r at
ĠdoÄŁ um
ĠYan i
ĠYan Ä±lt
ĠgÃ¼ven erek
ĠgÃ¶rÃ¼n tÃ¼
Ġ9 0
enc er
Ġproblem i
Ġrez il
Ġtemiz lik
ĠÃĩalÄ±ÅŁ an
Ġyas ak
Ġta dÄ±
ĠsÃ¼pÃ¼r ge
ĠyapÄ±la cak
Ġkampan y
ĠkarÅŁÄ±laÅŁ tÄ±m
Ġtemsilc isi
ĠÄ°lgisiz liÄŁi
Ġren k
ĠhÄ±z lÄ±
ĠgÃ¶rÃ¼ÅŁt Ã¼m
Bur ger
Ġbaz Ä±
ĠHes ab
ĠYetk ili
ĠMemnun iyet
Ġteh dit
ĠBakan lÄ±ÄŁÄ±
Fac to
Ã¼dÃ¼k lÃ¼
Ġpah alÄ±
Xia omi
urti Ã§i
ĠDiy arbak
5 5
? ,
D aha
E r
H Y
T elefon
d di
g ul
l us
m ar
m Ä±zÄ±
o x
t aÅŁ
t asÄ±
t Ä±lÄ±
u cu
y ak
y lÃ¼
Ġ ir
Ġ unu
Ġ mek
Ġ len
Ġ Ä±ÅŁÄ±k
al et
al lah
Ġs ol
il medi
Ġg Ã¶n
Ġy edek
da ÄŁ
et ro
Ġt oz
Ġh am
es iyle
Ġol un
Ġol mas
iz asyon
iÅŁ k
Ġal ma
le ye
ĠT Ã¼m
ler iniz
ĠK aÃ§
ĠA d
ĠA ÄŁ
Ġp eynir
Ġp iyas
ĠÅŁ art
Ġn ot
Ġyap amÄ±yorum
Ġyap acak
ĠM acfit
Ġda ÄŁÄ±
ĠY as
aÅŁ a
ĠG enel
ĠÄ° k
em iyoruz
dÄ±ÄŁ Ä±nÄ±z
Ġgel miÅŁ
ĠD r
ĠD ol
ĠD ur
ĠE ve
Ġr andevu
iy asko
Ġdi ÅŁ
unu yor
Ġara dÄ±k
ĠÃ¼r et
Ä±s Ä±nÄ±
Ä±s Ä±ndan
ah iÅŁ
ca fe
Ġan lamadÄ±m
mÄ±ÅŁ tÄ±m
men in
Ġ3 1
alar da
ĠgeÃ§ miÅŁ
Ġsor u
Ġkal Ä±yor
Ġpar aya
Ġpar anÄ±n
ac Ä±
Ġkap aÄŁÄ±
len miÅŁ
len dirme
Ġmark alÄ±
ĠulaÅŁ Ä±lamÄ±yor
gil i
Ġsaat i
Ġiptal ini
urum u
Ġtelefon umu
Ġedil mesini
Ġkon uyla
us ur
ĠAr as
eme dim
ĠYap Ä±yor
Ġgir dim
mem iz
Ġfatur asÄ±
Ġsit eniz
Ġken dim
aya cak
Ġbak Ä±m
ĠyaÅŁ Ä±nda
ĠyaÅŁ Ä±ndaki
Ġyol u
Ġyol uyla
Ġce p
Ġ6 0
Ġ0 4
ĠBil iÅŁim
Ġneden i
ĠÃĸ z
eÅŁ it
muÅŁ lar
ĠÄ°l gilen
ĠsaÄŁ lam
ĠparÃ§ asÄ±
erÃ§ ev
lay an
gu lama
Ġsan Ä±rÄ±m
lima tÄ±
ĠarkadaÅŁ Ä±m
Ġarac Ä±lÄ±ÄŁÄ±
Ar as
Ġmerkez ine
ĠgÃ¼ven lik
Ġhakk Ä±mÄ±
ĠW i
Ġkesin ti
ĠYapÄ±l mÄ±yor
Ġtab ak
Ġkonu sunda
Ġtut ar
Ġsene dir
Ġhav a
Ġbildir dim
Ġbur aya
Ġkor k
Ġuygu la
ĠÄ±s rarla
Ġotur uyorum
hal l
ĠKredi si
ĠHak sÄ±z
Ġdav ran
ĠtaÅŁ Ä±n
ĠTem iz
ĠoluÅŁtur dum
ĠÄ°nsan larÄ±
Ġsok aÄŁa
ĠMu hatap
Ġborc um
Ġkurum sal
ĠSaÄŁ lÄ±k
Ġsigort asÄ±
ĠDev let
Ġmis iniz
Ġisim li
Ġap art
ĠProblem i
Ġakti f
Ġkahv altÄ±
gl ish
Ä±ÅŁman lÄ±k
ati on
ylÃ¼ l
S t
T efal
Y eni
a g
i ÄŁi
k as
s ey
t on
t isi
t eki
y at
ÅŁ ehir
Ġb eÅŁ
in k
Ġs ar
Ġk ara
il ere
Ġy urt
Ġy avaÅŁ
Ä±n tÄ±lÄ±
Ġt u
Ġt Ä±k
Ġt uÅŁ
Ġi f
Ġi tiraz
Ġh oÅŁ
um anda
ap top
lar Ä±nÄ±z
as ay
ĠS istem
ĠB B
ĠB aÄŁ
ĠB unu
ĠB ah
ĠB eni
ĠÃ§ ab
ĠÃ§ oÄŁu
am uk
ĠT or
Ġd Ã¼ÄŁÃ¼n
ĠK Ã¼
ĠK ir
ĠK Ä±z
ĠK uyum
ĠA b
ĠA c
Ä±l maz
Ġm er
Ġm art
ul u
aÄŁ Ä±n
Ġyap ar
Ġyap Ä±yorlar
Ġyap arken
ĠM al
du lar
ĠY Ã¼z
ĠY emek
ĠY aklaÅŁÄ±k
ĠG arant
ĠG azi
ĠÄ° h
ĠÄ° let
Ġay n
Ġay ar
em ir
dÄ±ÄŁ Ä±nda
Ġil Ã§
ĠD on
ĠD Ã¼z
lan ma
ĠP h
ade m
Ġhal k
iÃ§ i
Ġtarih inden
ĠbaÅŁ Ä±
Ġkullan maya
Ġkullan Ä±c
ĠÃĩ ekil
ĠÃĩ Ã¼nkÃ¼
miyor uz
Ġvar sa
Ġsor duÄŁum
ĠN ormal
Ġkal Ä±yorum
Ġkal madÄ±
ĠC en
ĠKar tÄ±
ĠaÃ§ tÄ±ÄŁÄ±m
Ġkargo yu
ĠulaÅŁ tÄ±r
Ġfir masÄ±na
Ġyan Ä±t
Ġservis ine
ĠÅŀ if
ikay eti
ĠsÃ¶yle dik
ĠdeÄŁiÅŁ ti
ĠAl lah
Ġden iyor
tik ten
Ġev rak
ĠL ite
ĠL aptop
Ġor adan
Ġyar Ä±n
ĠSipariÅŁ i
Ġkes ilmiÅŁ
Ġat Ä±yor
Ġl akin
Ġtaraf Ä±
Ġ6 5
ka met
Ġmu sunuz
ĠdÃ¼ÅŁ Ã¼k
Ġiste diler
leÅŁ tir
Ã¼ÄŁ Ã¼
imiz e
Ġad lÄ±
ĠaldÄ±k tan
ĠÃ¼st Ã¼
Ġkol ay
Ġtan esi
ĠSon r
Ġdak ik
ĠÃĩÄ±k an
Ġuz at
Ġres im
ĠaÅŁ aÄŁÄ±
Ġmode li
Ġkalit esi
Ġsistem i
ĠI n
Ġbor cu
Ġhesab a
ĠÃ¶ÄŁr enc
Ġhastan eye
ĠaÄŁ Ä±r
ĠSat Ä±ÅŁ
ĠsÃ¼rec i
ĠUlaÅŁ amÄ±yorum
hal de
ĠÃ¼yeli ÄŁim
ĠDoÄŁ algaz
ĠgÃ¼ncel leme
Ġtah sil
est ek
ĠDeÄŁiÅŁ tir
ĠJ et
ĠgÃ¶rev l
Ġtaleb inde
alt epe
Ġalak alÄ±
Ġihtiya cÄ±m
Ġdos y
ĠBÃ¼yÃ¼k ÅŁehir
Ġkargol an
ĠKol tuk
Ġmen Ã¼
Ġhay al
ĠyazÄ±l Ä±m
ĠHaf ta
ĠKo Ã§
ĠDav ran
ĠBuz dol
Ġdene dim
ĠBul un
ĠBab y
oÄŁaz iÃ§i
Dan one
Ġmay Ä±s
ĠMemnuniyet sizliÄŁi
ĠDiyarbak Ä±r
. ,
3 4
3 6
5 4
8 6
C oca
D omino
M A
V A
b e
b aÅŁ
d al
f or
h er
r iz
s at
s Ã¼z
s man
y ap
z um
z mir
Ġ lam
ÅŁ ir
Ġb e
Ġb ask
in can
ÄŁ un
al Ä±yor
Ġs ak
Ġs uy
Ġk aÄŁÄ±
Ġk Ä±ya
en Ã§
da va
Ġt raf
at es
Ġi ken
ak ir
Ġh a
Ġh el
la mak
Ġde ter
ur ken
ĠS e
ĠS h
ĠS aÃ§
Ġal Ä±r
Ġal tÄ±
Ġal abil
ĠB im
ĠB ede
ĠB Ä±rak
ĠÃ§ eÅŁit
ĠÃ§ erÃ§ev
ĠT v
Ġd in
Ġd Ã¼ÄŁ
Ġa v
Ġa meli
ĠK ut
Ġm Ä±s
is e
Ġf aiz
Ġp an
ul tan
Ä° zmir
Ġn et
Ġyap Ä±yorum
Ġyap abil
ĠM as
ĠM otor
ĠM igros
ĠM utfak
du ÄŁu
ĠY a
aÅŁ tÄ±r
ĠÄ° s
Ġay Ä±p
ti v
Ġbu la
Ġbu Ã§uk
Ġver ecek
Ġgel iÅŁ
Ġgel mesi
ĠD er
ĠD estek
lan dÄ±r
ĠgÃ¼n Ã¼nde
ĠE lim
Ġr ed
ĠP andemi
ĠP lus
Ġet meden
Ġma yÄ±
Ġma dde
ĠÃ¼rÃ¼n lerini
ĠsipariÅŁ ler
Ġan lam
Ġan lamÄ±yorum
tal ama
Ġist iyoruz
Ġtarih ine
mak tayÄ±m
Ġgi diÅŁ
dir im
ĠÃĩ Ã¶z
alar Ä±na
ĠgeÃ§ iÅŁ
ĠgeÃ§ iyor
ĠÃ§Ä±k ma
ĠN erede
Ġkal madÄ±m
ĠC ev
ĠKar ÅŁ
ĠaÃ§ mÄ±yor
Ġkap Ä±
Ġher halde
Ġyaz an
Ġmark asÄ±
ĠulaÅŁ mak
ĠulaÅŁ amadÄ±m
iniz de
si ye
ĠÃ¶de ye
ĠÃ¶de diÄŁim
Ġfir malar
os a
ĠÅŀ arj
ĠÅŁey in
Ġdol ayÄ±sÄ±yla
Ġedil miÅŁ
Ġnumar asÄ±nÄ±
Ġzaman larda
ede ki
mem ize
ĠdeÄŁil di
Ġgerek irken
ĠAy akkabÄ±
Ġbel ki
Ġken dil
Ġ0 6
Ġ0 9
Ġuy arÄ±
ĠdÃ¼ÅŁ Ã¼r
Ġtem in
ektr on
ĠVer miyor
siz lik
Ã¶r Ã¼
ĠBen de
Ġkab l
if t
Ġbay ii
Ġte dav
ĠHal de
Ġyeni den
sÄ± t
ĠbaÅŁvur dum
ĠdoÄŁ r
Ġbekl iyoruz
ĠTelefon u
ĠyaptÄ±r dÄ±k
ĠaradÄ±ÄŁÄ±m Ä±zda
ĠGÃ¶nder imi
Ġalt Ä±n
Ġbor Ã§
ĠEt miyor
ĠBaÅŁ v
ÄŁu st
abilir siniz
Ãĩ ok
Ġis m
ĠBel ir
ĠaÄŁ z
ĠbÃ¶l g
ĠyazÄ±yor du
Ġacil en
Ãľ rÃ¼n
Ãĸ z
ĠMark a
ĠMark et
ĠTem muz
Ġkapan Ä±yor
ĠSorun larÄ±
Ġmarket ten
Ġim kan
ĠKur ul
ĠÃ¶ÄŁren dim
Ġse yahat
Ġhan gi
ĠYat ak
ĠdeÄŁiÅŁik liÄŁi
ĠSal on
Ġsen elik
Ġyolla dÄ±m
ĠTe darik
ĠTam ir
ĠdeÄŁer lendir
Ġoyun cak
ĠDan one
ĠYÃ¶n etim
ĠyaÅŁa dÄ±ÄŁÄ±m
ĠÃ§Ã¶zÃ¼l mesini
ĠkullanÄ±yor dum
Ġvide o
Ġkil it
Ġprog ramÄ±
gan izasyon
Ġsi yah
ĠYar dÄ±m
Ġada m
ĠÃ§ikol at
Ġzar ar
ĠKim se
ĠRahat sÄ±z
Ġtaahh Ã¼t
ĠpeÅŁ in
bal aj
ĠaÅŁa masÄ±nda
Ġunu t
ĠBB VA
ĠCen ter
Ġdeter j
1 00
3 3
6 5
8 9
9 5
B il
B aÅŁ
J olly
K Ä°
T S
T urkcell
c o
c Ã¼
f a
h e
h is
l Ä±yor
n osa
o ok
o sta
s Ã¼
s on
t Ä±nÄ±z
t arÄ±
t aki
Ġ li
Ä± ÄŁ
an d
Ġb Ä±k
Ġb ib
Ġb isiklet
in a
al ara
Ġs os
Ġs av
Ġs igorta
Ã§ asÄ±
en a
ir de
Ġy Ä±rt
me y
et rol
Ġt l
at e
Ġi cra
Ġi kamet
Ġv az
ek siyon
un lu
es cafe
lar ca
ĠS i
ĠS ab
ĠS oÄŁ
Ġal mÄ±yor
ĠB oya
Ġbir Ã§ok
ĠÃ§ Ã¶k
le dim
le mek
ĠT ut
ĠT rendyol
Ġa cÄ±
Ġa ÄŁr
ĠK Ä±s
ĠK azan
ĠA dana
Ä±l masÄ±nÄ±
ĠÅŁ ah
Ġn iye
ĠM i
ĠM il
du ÄŁ
ĠH uawei
ĠY urtiÃ§i
ĠG erÃ§ek
ĠG ibi
Ġay dan
em iÅŁ
ti ÄŁi
Ġver medi
Ġgel in
Ġgel ince
ab ersiz
ĠD aÄŁÄ±
ĠD eniz
lan an
lan mÄ±ÅŁ
lan madÄ±
ĠgÃ¼n lerdir
ĠE x
ĠE ÄŁer
Ġet medi
Ġu c
Ġara dan
ĠÃ¼r etim
Ġar Ä±yoruz
Ġist iyor
Ġist asyon
ĠV odafone
Ġtar z
iÃ§ ek
ĠF orum
ĠF ahiÅŁ
ad o
ĠbaÅŁ k
ĠbaÅŁ Ä±ma
ĠO tel
Ġ3 5
Ġkullan amÄ±yorum
ĠÃĩ ay
edi k
Ġama Ã§
ĠgeÃ§ medi
ĠsÃ¼r Ã¼
ĠÃ§Ä±k madÄ±
ĠN o
ĠN umar
ĠC am
ĠKar gol
ĠaÃ§ Ä±p
af ir
ac iz
uyor lar
ĠgÃ¶r dÃ¼k
Ġyaz Ä±yorum
Ġel de
ĠulaÅŁ Ä±lmÄ±yor
Ġsaat in
ĠgÃ¶nder ilmiÅŁ
ĠÃ§alÄ±ÅŁ Ä±yorum
ĠÃ§alÄ±ÅŁ tÄ±m
ĠÃ¶de mesini
Ġtelefon larÄ±
Ġdol u
Ġedil en
ĠsÃ¶yle yip
ĠAr Ä±za
Ġyer inden
eme l
eme z
oz it
ĠAl Ä±ÅŁveriÅŁ
man Ä±z
Ġon a
Ġev i
Ġev ime
ĠYap tÄ±
Ġgir ip
Ä±nÄ±z a
Ġhat Ä±r
Ġor talama
ĠAy lÄ±k
Ġbiz den
Ġbak tÄ±ÄŁÄ±mda
Ġkes ildi
ĠyaÅŁ ama
Ġbulun duÄŁum
tiÄŁim iz
Ġ0 5
eÅŁ il
ĠÄ°l gili
Ġbit miÅŁ
ĠPar amÄ±
Ġinsan lar
iv il
ĠZ or
ĠÃ¼st Ã¼nde
ĠyÃ¼z den
ĠiÅŁlem ini
cil eri
Ġme c
Ġme y
Ġsan iye
Ġsan dal
ĠdoÄŁ al
ĠdoÄŁ algaz
Ġcihaz Ä±
ĠAt asun
ĠOl masÄ±
Ġmemnun iyeti
Ġmerkez i
Ġistedi ÄŁim
Ġbelirt tim
Ġsistem de
ĠyÃ¶n etim
ĠAra c
Ġtab let
ĠKon trol
Ġer ken
ĠEdil en
ĠEdil meyen
ĠdÄ±ÅŁ arÄ±
Ġelektrik li
Ġok u
Ġok uma
Ġkurul umu
Ġverdi ÄŁi
Ġmas ke
Ġkimse ye
Al t
ĠyaptÄ± lar
ĠKalit esi
ĠboÅŁ a
ĠkÄ±sm Ä±nda
Ġaray an
Ġaray arak
Ph one
Ġik inci
Ġgerekti ÄŁi
Ġtat il
Ġitibar iyle
Ġsah ib
ĠÅŀikayet Ã§iyim
Ġse ans
ĠEs ki
Ġsok ak
ĠdÃ¶nem de
Ġalak asÄ±
ĠKan al
Ġmik tar
ĠOy un
ĠgÃ¶rÃ¼ÅŁt Ã¼ÄŁÃ¼m
ĠyakÄ±ÅŁ mÄ±yor
ĠGir iÅŁ
ĠGÃ¶ rÃ¼n
ĠÄ±sÄ± t
ĠGecik mesi
ĠtÃ¼k et
Ġbahan e
ĠÃ§iz ik
ĠâĢ ľ
ĠaldÄ±ÄŁ Ä±ma
Ġdama cana
Ġkarde ÅŁim
Ġmalz eme
Ġdalg a
ĠLas tik
ĠKuyum culuk
ĠPh ilips
ĠkÄ±ya f
ĠBede li
ĠmayÄ± sta
4 6
6 8
7 0
9 6
? "
A ra
D Ã¼n
D oÄŁ
D eniz
E D
H er
H alk
I KEA
K amil
L G
M er
M NG
N R
S or
T ube
b iy
f er
f es
g eÃ§
g ram
i ÄŁ
k Ã¶y
l Ä±nda
m ara
n Ä±z
n den
o ma
p aÅŁa
r il
r ana
s as
s inin
t ayÄ±
t eyim
u Tube
Ġ j
Ġ le
Ä± b
ar ay
ar lan
er ken
an z
an cÄ±
an yo
Ġb ab
in ish
al i
al at
al nÄ±z
Ġs ine
Ġs af
Ġk Ä±
Ġk aÅŁ
Ġk re
Ġk oÅŁ
Ġk eÅŁke
Ġk ronik
Ġg ar
Ã¶ cek
et li
Ġt ad
Ġt ic
Ġt Ã¼ketici
ay dÄ±
Ġi y
Ġv atan
Ã¼n Ã¼z
es iyim
Ġol abil
ĠS iz
ĠS eb
Ġal maz
Ġal Ä±yorsunuz
Ġal mayÄ±
ĠB Ã¼tÃ¼n
ĠB isiklet
ĠÃ§ eyiz
le ep
ĠT al
ĠT ale
ĠT amam
ĠT encere
Ġd uv
ĠK iÅŁ
ĠK ad
ĠK Ã¼f
ĠA m
ĠA da
ĠA idat
Ä±l Ä±r
it al
Ġf ay
Ġf iyasko
Ġp omp
ul muyor
ĠÅŁ ef
ĠÅŁ ehir
ĠÅŁ of
Ä° ki
Ġn ok
Ġyap ama
Ġyap Ä±yorsunuz
Ġyap acaÄŁÄ±m
Ġyap madÄ±lar
Ġyap tÄ±ÄŁÄ±
Ġ1 000
ĠM adde
ĠH D
ĠH P
ĠH ar
ĠH ediye
ĠY alan
ĠY edek
ĠG B
ĠG o
ĠG Ä±da
ĠG ratis
Ġay Ä±nÄ±n
ĠD a
ĠgÃ¼n ah
ĠgÃ¼n lerde
ĠE ylÃ¼l
ĠP oliÃ§
ĠP aket
mas Ä±ndan
Ġkar Ä±ÅŁ
Ġet mem
Ġara dÄ±
Ġar ayÄ±n
ĠÃľ lker
ama ma
men iz
ĠF it
ĠF Ä±r
ĠbaÅŁ lÄ±k
alÄ± ÄŁÄ±
ĠO f
dÄ±r Ä±yor
dir de
Ġkullan abil
Ġkullan Ä±mda
ĠÃĩ ocuk
ĠÃĩ amaÅŁÄ±r
ĠÃ§Ä±k Ä±ÅŁ
ĠÃ§Ä±k mÄ±ÅŁ
Ġkap ora
Ġ4 3
Ġ4 00
ĠgÃ¶r dÃ¼ÄŁÃ¼m
Ġ5 5
Ġel imde
201 6
ĠÃ¶de dik
ĠÃ¶de yip
ĠÃ¶de yerek
ĠyapÄ±l Ä±yor
Ġbek len
ĠÅŀ iÅŁ
Ġedil iyor
Ġedil ecek
Ġkon usu
Ġolma dÄ±ÄŁ
ĠAr aÅŁtÄ±r
eme yen
Ġtak dirde
ĠAl dÄ±ÄŁÄ±mÄ±z
ĠAn neler
ĠL enovo
ĠU PS
ĠU zun
Ġak s
lam alar
Ġediyor sunuz
Ġbulun amadÄ±
Ġdurum dan
Ġ0 7
ĠÃĸ ÄŁr
meye ceÄŁim
eler de
eler den
mam Ä±z
Ġ7 0
Ġinsan larÄ±n
up eron
ĠkiÅŁ iler
Ġhem ÅŁir
Ã¶r t
ladÄ± lar
Ġkab ar
Ä±sÄ± yÄ±m
Ġbay isinden
ĠZ iraat
ĠbaÄŁ lÄ±
Ġfiyat a
Ġdevam lÄ±
Ġfil tre
cek i
ĠdeÄŁiÅŁtir dim
ĠdeÄŁiÅŁtir mek
ĠÃĩÄ±k ar
Ar zum
Ġuz ak
Ġistedi ÄŁimde
Ġolur sanÄ±z
ov a
ĠDeÄŁ iÅŁim
Ġhesab Ä±mdan
Ġhas ta
ĠbÄ±rak Ä±n
ĠYapÄ±l mamasÄ±
ĠKon ya
Ġbildir im
Ġbur adan
erson eli
ĠeÅŁ y
ĠbaÄŁlan tÄ±
ant ep
ĠKap ak
ĠHat alÄ±
ĠettiÄŁim de
ida tÄ±
ĠÅŀub esi
Ġbank aya
Ġgarant ili
Ġsonr aki
Al dÄ±ÄŁÄ±m
ĠBoz uldu
Ġbas it
Ġkok uyor
oca eli
ĠHak larÄ±
ĠÃ§ekil di
ĠYet ersiz
ĠyapÄ±la caÄŁÄ±
unuz u
ĠKur u
Ġbilgilen dir
ĠDoÄŁ ru
Ġtemsilc isine
Ġsah ip
Ġpas ta
ĠpiÅŁman Ä±m
ĠOn ay
ĠÅŁif re
amaya cak
ĠVeril medi
Ġkam er
Ġaran dÄ±m
ĠRes men
ĠTak ip
Bur sa
Ġbaz en
ex press
ĠDan Ä±ÅŁmanlÄ±k
ĠgÃ¶rÃ¼ÅŁ me
Ġbuzdol abÄ±
ow enta
Ġw eb
ĠYayÄ±n evi
ĠÃ§ev rem
ĠKas Ä±m
ĠDÃ¶n Ã¼ÅŁ
Ġuyar Ä±sÄ±
Ġsorumsuz luk
Ġhatt Ä±nÄ±
Ġderece de
ĠSaygÄ±sÄ±z lÄ±ÄŁÄ±
oloj i
En glish
Ġpla stik
ĠHakk Ä±nda
ĠBilgilen dirme
ĠFotoÄŁraf Ã§
ĠsÃ¼reÃ§ te
ĠTa dÄ±
Ġmek an
Ġtu tan
ĠBaÄŁ lan
ĠCev ap
ektron ik
Ġdeterj an
ĠDaÄŁÄ± tÄ±m
Ġmec bur
leep y
ĠTale bi
uperon line
3 1
? ,"
D e
E k
G S
H P
L O
S on
T HY
b asÄ±
c Ä±k
c Ä±sÄ±
d Ã¼zÃ¼
e e
e ÄŁi
f Ã¼m
g a
i ÄŁinden
k Ã¼r
l on
m ini
m os
n iyet
o ur
o met
s u
s eri
t am
u h
u ar
v an
v oldu
Ġ ,
Ġ ul
Ġ erk
Ä± ÄŁÄ±
Ġb ar
Ġb Ã¼y
Ġb ant
Ġb ardak
de ap
ÄŁ e
ma il
ma maktadÄ±r
Ġs in
Ġs arÄ±
Ġs Ã¶k
Ġk lima
Ġk ask
il l
il me
il dim
il mez
en dik
Ġy ara
di ci
di ÄŁiniz
me d
Ã¶ rÃ¼n
da h
Ġt ers
at tÄ±
Ġi di
Ġv ak
Ġv ida
Ġol maya
as Ä±n
ĠS os
ĠS igort
ĠS Ä±nav
ĠS inem
ĠS ultan
Ġal Ä±yorlar
ĠB un
ĠB ez
ĠÃ§ ift
am Ä±ÅŁ
ĠT aÅŁ
ĠT erm
Ġd ok
Ġa h
ĠK urum
ĠA p
Ä±l lÄ±
Ġm ut
Ġm utfak
it y
is s
is iyim
Ġf ren
Ġp ip
Ġp ersoneli
ara b
ĠÅŁ ok
ĠÅŁ aÅŁ
ĠÅŁ ikayeti
az Ä±
Ġyap madan
Ġyap mÄ±yorlar
ip a
ĠM on
ĠM ode
ĠM altepe
Ġe z
ĠH ay
ĠH epsiburada
ĠH izmeti
Ġda yan
em ens
em be
Ġbu lama
Ġver mediler
Ġgel diler
Ġgel mesini
ab ancÄ±
ĠD Ä±ÅŁ
ĠD Ã¼ÅŁ
ĠD Ã¼ÄŁÃ¼n
ĠE m
ĠE ÅŁ
ĠE de
ĠÃ¼ t
ĠP lay
ĠP remi
ĠP NR
Ġkar g
Ġet ik
Ġet miÅŁ
Ġet meme
Ġdi y
Ġu fak
Ġara ca
Ġar Ä±yorlar
ah Ã§e
ĠÃ¼rÃ¼n den
ĠÃľ Ã§
Ġan lama
ĠÃ¶ r
Ġo f
Ġo per
Ġhal i
ĠF ord
ĠO da
larÄ± ma
ĠgeÃ§ tik
Ġsonra dan
Ġvar dÄ±r
ec i
ĠC anlÄ±
ĠKar tÄ±m
ĠaÃ§ mÄ±yorlar
af e
Ġkad Ä±n
lÄ±k la
ac h
lik dÃ¼zÃ¼
Ġc ayma
ĠulaÅŁ tÄ±m
Ġsaat lerce
ĠÃ§alÄ±ÅŁ tÄ±ÄŁÄ±m
ĠÃ¶de diÄŁimiz
Ġedil eceÄŁi
Ġedil miÅŁtir
ĠmÃ¼ÅŁteri ye
ĠyÄ±l lardÄ±r
Ġsat Ä±cÄ±
man Ä±zÄ±
Ġbul an
Ġbul unuyor
ĠAn adolu
lu p
Ġden k
Ġev den
ĠYap Ä±
Ġgir diÄŁimde
ĠL ek
ĠL ED
ĠR aÄŁmen
dik leri
Ã¼yor uz
ĠAy Ä±p
ĠAy dÄ±n
Ġyar Ä±sÄ±
ĠÅŁub esi
ĠÅŁub eniz
Ġbiz de
ĠÃ¼cret inin
iler ine
ĠU Ã§
Ġken ar
ĠÅŁikayet te
ece ÄŁimi
ĠyaÅŁ Ä±yoruz
Ġat Ä±yorum
Ġce za
ran s
ran it
Ġdurum un
ĠkÄ±r mÄ±zÄ±
Ġ7 5
tu ÄŁum
ĠVer iyor
ĠVer diÄŁim
leÅŁ me
Ġede miyorum
ĠPar ayÄ±
ĠPar asÄ±nÄ±
Ġinsan Ä±
ĠkiÅŁ iye
Ġbay iye
Ġmesaj Ä±
ĠZ aten
Ġme ÅŁ
Ġbilet imi
ĠSÃ¼r esi
Ġboz ul
Ġas ans
Ġfil mi
Ġcihaz Ä±n
Ġhaz iran
ĠsipariÅŁim in
ĠTelefon la
Ġsay aÃ§
ĠGÃ¶nder di
ĠGÃ¶nder ilen
Ġolur ken
ĠÃ¼rÃ¼nÃ¼n Ã¼
ĠsÃ¼re dir
Ġiyi ce
Ġhas sas
ĠYapÄ±l an
ĠKon u
ĠKon uÅŁ
imde ki
Ġkor ona
Ġab one
ĠKap at
ĠgÃ¶zÃ¼k mÃ¼yor
Ġetti ÄŁi
ĠkartÄ±m Ä±
Ġkargom u
ĠkayÄ±t lÄ±
Ġbank a
Ġkok usu
ĠyatÄ±r dÄ±m
Ãľ lker
ĠboÅŁ una
Ġkat Ä±l
Ãĸ n
Ãĸ zel
ĠÃ§ekil miÅŁ
ĠMark t
Ġyen il
ĠTem sil
ĠArÄ±z alÄ±
ij yen
Ġettir mek
Ġfirmas Ä±nÄ±n
Ġbez i
Ġhan Ä±m
ĠdÃ¼n ya
ĠÃ§ar e
ĠÃ§ar p
Ġparam Ä±n
Ġparam Ä±zÄ±
Ġherkes e
umuz u
Ġpat ates
larÄ±mÄ±z Ä±
Ġkayb et
Ġmuay en
Ġmik ro
Ġihtiya Ã§
ĠHes ap
Ġ08 50
ĠHas ar
ĠYetk il
ala dÄ±m
Ġgere ÄŁi
Ġail em
ĠÃ§aÄŁÄ±r dÄ±k
VakÄ±f Bank
Ġprog ram
ĠpiÅŁ ir
ĠPiÅŁman lÄ±ÄŁÄ±
Ġlek eler
Ġhayat Ä±mda
ork u
ĠArk adaÅŁ
ĠÃĸzel likle
Ġfabr ik
Ġnak it
ĠoÄŁl um
ĠMÃ¼ dÃ¼r
ĠYo uTube
Ġam balaj
Ġbebe ÄŁimiz
Ġsoy ul
Ġmon taj
Em san
ĠiÅŁlet me
ĠGÃ¼ncel leme
Par ex
Ġpaz ar
Ġlen s
ĠWi Fi
kas tre
ĠAb on
ĠÄ°let iÅŁim
ĠkullanÄ±c Ä±sÄ±yÄ±m
ĠBuzdol abÄ±
Ġbask Ä±
ÄŁust os
ĠKurul um
Ġvaz geÃ§
ĠamaÃ§ lÄ±
Ġvatan daÅŁ
Ġerk ek
deap ad
. ,"
9 8
A s
B ay
F it
F inish
M Ã¼ÅŁteri
M etro
R owenta
T ur
T am
d alar
d Ä±ndan
d urum
g b
g in
h ir
i x
i an
k ale
k oca
l ok
l ini
l ayacak
m ran
n i
n dan
n ica
n ess
o tiv
p t
r ek
r um
r ab
r ank
s ine
t s
t in
u Ã§
v Ä±
w w
y di
y urt
y son
z en
Ġ Ã¼n
Ġ ca
Ġ umar
Ġ Ä±ÅŁÄ±
Ġ umur
Ä± Ã§ak
ar at
Ã¼ v
Ã¼ cu
er ra
an e
an Ã§
an lÄ±k
an Ä±za
in ans
Ġs ayÄ±s
Ġs igor
Ġs inir
Ġs Ä±nÄ±f
Ġk la
Ġk ey
Ġk Ã¼s
Ġk umanda
il a
en di
en erb
Ġy um
Ġy Ã¼r
Ġy iye
me leri
ol ar
ol arÄ±
el e
et ten
im den
Ġt Ä±r
Ġt itr
at h
at Ã¶r
at omi
Ġi p
Ġv ir
Ġv ur
Ġv it
Ġh ad
um an
on d
Ä±m la
Ġde ki
as a
ĠS Ä±z
ĠS eÃ§
ĠS inema
ĠS ize
Ġal madan
ĠB ebek
ĠB oyner
am Ä±z
Ġd Ã¼k
Ġd Ã¼dÃ¼klÃ¼
Ġd Ã¶rt
ĠK am
ĠK ayÄ±t
ĠK orona
ĠA z
Ġm in
is a
is in
Ġf ot
Ġp ol
Ġp sik
ĠÅŁ Ã¶yle
Ä±r Ä±yor
Ġyap Ä±ÅŁ
Ġ1 20
ĠM es
ĠM ey
ĠM ayÄ±
ĠiÃ§ ecek
ĠY ine
ĠY urt
ĠG r
ĠG ar
ĠÄ° yi
li ÄŁini
Ġver ir
Ġver erek
Ġver gi
Ġver iyorlar
Ġver miyorlar
Ġgel memiÅŁ
Ġgel emedi
Ġgel eceÄŁi
Ġgel eceÄŁini
Ġil iÅŁk
ĠD iÅŁ
ĠD ik
ĠgÃ¼n lerce
ĠÃ¼ s
ĠÃ¼ lk
Ġr ak
ĠP ol
ĠP egasus
ÄŁim in
Ġbil emiyorum
Ġet miyorum
ey it
ey se
Ġma c
Ġma hall
Ġara mam
Ġara dÄ±lar
Ä±s Ä±nda
mes inden
ĠÃ¶ ÄŁ
ama dan
Ġhal le
men izi
ĠF orm
ĠbaÅŁ Ä±nda
Ġgi den
Ġben z
ĠÃ§Ä±k mÄ±yor
ĠN eyse
ec h
ĠC ar
Ġpar fÃ¼m
ac Ä±lÄ±k
ĠiÅŁ in
Ġiade m
ĠgÃ¶r sel
Ġc an
Ġc uma
Ġc anlÄ±
Ġyaz mama
len en
Ġmark asÄ±nÄ±
ĠulaÅŁ maya
ĠulaÅŁ amÄ±yoruz
Ġsaat e
ĠgÃ¶nder im
umar tesi
ĠÃ¶de mesi
ĠyapÄ±l Ä±r
Ġservis te
Ġservis ten
ada ki
Ġtelefon un
Ġtelefon la
Ġtelefon lara
ĠdÃ¶n er
Ġkon ut
Ġolma m
Ġolma ma
Ġolma masÄ±
Ġtek er
Ġnumar am
Ġnumar ayÄ±
om otiv
ĠyÄ±l Ä±
ĠAr t
ĠAr Ä±yorum
Ġyer lere
dur ma
ĠAl dÄ±
ĠAl Ä±yor
Ġzaman Ä±nda
Ġzaman dÄ±r
lu daÄŁ
Ġden ilen
Ġon arÄ±m
Ġgir di
op i
ĠR ed
ĠR eklam
yon el
Ġhat tÄ±
Ġor aya
Ġor ganizasyon
Ġveril mesi
Ġveril ecek
ers in
Ġsit eden
Ġak Ã¼
Ġken diniz
tÄ±ÄŁÄ±m Ä±z
ĠSipariÅŁ imi
Ġbak an
ece ÄŁimiz
ĠyaÅŁ an
ĠyaÅŁ amadÄ±m
Ġat eÅŁ
Ġtaraf Ä±mÄ±za
ĠkÃ¶ p
Ġneden le
Ġtal ebi
ĠdÃ¼ÅŁ mÃ¼ÅŁ
erk es
eler in
Ġfark Ä±
ĠÃ§ek ip
ĠkÄ±s Ä±m
ĠGÃ¼n lÃ¼k
Ġtekrar dan
ĠÄ°n dirim
ĠPar asÄ±
Ġkab a
Ġbekle dik
Ã¼l dÃ¼
ĠbaÅŁv urum
tÃ¼r k
Ä±la cak
Ġiz l
ĠiÅŁlem leri
ĠÃ¶deme yi
Ġas k
Ġsal gÄ±n
Ġcihaz Ä±m
ĠÃ¼rÃ¼nler den
ĠsipariÅŁim de
ĠTes limatÄ±
ĠAt ak
res ti
Ġmemnun dum
Ġmerkez inden
Ġistedi ÄŁimiz
ĠdÃ¼ÅŁÃ¼n mÃ¼yor
ĠdÃ¼ÅŁÃ¼n dÃ¼ÄŁÃ¼m
Ġhakk Ä±nÄ±z
ĠaÃ§Ä±l Ä±yor
Ġmakin em
Ġkapat Ä±p
Ġhep sini
ĠyÃ¶n etimi
ĠI deapad
ĠAra dan
An talya
Ġtab ii
Ġsev k
ĠKon uyla
ĠHizmet lerine
ĠAk tar
Ġhav ale
ĠdÄ±ÅŁ Ä±
Ġsalon a
Ġok uy
ĠKap an
ĠKÄ±r Ä±ldÄ±
uyu cu
Ġkut uyu
ĠaÃ§Ä±k lama
Ġmas raf
Ġyas aÄŁÄ±
ĠgittiÄŁim iz
ĠgittiÄŁim izde
ĠUlaÅŁ madÄ±
ĠFir maya
mamÄ±ÅŁ tÄ±r
ĠyÄ±k an
ĠKen dilerine
ĠsÄ±r asÄ±nda
ĠyoÄŁ urt
Ġtop lamda
Ġih tim
lÄ±ÄŁ Ä±n
Ã¼keti c
ĠsonuÃ§ ta
ĠAÃ§ Ä±k
Ġizle mek
Ġkampan yasÄ±
Ġtat lÄ±
tiya Ã§
ĠGeÃ§ en
lÃ¼ÄŁ Ã¼
ĠEs k
ĠEs en
ĠdeÄŁiÅŁik lik
ĠDeÄŁiÅŁ imi
Ġtav siye
Ġren gi
ĠkartÄ± ma
ĠUy gulama
ĠkandÄ±r Ä±yorlar
ĠÅŁif remi
Ġyetkil ileri
Ġkam era
ĠTak Ä±m
Ġkom bi
Ġolay dÄ±m
ĠBek le
ĠGÃ¼ven lik
ĠAlt Ä±n
ĠTÃ¼rk Ã§e
ĠbÃ¶lÃ¼m Ã¼ne
Ġdikkat e
Ġdos ya
ĠPersonel inin
Ġdahil inde
Ġort aya
Ġuygulama dan
ĠOt obÃ¼s
ĠOt omotiv
ĠSit ede
ĠÃ¶z en
ĠgeÃ§er li
Ġhaber im
ĠTaraf Ä±ma
Ġmis afir
ĠGÃ¶r ev
Medi cal
ĠpiÅŁ ik
bo ok
ĠKab ul
ĠKampan ya
Ġnisan da
ĠÄ±sÄ±n Ä±yor
ork maz
ĠArk asÄ±nda
ĠTarih inde
ĠkÄ±l Ä±f
ĠKok u
Ġsap an
Ġalama dÄ±k
Ġbirbir ine
Ġney se
ĠMak ine
ĠYazÄ±k lar
Sun express
ĠFark lÄ±
Ġinan Ä±lmaz
ĠRez ervasyon
ĠSorumsuz luÄŁu
Ġtekli f
Ġadresi me
St ation
ĠÄ°h tiyaÃ§
ĠsorduÄŁum da
Ġbe dava
Ġtraf ik
Ġameli yat
Ġimkan sÄ±z
ĠkÄ±yaf et
Halk bank
fes yonel
ĠAraÅŁtÄ±r ma
amayacak larÄ±nÄ±
De Facto
mos yon
dah ale
ĠSigort asÄ±
ĠPremi um
ĠUÃ§ uÅŁ
Ġasans Ã¶r
mran iye
rank e
Ġumar Ä±m
erra h
enerb ahÃ§e
! "
3 7
4 9
4 00
7 2
7 7
D S
E sk
F akir
G Ã¼n
H iÃ§
J ok
K o
K as
K ahve
M E
M i
M ayÄ±s
S B
T V
V i
Y at
a me
c elik
e diler
e mesi
f yon
g im
g azi
h t
k et
k am
l ek
l oz
l Ã¢
n y
n da
n esi
o sun
o dy
p le
r Ã¼
s er
t iniz
u dum
v el
y er
y iz
y ken
y ans
z z
Ġ )
Ġ ur
Ä± larak
ar Ä±k
ar ya
Ã¼ tÃ¼
ÅŁ e
an akk
an Ä±zÄ±
ÄŁ a
ÄŁ ra
or oz
Ġs h
Ġs is
Ġs ilik
Ġk u
Ġk rem
Ġk asko
Ġk usur
il li
Ġg ec
Ä±n Ä±yorum
me yip
me yin
dÄ± ra
da t
ol larÄ±
el la
et men
Ġt encer
Ġt eyit
ay ollarÄ±
Ġi bar
Ġi ddi
Ġh ukuk
Ġh ediyesi
Ġh izmeti
ek kÃ¼r
Ã¼n cÃ¼
um l
Ġol s
Ġol umsuz
la Ã§
iÅŁ i
iÅŁ an
Ġde net
ur at
as ya
ĠS er
ĠS en
ĠS ok
ĠS Ä±nÄ±f
Ġal Ä±yoruz
Ġal acak
ĠB oÅŁ
ĠB ekl
ĠB oÄŁaziÃ§i
Ġbir ik
Ġbir eysel
ĠÃ§ ap
ĠT R
ĠT Ä±p
ĠT efal
Ġd k
Ġd arb
Ġa bi
ĠK aÅŁ
ĠK ez
ĠK aza
Ä±l mamasÄ±
it a
is tan
is tik
Ġp ili
Ġp oÅŁ
Ġp lak
Ġp izza
ul t
Ġn ere
Ġyap ma
Ġyap alÄ±m
Ġyap acaÄŁÄ±z
Ġyap tÄ±ÄŁÄ±nÄ±z
ĠM en
ĠM ik
st iÄŁi
ĠH erkes
ĠY aÄŁ
ĠG i
li me
li anz
Ġver in
Ġver iyoruz
Ġver irken
Ġgel miÅŁtir
ĠD iyor
lan t
uz lu
ĠgÃ¼n ler
ĠE ÅŁim
ĠP er
ĠP ink
iy ask
Ġ2 50
Ġet miyorlar
Ġet medik
ey le
ta da
Ġu ÄŁra
Ġara ba
Ġar z
Ġar Ä±yor
ĠÃ¼rÃ¼n de
ĠÃ¼rÃ¼n Ã¼mÃ¼
Ã¼m Ã¼n
ĠÃľ ye
ĠsipariÅŁ ini
Ġist ey
uk arÄ±
ĠV akÄ±f
ĠF inans
Ä±na va
Ġtarih te
mek ten
Ġyok muÅŁ
ĠÃ¶n Ã¼nde
ĠÃ¶n ceki
ĠbaÅŁ ar
ĠbaÅŁ ta
ĠO k
Ġgi b
Ġ3 6
Ġ3 50
Ġkullan an
Ġkullan arak
Ġkullan amadÄ±m
ayÄ± cÄ±
alar Ä±nda
alar Ä±nÄ±n
ĠgeÃ§ miyor
tan d
Ġben ce
Ġvar mÄ±ÅŁ
ĠÃ§Ä±k mak
Ġsor gu
Ġsor uml
** ***
eb ook
ĠC on
ĠC oca
ĠC adde
af er
ĠÃ¶nce den
ub u
ut ube
Ġ4 9
Ġ4 44
ĠiÅŁ leme
ĠaldÄ±ÄŁÄ±m da
ĠgÃ¶r emiyorum
Ġ5 3
ev ler
ĠBu har
Ġc ar
Ġmark asÄ±na
ken der
Ġgeldi ÄŁimde
Ġsaat te
ĠgÃ¶nder in
ĠgÃ¶nder di
ĠgÃ¶nder iyorlar
ĠgÃ¶nder miÅŁler
ĠÃ§alÄ±ÅŁ anÄ±
201 5
ĠÃ¶de mem
os koca
Ġtelefon um
Ġtelefon uma
cÄ± lar
ĠÅŁey le
Ġdol ap
Ġdol du
Ġedil ip
Ġedil emedi
Ġkon ak
Ġolma masÄ±na
Ġek rana
Ġsat Ä±lan
Ġyer im
Ġyer inde
Ġyer li
Ġtak ibi
ĠAl Ä±rken
Ġev et
ĠL G
Ä±nÄ±z Ä±
ĠBir eysel
ĠdeÄŁil dir
op ark
ĠR apor
ĠR andevu
Ġfatur ayÄ±
Ġyar arlan
ĠÅŁub eden
ĠÃ¼cret in
ĠÃ¼cret li
Ġsit eye
iler ini
ĠU z
Ġak ÅŁ
Ġak lÄ±
Ġken diler
lama ma
Ġbak Ä±n
Ġkes il
Ġot opark
Ġneden se
Ġkur u
Ġkur ye
ven se
ĠÃ§Ã¶z Ã¼me
ili ÄŁi
ĠÃ§ek iyor
ĠÃ§ek tim
Ġzor unlu
Ä±mÄ±z Ä±n
Ä±mÄ±z da
Ġbit en
ĠVer di
ĠsaÄŁ lay
ĠÄ°n ÅŁ
ĠPar Ã§
Ġkan un
ĠarÄ±z alandÄ±
alan mÄ±ÅŁ
han e
Ġad r
Ã¶r en
Ä±ldÄ± z
Ġbekle me
Ġbay ram
esinde ki
ĠServis e
Ġilet tiÄŁim
Ġiz i
ĠHal k
ĠHal en
ĠmaÄŁaz aya
cil ere
ĠsÄ±k Ä±ntÄ±lÄ±
ĠÄ°Ã§ inde
ĠÄ°Ã§ inden
Ġoy al
ĠarkadaÅŁ lar
Ġarac Ä±mÄ±n
Ar nica
Ġsay Ä±lÄ±
ĠTek nosa
ĠgÃ¶tÃ¼r dÃ¼k
ĠgÃ¶tÃ¼r dÃ¼ÄŁÃ¼m
Ġhakk Ä±
Ġpaket in
ĠsÃ¶ylen iyor
ĠaÅŁ k
Ġalt Ä±na
Ġkart tan
Ġaz al
ĠyÃ¶n et
ĠÄ°ÅŁ leri
ĠÃľcret ini
ĠI s
Ġkesin tisi
Ġhas tal
ĠEn gel
ĠbÄ±rak tÄ±m
ĠEt ti
ĠHer hangi
Ġtut arÄ±
abilir im
ĠuÃ§ ak
Ġ201 6
Ġkor d
ĠyaptÄ±ÄŁÄ±m da
ĠdÃ¼zel medi
Ġhastan e
Ġfilm ler
Ġkargom un
Ġekran da
ĠSat Ä±cÄ±
Ġkut usunu
Ġeder ek
ĠHaz Ä±r
ĠÃĩalÄ±ÅŁ ma
ĠÃĩalÄ±ÅŁ mÄ±yor
Ġmas a
Al lianz
ĠMaÄŁdur iyeti
ĠyÄ±k a
Ġdoktor a
hal le
ĠEr tesi
Ġkir alama
lÄ±ÄŁ Ä±na
Ġkod unu
Ġduy ur
ĠmÃ¼ dahale
Ġdav et
diÄŁimiz de
Ġkul Ã¼b
Ġyen ilen
ĠtaÅŁ Ä±
Ġadres e
ĠÃľy eli
ĠdÃ¼zelt ilmesi
Ġsah ibi
ĠuÃ§uÅŁ um
ĠyazÄ±k lar
ĠHem en
Ġtah l
Ġdedik leri
ĠÃ§ar ÅŁ
Ġherkes in
ĠDeÄŁiÅŁ ik
ĠJ olly
ĠSal onu
Ġkanal larÄ±
og le
Ġbun lar
ĠBur sa
Ġtaleb im
Ġtaleb imi
Ġkayb oldu
of t
ri ma
ĠTe a
ĠVar lÄ±k
fi x
ĠTab i
ĠDef olu
Ġanlay Ä±ÅŁ
Ġanlay amadÄ±m
ĠAs us
Ġkom ple
ĠBek let
Ġkalk tÄ±
Ġsebep le
ĠbÃ¶lÃ¼m Ã¼nde
Ġsil in
ĠYÃ¶n etimi
ĠÃ¶nem se
ĠÃ§at lak
ĠBe ach
Ġmil yon
ĠDev am
ĠÄ±sÄ± tÄ±
ĠÃ¶z Ã¼r
ĠMedi cal
ĠGÃ¶z lÃ¼k
Ġann eme
ĠGit ti
ĠKampan y
ĠAlÄ±n dÄ±
ĠmÃ¼dÃ¼r Ã¼
Ã¼st en
Ġser um
ĠBey likdÃ¼zÃ¼
ĠsÄ± cak
ĠYo utube
ĠTav rÄ±
Ġesn asÄ±nda
ĠyoÄŁunluk tan
vet ti
Ġciv arÄ±nda
Kon ya
Ġstok ta
Ġister im
teme len
ĠYanÄ±lt tÄ±
Ġkampany asÄ±ndan
Er ikli
ĠgÃ¶n deri
ĠdaÄŁÄ± tÄ±m
Ġapart man
ĠÃ§ab uk
ĠGarant isi
ĠGazi antep
baÅŁ Ä±
ĠKarÅŁ Ä±
ĠYardÄ±m cÄ±
BaÅŁ kent
his ar
Ġbib eron
ĠaÄŁr Ä±sÄ±
ĠNo te
ĠKargol an
Ġmey dana
Mer h
Sor unu
Ġtic aret
ĠFit ness
ĠFotoÄŁrafÃ§ Ä±lÄ±k
ĠTerm al
ĠKurum sal
rans fer
ĠTemsil c
As us
Ġumur s
ĠMayÄ± sta
ĠRed mi
Esk iÅŁehir
Jok er
Vi vense
kam all
anakk ale
. )
3 9
5 00
5 24
6 3
7 6
8 4
8 7
B ey
B undan
E s
E ti
F LO
J atomi
K Ä±z
K ale
M ar
O r
O KÄ°
P G
U PS
U zun
V er
V atan
W ee
Y ar
Y Ä±l
b en
b ata
c z
c ar
c anÄ±n
c ks
f on
g ah
g isi
i o
i di
k y
k on
l um
l es
l Ã¼m
l Ä±yorum
l isi
n ard
p a
s en
s inde
s Ã¶r
s per
t ak
t aya
u se
w n
y Ä±n
y et
y dÃ¼
Ġ /
Ġ Q
Ġ um
Ġ 00
Ġ **
ar in
Ã¼ se
er li
er nard
an g
Ġb Ã¼rosu
Ġb erb
Ġb Ã¶cek
ÄŁ li
ÄŁ unu
ÄŁ Ã¼s
al im
al ib
or e
Ġs eri
Ġs tand
Ġk r
Ġk az
Ġk up
Ġk aza
il ton
Ġg er
Ġg iy
Ġg ez
Ġg Ä±da
ir se
Ġy i
Ġy or
Ġy ana
Ġy umur
Ġy amuk
Ġy alnÄ±z
Ġy ukarÄ±
di v
Ã¶ f
ol fix
et in
et te
Ġt az
Ġt emel
Ġt Ã¼ketic
ay ene
ak ayÄ±t
Ġv ize
Ġh abersiz
Ġh ijyen
ek Ã§
um oÅŁ
um tel
es ir
Ġol acaÄŁÄ±nÄ±
Ġol umlu
la dÄ±m
ĠS S
ĠS ak
ĠS Ä±r
ĠS ah
ĠS oy
ĠS tor
Ġal et
Ġal Ä±ÅŁ
Ġal arak
Ġal madÄ±lar
Ġal amÄ±yoruz
ĠB at
ĠB eÅŁ
ĠB ardak
Ġbir im
Ġbir inin
Ġbir isi
le dik
Ã¼r Ã¼l
Ã¼r Ã¼st
am ond
ĠT l
ĠT an
Ġd ub
Ġd ile
ler imiz
Ġa dÄ±m
Ġa idatÄ±
ĠK Ä±l
ĠK ord
ĠK ronik
Ä±l madÄ±
it i
Ġf or
Ġf es
Ġf incan
Ä±ÅŁ lÄ±
Ġp lan
ul masÄ±
iyor dum
ĠÅŁ eye
20 0
aÄŁ Ä±nda
Ã¶n deri
az za
Ä° lk
Ġn iyet
Ġyap arak
Ġyap mama
Ġyap mayÄ±n
Ġyap Ä±ÅŁtÄ±r
ce de
ye miÅŁ
Ġ1 30
ĠM av
ĠM adem
Ġe fen
Ġe dici
ĠH ey
Ġda m
ĠY abancÄ±
ĠG Ã¶nderi
ĠÄ° tiraz
Ġay Ä±na
Ġay dÄ±n
em de
ti ve
ti bata
Ġbu lamadÄ±m
Ġver iyorum
Ġver mesi
Ġver meye
Ġgel meye
Ġgel meden
tÄ± ma
Ġil eri
ab Ä±nÄ±
ĠD A
ĠD et
ĠD uy
ĠD Ã¼dÃ¼klÃ¼
uz u
ĠgÃ¼n eÅŁ
ĠE ur
ĠE lime
Ġr eh
ĠP C
ĠP r
ĠP il
ĠP at
ĠP la
ĠP iÅŁ
ĠP epsi
ĠP endik
mas Ä±n
Ġet k
Ġet mediler
Ġdi sk
ade mi
Ġma dem
Ġara maya
ĠÃľ tÃ¼
ĠsipariÅŁ in
ĠsipariÅŁ iniz
Ġan Ä±nda
Ġan kastre
ĠÃ¶ m
Ġne ye
Ġist es
Ġist iyorlar
ĠV en
ĠV irÃ¼s
ĠF erdi
ĠF enerbahÃ§e
ĠF iyask
medi ÄŁini
Ġyok ken
ĠÃ¶n er
mak la
Ġ3 8
Ġkullan Ä±mdan
Ġkullan Ä±lan
ĠÃĩ ar
ĠÃĩ ocu
ĠgeÃ§ tiÄŁim
ĠgeÃ§ meyen
ĠgeÃ§ memiÅŁ
tan Ä±n
ĠÃ§Ä±k Ä±p
ĠÃ§Ä±k acak
Ġsor an
Ġsor uyorum
ĠN escafe
Ġkal ma
Ġkal mÄ±ÅŁ
ĠC afe
ĠaÃ§ ma
Ġpar mak
uyor uz
uyor sunuz
Ġkadar Ä±yla
Ġiade mi
ev im
ĠBu lamÄ±yorum
ro p
ĠÃľrÃ¼n leri
ĠÃľrÃ¼n lerin
len dim
Ġel den
Ġel lerinde
Ġel ektronik
tÄ±r dÄ±m
iniz den
dÄ±k larÄ±
Ġgeldi ÄŁinde
Ġhizmet ler
Ġsaat ler
Ġsaat lerinde
ĠgÃ¶nder miÅŁ
ĠÃ§alÄ±ÅŁ Ä±rken
ĠÃ¶de menin
os meti
os sman
Ġyan dÄ±
Ġyan sÄ±t
ĠyapÄ±l madan
ĠyapÄ±l sÄ±n
Ġgit mek
Ġgit miÅŁ
ĠÅŀ ok
ĠÅŁey leri
Ġdol abÄ±
ikay a
Ġedil miyor
Ġedil mesi
ĠKargo yu
Ġkon uyu
Ġolma mÄ±ÅŁ
Ġolma malÄ±
ĠsÃ¶yle yerek
Ġek im
Ġek sp
Ġnumar asÄ±na
Ġsat Ä±ÅŁÄ±
Ġyer ken
art esi
ĠÃ¼z eri
ĠAn kamall
Ġden il
Ġon lar
Ġon larda
ĠYap amÄ±yorum
ĠhiÃ§bir i
Ġgir iyor
Ġgir iyorum
Ġgir dik
ĠL ir
ĠL oj
Ä±nÄ±z dan
Ġolan lar
ĠBir kaÃ§
Ġgerek Ã§
Ġfatur alar
Ġfatur ada
Ġveril iyor
ĠÅŁub ede
ĠGel mesi
Ġsit eler
Ġsorun la
Ġsorun larÄ±
Ġak Ä±t
Ġbak Ä±yor
Ġbak iye
ĠÅŁikayet leri
ĠÅŁikayet imi
ĠÅŁikayet Ã§i
Ġkes iliyor
Ġat mama
ĠolduÄŁum u
Ġyol lay
Ġyol ladÄ±lar
ĠÄ°ade sini
Ġ0 3
ĠBil eti
ĠÃĸ den
Ġuy du
Ġyet iÅŁ
Ġyet mez
Ġyet ersiz
Ġzor lan
ĠGÃ¼n lerdir
ĠkÃ¶tÃ¼ ydÃ¼
Ġmes a
ĠalmÄ±ÅŁ tÄ±k
Ġbit ir
Ġbit iyor
ĠVer medi
ĠVer ilen
re ÄŁli
ĠkarÅŁ Ä±lÄ±k
ob ot
Ġede mez
Ġyat aÄŁÄ±
Ġinsan lara
ĠkiÅŁ inin
Ġbay i
Ġ8 0
Ġkay dÄ±m
Ġ15 0
ĠyÃ¼z Ã¼k
Ġte mas
ĠalÄ±n an
Ġiz in
Ġiz lerken
ĠmaÄŁaz adan
Ġfiyat Ä±nÄ±
amp uan
alÄ±k esir
Ġkim s
Ġboz ulmuÅŁ
Ġas lÄ±nda
Ġfil tr
ĠbaÅŁvur usu
ĠbaÅŁvur acaÄŁÄ±m
ĠbugÃ¼n e
Ġfazla dan
ĠTelefon da
ĠAt at
ĠOl dum
tar bu
ĠalÄ±ÅŁveriÅŁ im
Ġdur uma
Ġmemnun iyet
ĠKal madÄ±m
Ġmerkez ini
ĠdÃ¼ÅŁÃ¼n dÃ¼m
ĠyaptÄ±r dÄ±ÄŁÄ±m
ĠYok sa
Ġres mi
ĠgÃ¶tÃ¼r dÃ¼
ĠaÃ§Ä±l mÄ±ÅŁ
ĠaÃ§Ä±l madÄ±
Ġbelirt ildi
Ġetmek te
ĠgÃ¶rÃ¼n ce
ĠFatur am
ĠFatur asÄ±
ĠW in
ĠGÃ¶nder ildi
Ġkalit e
Ġaz Ä±ndan
âĢ Ŀ
ĠI BA
Ġhas talÄ±k
Ġhas tasÄ±
ans iyon
Ġhav uz
ĠkÄ±rÄ±k lÄ±ÄŁÄ±
Ġsalon u
Ãĩ ay
Ġis mi
Ġindir imi
iran ha
ch afer
Ġok ul
Ġkor uyucu
meme li
ĠHat a
ĠettiÄŁim iz
Ġilgilen en
Ġuygu lamasÄ±
Ġhastan ede
ĠbÃ¶l Ã¼mÃ¼
Ġhar ca
ĠgÃ¶ster iyor
Ġgerekiyor muÅŁ
ĠaÃ§Ä±k la
Ġotur an
larÄ±m la
Ben im
ĠFir manÄ±n
Ġtemsil cileri
Ä±lmÄ±ÅŁ tÄ±r
ĠEr tel
Ġhak sÄ±z
ĠHak em
amaz sÄ±nÄ±z
ĠÃ§alÄ±ÅŁan larÄ±
Ġonay landÄ±
Ġkat Ä±
ĠkonuÅŁ tuÄŁum
Ä±t ma
ĠÃ§ekil en
Ġdav a
dÄ±ÄŁÄ±mÄ±z da
ÅŁam ba
Ġkul ak
ĠkÄ±z Ä±m
ĠkÄ±z Ä±mÄ±n
Ġyen isi
Ġkapan dÄ±
ĠSorun lu
ĠKullan Ä±cÄ±
ĠAÃ§ Ä±lmÄ±yor
Ġmarket e
ĠuÄŁraÅŁ Ä±yorum
Ġik isi
Ġalmaya caÄŁÄ±m
Ġtamam Ä±nÄ±
Ġdair e
ĠÅŁarj a
ĠyaptÄ±k larÄ±
ĠyaptÄ±k tan
ĠEv de
Ġettir dim
ĠOn line
Ġkapsam Ä±na
Ġabon elik
ĠBak Ä±m
ĠfotoÄŁraf lar
Ġbitti ÄŁi
can o
Ġparam Ä±z
At asay
Ġtav Ä±r
ĠSpor ts
Ġpat ladÄ±
Ġindirim li
Ġbun larÄ±
Ġbun larÄ±n
Ġnormal de
Ġyetkil isi
Ġkam yon
ĠdÃ¶nem inde
ĠKan dÄ±r
ĠRes ort
Ä±c Ä±r
ĠTab ak
ĠAs la
ĠseÃ§ ene
ĠBek o
Ġder hal
ĠAv r
Ġanla mÄ±ÅŁ
ĠÃ¶nem li
Ġort asÄ±nda
ĠBor c
ĠBor Ã§
Ġgere ÄŁini
ĠBe in
Ġmil let
Ġkapak larÄ±
ĠHav ayollarÄ±
ĠYÄ±l lÄ±k
Ġzam ana
ĠGerek li
Ġrapor u
Ġaboneli ÄŁi
Kar go
Ġgecik me
Ġhatt Ä±na
Ġmuh temelen
ĠdÃ¼zen li
Ġmah voldu
ĠgÃ¶nderil ecek
ĠÃ§ikol ata
ĠAcil en
ĠDe Facto
Ġedecek lerini
ĠMaÄŁaz asÄ±
ĠgÃ¼ Ã§
ĠgÃ¼ ya
ĠKok usu
Ä°ÅŁ kur
ĠMar mara
ĠsÄ± vÄ±
Ġaram Ä±ÅŁ
lamÄ±yor uz
ĠRen k
ĠRen gi
Ġbelg esi
ĠBilgilen dir
ĠKesin ti
Ã¢ lÃ¢
ĠKul aklÄ±k
ĠÃ¶d Ã¼yorum
ĠAÅŁ Ä±rÄ±
ĠpoliÃ§ e
Ġir tibata
allah i
Ġolmas Ä±n
ĠaracÄ±lÄ±ÄŁÄ± yla
ĠBah Ã§
ĠKÃ¼ Ã§Ã¼k
Ġmer ak
ĠDon durma
ĠkaÄŁÄ± t
Ġhel al
Ġav uk
ĠKut u
Ġpan el
ĠÃĩÃ¶z Ã¼m
Ġkendil iÄŁinden
ĠBelir t
and ora
ĠSoÄŁ uk
ĠÃ§Ã¶k me
ĠGerÃ§ek ten
ĠEx press
Ġsandal ye
ĠOyun cak
Ġgar ip
Ġiy iydi
ĠTal ep
ĠYalan Ä±
ĠGo ogle
Ġah lak
ĠAp art
Ġpip et
ĠAbon elik
Ġca dde
anÃ§ o
Ġvir Ã¼sten
ĠKam era
Ġpsik oloj
ĠMey dan
ĠdÃ¼ÅŁÃ¼nmÃ¼yor um
HiÃ§ bir
Ġsis teme
ĠpoÅŁ et
ĠCadde si
ĠHazÄ±r lanÄ±yor
ernard o
alib a
ĠKord on
ĠFiyask osu
ossman n
ĠLoj istik
tarbu cks
ĠIBA N
3 00
4 1
7 1
8 1
8 8
9 4
A c
B iz
B oÄŁaziÃ§i
C W
C or
C inema
C Fit
D r
D ef
D ev
D emir
E B
F ir
F ranke
G i
G r
H ak
H ayat
K orkmaz
N est
O k
P ro
P epsi
P ron
R ossmann
S al
S es
S uperonline
T M
V odafone
a di
a ca
a dÄ±k
b az
b ise
c unda
c Ä±mÄ±z
d o
d ow
e a
g at
g az
g ut
h one
i azza
k al
l ut
l ob
m Ä±
m arÄ±m
n ado
o ta
o ot
p ol
p az
r im
r ef
s oy
s eler
s aki
t ey
u ki
v i
v asyon
v ia
v izyon
y anÄ±n
z le
Ġ x
Ġ Ä±
Ġ âĤº
Ġ Xiaomi
ar ar
ar sÄ±z
Ã¼ lÃ¼
Ã¼ lÃ¼yor
ÅŁ ar
ÅŁ iÅŁ
an dan
Ġb al
Ġb asÄ±l
Ġb eden
Ġb lok
in c
in ye
ÄŁ eri
or sel
Ġs Ä±n
Ġs ep
Ġs ez
Ġk g
Ġk ek
Ġk Ä±nÄ±yorum
Ã§ en
il t
il memesi
Ġg en
Ġg ene
Ġg ri
Ġg Ã¼cÃ¼
Ġg ranit
Ġg Ã¼rÃ¼l
en en
en ek
ir daÄŁ
Ġy edi
Ġy eÅŁil
di g
Ä±n ar
me meye
Ã¶ v
Ã¶ re
da k
el li
Ġt on
Ġt ip
Ġt Ã¼p
ay dÄ±m
Ġi ÄŁ
ak Ã¼l
Ġv ade
Ġv arken
Ġv Ã¼cu
Ġh ik
Ġh Ã¼s
Ġh ediy
Ġh Ã¢lÃ¢
un cu
un dig
Ġol unca
Ġol mayacak
la j
la dÄ±ÄŁÄ±m
la dÄ±ÄŁÄ±mda
ap ara
iz z
iÅŁ e
Ġde m
Ġde diÄŁim
ur fa
as on
as ia
ĠS in
ĠS ol
ĠS ine
ĠS esi
ĠS leepy
Ġal Ä±m
Ġal mama
Ġal acaÄŁÄ±m
Ġal ayÄ±m
Ġal dat
ĠB al
ĠB as
ĠB oy
ĠB una
ĠB Ã¶l
ĠB ebe
ĠB osch
ĠB anyo
ĠÃ§ Ä±
ĠÃ§ iÅŁ
ĠÃ§ ey
ĠÃ§ elik
Ã¼r mÃ¼yor
am da
am Ä±yorsunuz
ĠT eh
ler di
Ġa ile
ĠK u
ĠK at
ĠK ara
ĠK ey
ĠK ah
ĠK oz
ĠK op
ĠK od
ĠK eÅŁke
ĠK usur
ĠK ocaeli
ĠA ir
ĠA ile
ĠA MA
ĠA ÄŁustos
ĠA fyon
Ä±l Ä±m
Ä±l dÄ±k
Ġm o
Ġm Ã¼r
Ġm us
is k
is im
Ġf an
Ä±ÅŁ ma
Ä±ÅŁ Ä±n
Ġp u
Ġp il
Ġp ek
ĠÅŁ Ã¼p
Ä±r maya
Ä° ME
Ġn in
Ġyap madÄ±
Ġyap Ä±yoruz
Ġyap amÄ±yor
ĠM is
ĠM aÃ§
ĠM ask
ĠM etro
ĠM ate
ĠM ersin
st i
du y
Ġe mek
Ġe ÄŁitim
Ġe min
ĠH am
ĠY arÄ±m
ĠÄ° cra
li yim
Ġver mem
Ġver meyi
Ġver eceÄŁim
Ġgel mez
Ġil gi
ĠD urumu
ĠD emir
ĠD uman
uz la
uz ur
uz ey
uz zle
ĠgÃ¼n e
ĠgÃ¼n leri
ĠP an
ĠP ak
ĠP os
ĠP uan
ĠP enti
ĠP etrol
mas yon
mas Ä±nÄ±n
Ġkar Ä±n
Ġkar ant
Ġkar anlÄ±k
ra ma
Ġbil ir
Ġbil iyorum
Ġbil mem
Ġbil gis
Ġbil gisay
Ġet meyen
Ġet miÅŁtim
ĠgÃ¶ ÄŁÃ¼s
Ġdi ÄŁeri
Ġma ma
Ġma Ã§
Ġma ili
Ġma ddi
Ġu cu
Ġar dÄ±ndan
mes ey
Ã¼m er
ĠÃľ mraniye
ĠsipariÅŁ imiz
ĠsipariÅŁ lerim
eÃ§ et
Ġan ket
lÄ± ca
Ġist ers
Ġist emiÅŁ
der e
ama yan
ĠV an
ĠV ize
ĠolduÄŁ una
Ä±na cak
Ġtarih ini
Ġtarih leri
ĠdeÄŁ i
ĠbaÅŁ lay
alÄ± tÄ±m
ĠO lan
ĠO tur
Ġgi din
Ġ3 7
Ġ3 9
met ik
met se
Ġkullan Ä±mÄ±
Ġkullan Ä±yoruz
Ġkullan mama
ĠÃĩ iz
ĠÃĩ ev
ĠÃĩ elik
uÅŁ a
larÄ± yla
Ã¼z de
alar dan
eti c
ĠsÃ¼r em
ĠÃ§Ä±k maya
ĠÃ§Ä±k Ä±nca
Ġsor madan
Ġsor umlu
ez z
cr os
ĠN et
ĠaÃ§ Ä±sÄ±ndan
Ġpar anÄ±z
Ġpar anÄ±zÄ±
Ġkap s
Ġkap Ä±da
Ġkargo dan
Ġkargo yla
ut ma
ut ella
ĠiÅŁ Ã§
ĠiÅŁ tir
Ġiade ye
Ġiade yi
Ġiade sinin
ĠaldÄ±ÄŁÄ±m dan
ĠgÃ¶r Ã¼yor
ĠgÃ¶r dÃ¼
Ġ5 000
Ġc m
Ġc umartesi
Ġyaz dÄ±r
Ġyaz Ä±p
Ġyaz masÄ±na
Ġyaz Ä±lÄ±
te ÅŁ
len me
len iyor
len der
len ecek
Ġel imizde
Ġel imize
Ġel inizde
ĠulaÅŁ abil
Ġhizmet lerinden
Ġsaat lik
Ġsaat tir
Ġsaat imin
ĠSor unun
Åŀ ikayet
ĠgÃ¶nder ilen
ĠgÃ¶nder diÄŁi
atur a
ĠÃ§alÄ±ÅŁ Ä±yorlar
Ġfir mayÄ±
Ġtes p
Ġtes is
Ġtes limatÄ±
Ġyan s
ĠyapÄ±l dÄ±ktan
Ġgit meye
Ġgit tiler
Ġgit mediÄŁim
Ġbek lerken
Ġtelefon lar
Ġtelefon dan
ĠdÃ¶n Ã¼p
Ġdol madan
ĠsÃ¶yle yen
ĠsÃ¶yle meme
Ġek te
Ġek sper
Ġnumar alarÄ±nÄ±
san sÃ¶r
ter n
ĠAr ab
ĠAr ayÄ±p
Ġsat arken
ĠAl dÄ±ktan
man Ä±
Ġbul dum
ĠÃ¼z Ã¼cÃ¼
ĠAn a
ĠAn d
Ġden iliyor
Ġon dan
Ġon lara
Ġev imde
Ġgir mek
Ġgir miyor
ot o
ĠL am
Ä±nÄ±z da
ĠR oc
ĠmaÄŁ durum
Ġhat am
Ġhaf talar
Ġki me
Ġor anÄ±
ĠAy Ä±n
ĠAy ak
Ġveril miÅŁ
Ġveril memiÅŁ
ĠGel iyor
ĠU n
ĠU SB
ĠU marÄ±m
Ġak an
Ġbel ge
ĠSipariÅŁ in
ĠSipariÅŁ imin
ĠSipariÅŁ lerim
Ġbak tÄ±
Ġbak Ä±mÄ±
Ġkes ilen
Ġediyor uz
Ġediyor dum
ĠyaÅŁ ayan
Ġat tÄ±
Ġot ob
ĠkÃ¶ ÅŁ
Ġhafta da
Ġ6 00
Ġmarka dan
Ġsiz de
ĠBil e
Ġkur amÄ±yorum
ÄŁr enÃ§
Ġuy an
Ġyak Ä±t
Ġmu ame
eler le
ĠÃ§ek ici
Ġzor la
unda ki
Ġ7 50
ĠGÃ¼n de
Ġark asÄ±nda
Ġiste medi
Ġbit ecek
Ġbit ince
re en
ĠkarÅŁ Ä±ma
ĠsaÄŁ lÄ±ÄŁ
Ġede ceÄŁiz
Ġyat aÄŁÄ±n
ĠparÃ§ ayÄ±
ĠparÃ§ alarÄ±
Ġpro j
alan dÄ±rma
up erb
iv as
Ġbekle mek
Ġbekle yen
Ġbekle dikten
Ġbay at
ĠZ aman
ĠZ arar
Ġmi de
ĠÃ¼st e
Ġilet tiler
Ġmail lere
Ġkol i
Ġtan Ä±m
Ġhes abÄ±
ĠalÄ±n Ä±yor
fen di
Ġfiyat lar
Ġbilet ini
ĠSon y
ĠSÃ¼r ec
Ġkim lik
raf t
Ġboz ucu
Ġfil me
Ġsal g
Ġla f
Ġla v
Ġoy alama
asyon u
ĠÃĩÄ±k Ä±yor
ĠÃ¼rÃ¼nler im
ĠAt asay
Ġdur du
Ġdur duk
ĠKal e
ĠKal ite
Ġmerkez inde
ĠdÃ¼ÅŁÃ¼n Ã¼yor
ĠgÃ¼ven ilir
ĠyaptÄ±r mak
Ġres tor
Ġhakk Ä±m
ĠaÃ§Ä±l ma
ĠaÃ§Ä±l Ä±p
Ġses ler
Ġbelirt mek
Ġpaket ini
Ġgaranti ye
Ġlir alÄ±k
Ġmakin emin
larda ki
Ġkapat Ä±yor
ĠolmadÄ± lar
ĠGÃ¶nder miyor
Ġalt yap
Ġkart Ä±ndan
Ġsistem ini
ĠyÃ¶n Ã¼nde
ĠÃľcret siz
Ġhesab Ä±nÄ±
Ġkendi me
Ġkendi si
ĠbÄ±rak tÄ±
ĠEt tir
ĠEt tiÄŁim
Ġtab i
Ġtab aÄŁÄ±
ĠBaÅŁ k
ĠBaÅŁ lÄ±ÄŁÄ±
eris iyim
ĠAk ademi
ĠPro f
ĠEdil di
ĠEdil medi
Ġsalon daki
ĠÃ¶ÄŁr etmen
Ġgider ek
ile da
ĠeÅŁ ya
ĠeÅŁ imi
ĠeÅŁ ime
ĠbaÄŁlan amÄ±yorum
ch i
ĠKap aÄŁÄ±
ĠÃ¶zel lik
ĠÃ¶zel liÄŁi
Ġuygu lamalar
Ġhastan Ä±n
Ġtemiz leme
Ġekran Ä±
Ġhar c
Ġmas asÄ±
Ġboy u
Ġsefer de
ĠMa x
bur ger
ĠKen dil
ĠsÄ±r f
ĠsÄ±r ada
ĠEr ken
ĠÃ¼yeli ÄŁi
Ġbey an
Ġkir eÃ§
Ġkir aladÄ±m
Ġkat k
Ġtop lu
**** ****
Ġsab it
ĠTel evizyon
ĠMah vetti
ĠsonuÃ§ lan
ert iz
Ġbah s
Ġyen isini
Ġ17 0
sta gram
ĠDoÄŁ um
Ġorta dan
ĠbaÅŁvuru sunda
ĠdÃ¼zelt me
Ġkazan Ã§
Ġbeklet il
Ġbeklet tiler
ĠÅŁirket ine
ĠÃľst Ã¼ne
ĠSÃ¶z leÅŁme
Ġotel e
ĠÄ°nsan larÄ±n
ĠÃ¶ÄŁren ci
Ġbilg im
ĠMu ayene
ĠYat aÅŁ
Ġbunun la
Ġtav uk
Ġdoldur dum
ĠUy ar
ĠUy gun
Ġkanal lar
amaya caÄŁ
amaya caÄŁÄ±nÄ±
Ġkayb ol
bu gÃ¼n
Ä±rt tÄ±
ĠBiz im
od rum
uv alet
ĠTab let
ĠOy sa
emeye ceÄŁini
Ġorada ki
Ġdikkat li
anlÄ± urfa
Ġverdik leri
ĠyaÅŁa dÄ±m
ĠÃ§ocuÄŁum u
Ã¼f us
Ġdep ozit
ĠBor cu
ĠBunun la
Ġincel edi
Ġincel eme
Ġfaturam Ä±n
Ġmakine yi
Ġgere ÄŁinin
Ġmil leti
Ġbilgil eri
Ġetmeye ceÄŁim
Ã¼mÃ¼z e
ĠÃ§aÄŁÄ±r dÄ±m
Ġkil o
Ġkend ini
ĠTaraf Ä±ndan
ĠMedi pol
ĠGerek siz
ĠGÃ¶z Ã¼k
Ġayr Ä±l
Ġayr Ä±ldÄ±
ĠDÃ¶n er
Ġaktar mada
Ġaboneli ÄŁimi
Ġdirek siyon
Medi a
ĠfÄ±r Ä±n
ĠaracÄ± ma
ĠÃ¶nc esi
ĠÃ¶nc esinde
Ġlek e
ĠMaÄŁduriyet imin
ĠKab alÄ±ÄŁÄ±
ĠYaÅŁ Ä±yorum
Ġisteme m
ĠgÃ¶nderil medi
ĠAlÄ±n an
Ġakti vasyon
ĠbeÄŁen erek
ĠbeÄŁen medim
alk on
ĠgÃ¶zlÃ¼ÄŁ Ã¼
ĠgÃ¶zlÃ¼ÄŁ Ã¼mÃ¼n
ĠmÃ¼ÅŁter iler
ĠTarih i
ĠHotel s
Ġmet re
Ġnak il
ĠiÃ§eri de
Ġhasar lÄ±
Ġengel li
ĠsÄ±nav Ä±na
ĠSan ki
ĠSan Ä±rÄ±m
ĠYer ine
Ġkarde ÅŁ
Ġesn af
Tek zen
ĠTat il
Ġbuhar lÄ±
ĠÃ¶d Ã¼yoruz
Ġciv arÄ±
ĠsaygÄ±sÄ±z lÄ±k
erj i
Ġsur at
Ġkit ab
Ġtor tu
ĠdÃ¼ÅŁt Ã¼
Ġpaz artesi
Ġem lak
Ġem niyet
ĠHesab Ä±mdan
yak a
leye miyorum
ĠAd res
ĠYas al
dÄ±ÄŁÄ±nÄ±z da
Ġsiteniz den
ĠtuÅŁ una
Ġif ade
ĠTor nado
ĠKÄ±z Ä±m
Ġayn Ä±sÄ±
ĠNormal de
ĠSonr asÄ±
ĠSonr asÄ±nda
ĠIn stagram
Ġkargolan madÄ±
ĠHafta dÄ±r
ĠDavran Ä±ÅŁÄ±
Ġha di
ĠSe yahat
ĠSh ell
ĠalÄ±r Ä±z
ĠmÄ±s Ä±nÄ±z
ĠElim de
ĠNerede yse
Ġkendil eri
Ġunut tum
Bil et
ĠbÄ±k tÄ±m
Ġsos yal
ĠKÄ±s a
Alt Ä±n
Ġseans Ä±na
oma t
Ġsine maya
etli fe
ĠSiz in
ĠSeb eb
ĠDa ir
ĠPoliÃ§ e
ĠOf isi
ĠÃĸÄŁr en
ĠKuru yemiÅŁ
ĠBaÄŁlan tÄ±
Ġmecbur en
Ġul us
ĠSinem alarÄ±
Ġkarg onun
ĠmeÅŁ gul
ian chi
ĠÄ±ÅŁÄ± ÄŁÄ±
Ã¼v tÃ¼rk
ĠkÃ¼s ur
Ġyum uÅŁ
Ġvit es
ĠSÄ±z dÄ±rÄ±yor
ĠMes aj
ĠGar enta
ĠÃ¼s lup
ĠAktar mada
Ġihtim al
ĠEsk iÅŁehir
ĠEsen yurt
celik le
ĠSok ak
ĠBekl iyorum
Ġdarb e
ĠFinans bank
ĠUz ak
ĠaklÄ± ma
Ġadr esinden
Ġoyal Ä±yorlar
KÄ±z Ä±m
Yar gÄ±
Ġberb at
Ġstand art
ĠStor e
Ġdub laj
cede s
ĠMav i
Ġefen dim
ĠPr ime
Ãĩay kur
Gi diyor
dow s
lut v
lob al
paz arÄ±
orsel en
ĠgÃ¼rÃ¼l tÃ¼
Ġhik metse
Ä°ME R
' '
3 8
4 2
5 7
7 9
A d
A dana
B D
B ernardo
C an
C ivil
D ell
E T
E ÅŁim
E TS
F K
F T
F ord
G B
G old
H omet
K ap
K Ä±r
K ab
K ocaeli
K umtel
M W
M on
M art
M etlife
N B
N et
N isan
N escafe
P as
P op
P TT
P ril
P anÃ§o
R ena
S i
S in
S at
S ek
S por
S KÄ°
S leepy
T r
T orku
V ol
b y
b er
b an
b uz
c esi
c asÄ±
c ity
d ya
d inin
d alan
d Ã¼ÄŁÃ¼
e u
e daÅŁ
f re
f eksiyon
g en
g esi
h li
j a
j i
k ar
k ol
k anÄ±
k Ä±rÄ±
k emeye
l imi
l iyorlar
l ayÄ±cÄ±
m s
m it
m Ä±yorum
m Ã¼ÅŁt
n em
n ec
p e
p osta
q u
r ik
r az
r Ä±s
r Ä±lma
s iy
s imum
t epe
t eyiz
u x
v es
v ye
w ag
y ar
y alarÄ±
y Ä±nca
z on
Ġ $
Ġ Âł
Ġ lim
ar m
ar n
ar asÄ±
ar eti
ar Ã§a
Ã¼ ler
Ã¼ len
Ã¼ dÃ¼m
ÅŁ Ã¼r
ÅŁ embe
an y
Ġb ol
Ġb es
Ġb Ã¼r
Ġb ro
Ġb lu
Ġb unda
Ġb eye
Ġb anyo
Ġb Ä±Ã§ak
in t
in at
ÄŁ len
ma ca
ma ster
or me
Ġs p
Ġs el
Ġs im
Ġs ey
Ġs ayÄ±
Ġs oya
Ġs inem
Ġs ivil
Ġk em
Ġk Ä±na
Ġk alÄ±
Ġk ep
Ġk amp
Ġk ayÄ±p
il im
il ek
il leri
il ev
il ecek
il meyen
il sin
Ġg Ä±cÄ±r
Ġg aliba
en de
di ven
Ä±n tÄ±m
Ä±n dÄ±k
me l
me mesine
me diniz
dÄ± z
Ã¶ tar
el in
el aket
im le
Ġt ap
Ġt Ã¼y
ay arak
Ġi b
ak a
ak s
Ġv al
Ġv allahi
Ġh ek
Ġh ev
Ġh anÄ±
Ġh iss
Ġh uzur
um dan
un luk
es iy
Ġol acaÄŁÄ±m
la mÄ±ÅŁ
la cak
la madÄ±
ap Ä±
ap fre
iz li
Ġde diÄŁimde
ur dum
lar mÄ±ÅŁ
ĠS et
ĠS ek
ĠS eti
ĠS ev
ĠS amsun
ĠS Ã¶k
ĠS uyu
ĠS tok
ĠS uperonline
ĠS Ä±nava
Ġal madÄ±
Ġal Ä±cÄ±
Ġal abilir
Ġal Ä±nacak
ik i
ik el
ĠB T
ĠB in
ĠB Ä±k
ĠB az
ĠB eri
ĠB undan
ĠB olu
ĠB ask
ĠB ize
Ġbir den
Ġbir ine
Ġbir leÅŁ
Ġbir ileri
ĠÃ§ ak
ĠÃ§ iÄŁ
am ik
ĠT w
ĠT er
ĠT eÅŁ
ĠT anÄ±
ĠT ic
ĠT urkcell
ĠT HY
ĠT emel
ĠT orku
ĠT rab
Ġd Ã¼rÃ¼st
ler imizi
Ġa de
Ġa cel
Ġa bar
ĠK af
ĠK oy
ĠK Ã¶p
ĠK Ä±b
ĠA h
ĠA lÄ±
ĠA lamÄ±yorum
ĠA pp
ĠA TM
ĠA sansÃ¶r
Ä±l Ä±p
Ä±l mayan
Ġm uz
Ġm op
Ġm Ã¼s
Ġm ola
it ro
it su
is el
is inde
is kÃ¼
Ġf elaket
Ä±ÅŁ larÄ±
Ġp et
Ġp ed
Ġp encer
Ġp uzzle
ul ti
ĠÅŁ ampuan
Ä±r lar
Ä±r tÄ±k
aÄŁ an
aÄŁ lar
aÄŁ Ä±nÄ±
Ä° st
Ġn af
Ġn iÅŁan
Ġyap masÄ±nÄ±
Ġyap ars
Ġyap Ä±lama
Ġyap tÄ±nÄ±z
Ġyap amayacaklarÄ±nÄ±
ĠM R
ĠM o
ĠM Ã¼ÅŁt
st al
Ġe d
Ġe x
Ġe meklilik
ĠiÃ§ er
ĠH an
ĠH ep
ĠH oc
ĠH abersiz
Ġda ÄŁ
ĠY e
ĠY en
ĠY oÄŁ
ĠY ere
ĠY ana
ĠY umur
ĠY avaÅŁ
ĠG ere
ĠG Ã¶k
Ġay Ä±ndan
em izde
ti f
li ÄŁe
dÄ±ÄŁ Ä±ndan
dÄ±ÄŁ Ä±ma
Ġver emiyorum
Ġver emiyoruz
Ġgel eni
Ġgel irken
tÄ± p
tÄ± cÄ±
tÄ± sÄ±z
ĠD ak
ĠD ep
ĠD emek
ĠD Ä±ÅŁÄ±
ĠD yson
lan d
lan dÄ±ÄŁÄ±
ĠE g
ĠE le
ĠE ti
ĠE bebek
ĠE BA
ĠE reÄŁli
Ġr af
Ġr andev
ark Ä±
ĠP eynir
ĠP iazza
mas Ä±z
Ġkar Ä±ÅŁtÄ±r
dil at
dim i
Ġbil in
Ġbil meyen
Ġbil iyorsunuz
Ġbil elim
iy o
Ġ2 20
Ġet mez
ey es
ih a
Ġson una
Ġson suz
Ġdi yen
Ã¶y l
dÄ±ÄŁÄ±m Ä±
Ġar Ä±yorsunuz
Ġar ayacak
mes in
ĠÃ¼rÃ¼n e
Ã¼m Ã¼ÅŁ
Ã¼m lÃ¼
ĠÃľ zer
ĠsipariÅŁ te
Ġan ah
Ġan lamda
ĠÃ¶ der
Ġist emiyor
uk uki
ama da
ama dÄ±ÄŁÄ±m
ama dÄ±k
ĠV i
ĠV aat
Ġtar t
Ġhal let
men t
ĠF an
ĠF abr
ĠF akÃ¼l
ad s
ĠolduÄŁ unda
Ġyok tur
ĠÃ¶n lem
ĠbaÅŁ Ä±na
ĠbaÅŁ lÄ±ÄŁÄ±
mak tan
ĠO larak
Ġgi dil
dÄ±r Ä±cÄ±
Ġkullan madÄ±ÄŁÄ±m
ĠÃĩ ikol
edi yor
ĠgeÃ§ ersiz
ĠsÃ¼r Ã¼yor
00 00
Ġben zer
ĠÃ§Ä±k tÄ±m
ĠÃ§Ä±k masÄ±
Ġin ÅŁ
Ġsor mama
ep aÅŁ
ĠN ot
ĠN umara
Ġkal mamÄ±ÅŁ
ĠC r
ĠC an
ĠC le
ĠC iddi
ĠC ayma
ĠC Ä°MER
ub at
ub uk
lÄ±k tÄ±r
ac asÄ±
ere ja
Ġ4 6
Ġ4 7
ĠiÅŁ ini
ĠiÅŁ te
ĠiÅŁ ten
ĠiÅŁ siz
ĠiÅŁ areti
ĠgÃ¶r mediÄŁim
Ġc amÄ±
Ġc ilt
Ġyaz ar
Ġyaz Ä±sÄ±
ro id
ro wn
te x
ĠÃľrÃ¼n den
Ġel lerinden
Ġel bise
tÄ±r mak
Ġmark ayÄ±
Ġmark alar
ĠulaÅŁ Ä±m
ĠulaÅŁ acak
Ġgeldi ÄŁini
Ġsaat inde
maya caÄŁÄ±m
ĠgÃ¶nder meye
ĠgÃ¶nder iliyor
ĠÃ§alÄ±ÅŁ tÄ±
ĠÃ§alÄ±ÅŁ madÄ±
ĠÃ§alÄ±ÅŁ masÄ±
ĠÃ§alÄ±ÅŁ maya
201 4
ĠÃ¶de v
ĠÃ¶de mek
Ġtes ad
os p
os unu
tÄ±ÄŁ Ä±nda
Ġyan Ä±yor
Ġyan sÄ±
ĠyapÄ±l Ä±p
ĠyapÄ±l madÄ±ÄŁÄ±
Ġservis in
Ġservis ini
Ġgit miyor
tr ason
Ġtelefon umun
ĠdÃ¶n en
ĠdÃ¶n Ã¼yor
av r
ĠÅŀ ey
Ġdol aba
Ġedil dim
Ġedil memiÅŁ
ĠKargo da
tÃ¼ sÃ¼
ĠsÃ¶yle yin
ĠsÃ¶yle diÄŁimde
Ġtek n
ĠyÄ±l da
ĠyÄ±l Ä±nÄ±n
Ġsat Ä±l
Ġsat mak
Ġsat tÄ±m
Ġsat Ä±yorlar
Ġsat Ä±yorsunuz
Ġsat tÄ±ÄŁÄ±
Ġsat tÄ±klarÄ±
Ġyer lerde
eme me
eme diler
ĠdeÄŁiÅŁ iyor
ĠdeÄŁiÅŁ ecek
Ġtak tÄ±m
Ġtak Ä±nca
ĠAl dÄ±m
Ġzaman Ä±
net to
ĠAn lay
ede f
Ġon larÄ±n
Ġev in
ĠYap mÄ±yorlar
Ġgir me
Ġgir ecek
Ġgir mez
ot on
ĠL ens
ĠL PG
ĠdeÄŁil iz
eli evler
Ġhat ayÄ±
Ġhaf tayÄ±
Ġhaf taya
Ġfatur anÄ±n
Ġfatur asÄ±nÄ±
Ġor an
Ġor asÄ±
ĠAy da
ĠAy rÄ±
Ġveril meden
Ġyar amÄ±yor
ĠÅŁub eyi
Ġsit esine
ĠU ludaÄŁ
Ġak l
Ġak Ä±l
ank aya
Ġen feksiyon
Ġken t
tÄ±ÄŁÄ±m Ä±zda
lama z
Ġbak Ä±yorum
Ġbak mÄ±yor
Ġbak alÄ±m
ĠyaÅŁ at
ĠyaÅŁ Ä±yor
ĠyaÅŁ amÄ±ÅŁ
Ġat tÄ±ÄŁÄ±m
Ġl akayÄ±t
Ġyol da
Ġyol cu
Ġot urt
Ġbulun makta
Ġbulun duk
Ġbulun maktadÄ±r
Ġbulun mamaktadÄ±r
Ġce z
ĠÄ°ade m
ĠÄ°ade mi
ran d
Ġdurum unu
Ġdurum unda
Ġdef asÄ±nda
sÄ±z Ä±n
ĠBil gim
akk ab
Ġkur ab
ĠdÃ¼ÅŁ Ã¼yor
ĠkÄ±r Ä±l
eler dir
Ġfark Ä±na
Ġsu dan
mam Ä±
ĠÃ§ek ti
ĠÃ§ek mek
ĠÃ§ek tir
ĠÃ§ek imi
ĠÃ§ek tiler
ĠÃ§ek irde
Ġ7 00
Ä±mÄ±z la
ĠÄ°l gi
Ġmes af
Ġiste mek
Ġbit im
Ġbit tikten
Ġcev abÄ±nÄ±
Ã¼s Ã¼
leÅŁ ti
ĠkarÅŁ Ä±n
ĠkarÅŁ Ä±sÄ±nda
Ġede medim
Ġede bilir
Ġinternet e
Ġyat Ä±ÅŁ
ĠparÃ§ alar
ĠparÃ§ anÄ±n
Ġcevap lar
Ġpro mosyon
ĠarÄ±z ayÄ±
alan Ä±yor
Ġinsan Ä±n
han Ä±m
up a
ĠsÃ¶y ler
ĠdÃ¼z ene
eÄŁ in
ĠEk st
ĠEk mek
if e
Ã¼l k
Ġbay ana
ĠÃ¼y esi
ĠÃ¼y esiyim
ĠÃ¼y esiy
Ġkay n
Ġ15 5
tÃ¼r Ã¼
Ã¼y Ã¼
ĠyÃ¼z Ã¼
ĠyÃ¼z Ã¼me
ĠyÃ¼z Ã¼ÄŁÃ¼
ĠyÃ¼z Ã¼nÃ¼z
ĠServis ten
Ġilet tim
Ġilet ildi
Ġtan Ä±
ĠalÄ±n masÄ±nÄ±
Ä±la caÄŁÄ±
ĠbaÄŁ Ä±r
ĠbaÄŁ lat
Ġbelir li
Ġiz n
ĠiÅŁlem ler
lat in
Ġme dya
Ġgelmedi ÄŁini
Ġbilet in
ĠSon uÃ§
amp arÃ§a
ĠÃ¶deme den
ĠsÄ±k Ä±ntÄ±m
ĠÄ°Ã§ im
ĠÄ°Ã§ eri
ĠbaÅŁvur acaÄŁÄ±mÄ±
oc k
oc aman
ĠdoÄŁ duÄŁ
Ġcihaz Ä±mÄ±n
ĠdeÄŁiÅŁtir di
ĠdeÄŁiÅŁtir ilmesini
ĠsÃ¶z lÃ¼
Ar alÄ±k
Ġuz man
Ġalmak ta
ĠTes la
ĠAt Ä±yor
ĠOl muyor
eh met
res im
Ġdur muyor
muyor um
ĠKal dÄ±r
Ġmerkez e
ĠdÃ¼ÅŁÃ¼n erek
ĠgÃ¼ven diÄŁimiz
Ġgetir ecek
Ġoluyor uz
Ġbelirt ilen
Ġetmek teyim
Ġpaket e
Ġpaket te
Ġ' '
Ġgaranti den
ĠgÃ¶rÃ¼n mÃ¼yor
Ġlir aya
Ġmakin esinin
uma ÅŁ
Ġkapat tÄ±m
ĠPara cÄ±k
Ġ9 9
ĠsaÃ§ larÄ±mÄ±
*** '
ĠÄ°ÅŁ e
ĠI sÄ±
ĠI sÄ±n
ĠI KEA
Ġhesab Ä±m
ĠbÄ±rak Ä±yor
ĠEt medi
Ġtab an
ĠBaÅŁ ladÄ±
Ġsev in
Ġtut tur
ĠKon ut
ĠAk ÅŁam
ĠAk Ä±llÄ±
ĠyÃ¼k sel
ĠyÃ¼k ledim
Ġhav alim
Ġbur da
Ġbur asÄ±
ĠEdil miyor
ĠEdil emeyen
ĠgeÃ§ti ÄŁi
ĠgeÃ§ti ÄŁini
ĠdÄ±ÅŁ Ä±ndan
Ġsalon un
Ġsalon una
Ãĩ iÃ§ek
ĠaraÃ§ ta
lak a
Ġok ut
ant ol
Ġkor un
Ġ18 6
ĠHat ta
ĠÃ§Ä±kar dÄ±
Ġilgilen dir
Ġes k
Ġhastan esinde
Ġhastan eden
Ġetti ÄŁini
Ġfilm ine
ĠiÃ§eris inden
ĠaÄŁ rÄ±
Ġekran Ä±nda
ĠSat Ä±n
ĠSat Ä±yor
ĠyanlÄ±ÅŁ lÄ±kla
ĠÄ±s rar
ĠÄ±s lak
Ġbank ac
malar Ä±nÄ±
Ġboy asÄ±
Ġgarant isinin
ĠMa alesef
ĠFir masÄ±
ĠÃ§ocuk larÄ±n
ĠÃ§ocuk lara
ĠÃ§ocuk larÄ±m
ĠKen t
ĠEr ikli
amaz an
Ġonay lanmadÄ±
Ãľ n
Ãľ y
Ġkir acÄ±
Ġkoy du
Ġkoy up
Ġih bar
ĠÄ°z mit
ĠkonuÅŁ uyor
ĠkonuÅŁ malar
ĠkÄ±sm Ä±nÄ±
ĠkÄ±sm Ä±na
Ġduy uru
ĠMah ke
Ġdav lum
ĠYet er
Ġaray acaÄŁÄ±z
ĠÄ°nternet te
ĠÄ°nternet ten
Ġbah ÅŁiÅŁ
ĠÃĸde diÄŁim
ĠKullan Ä±m
ĠÅŁimdi den
ĠGaranti ye
ĠvermiÅŁ tim
ĠbaÅŁla dÄ±k
Ġadres ine
ĠuÄŁraÅŁ tÄ±m
Ġik az
ĠsatÄ±ÅŁ a
Ġyemek ler
Ġdon uyor
ĠDoÄŁ uÅŁ
ĠkarÅŁÄ±laÅŁ Ä±yorum
Ġoda da
Ġoda sÄ±
ĠÃ¼zerinde ki
ĠdÃ¼zelt ilmesini
Ġtemsilc isini
ij itsu
ĠOn ar
Ġbeklet ip
ĠuÃ§uÅŁ u
Ġabon esiyim
ĠfotoÄŁraf larÄ±
Ġbilgisayar Ä±m
Ġkoltuk lar
emedi ÄŁim
ÄŁiniz e
Ġform unu
ĠyayÄ±n lan
ĠyayÄ±n larÄ±
Ġtur u
ĠSay aÃ§
Ã¼ÄŁÃ¼n Ã¼
can ayÄ±
ĠKargom u
umuz un
Ġmal um
Ġdoldur up
ĠgerÃ§ekleÅŁ ti
Ġborc umu
og a
Ġbun lara
ĠÅŁif r
amaya caÄŁÄ±m
Ġsizin le
ĠVeril meyen
ĠVeril memesi
Ġyetkil iler
Ġyetkil ilerin
Ġtelevizyon um
of ret
ĠSaÄŁ lÄ±ÄŁÄ±
ĠTe dav
ebe bi
Ġbede lini
Ġsigort am
ĠBiz i
Ġmik tarÄ±
ĠRes im
ĠBay ram
Ġanlay Ä±ÅŁÄ±
ĠdeÄŁer lendirme
emeye cek
ĠyapÄ±yor dum
ĠDÃ¼n ya
Ġsayf aya
Ġsabah tan
44 4
Ay akkabÄ±
ĠmÃ¼ÅŁt erisiyim
ĠgÃ¶rÃ¼ÅŁ Ã¼p
ĠAlt Ä±nda
ĠyakÄ±ÅŁ madÄ±
ĠyakÄ±ÅŁ mayan
Ġsil dim
ĠGÃ¶ re
ĠGÃ¶ tÃ¼r
Ġort ak
ivers ite
Ġuygulama yÄ±
Ġdep art
ĠÃ§at ladÄ±
Ġkargol ar
Ġanlat tÄ±m
Ġgidiyor um
Ġincel en
Ġfaturam Ä±z
App le
ĠBe daÅŁ
ĠGetir medi
Ġgelir se
ĠÃĩek im
ĠGecik ti
ĠÃ¼Ã§ Ã¼ncÃ¼
ĠtÃ¼k etim
Ġhay Ä±r
ĠÃ§ev ir
ĠKas a
Ġann em
Ġkullanmak tayÄ±m
ĠyazÄ±l Ä±mÄ±
Ġdevlet in
Ġkutu sun
Ġdirek t
bil eceÄŁini
Ġyay Ä±nÄ±
Ġdil ekÃ§
ĠpaylaÅŁ tÄ±m
ĠilaÃ§ lama
ĠtakÄ±m Ä±nÄ±n
ĠÃ§ay dan
Ġada pt
ĠKampan yasÄ±
Ġisteme z
ĠCihaz Ä±
Ġdeneme me
ĠÄ±sÄ±n ma
Ã¼st Ã¼
Ġbat ar
ĠÅŁiÅŁ e
Ġarab asÄ±
ĠaraÅŁtÄ±r dÄ±m
ĠgÃ¶zlÃ¼ÄŁ Ã¼n
ĠmaÄŁduriyet imi
ĠmaÄŁduriyet imin
anÄ±z Ä±n
Ġfabr ika
Ġfabr ikaya
Ġgide cek
ĠeÅŁim le
ĠgerÃ§ekleÅŁtir dim
Ġbilgiler imi
Ġsap Ä±
ĠKay seri
ĠaralÄ±k larla
ebilir siniz
ĠgÃ¼ncelle mesi
En za
Ġsoy uldu
Ġyeme ÄŁi
Ġmobil ya
Ġbelg eleri
Ġdondur ma
ĠKesin tisi
Ä°nternet ten
Ġbuzdolab Ä±nÄ±n
Sun ny
Ã¼b Ã¼
Ġdetay lÄ±
ĠTop lamda
ĠKul Ã¼bÃ¼
ĠVatan daÅŁ
ĠFark Ä±
ĠsaÄŁlÄ±ÄŁÄ± yla
ĠParam Ä±zÄ±
Ġimz alat
ks wag
ĠsÄ±z dÄ±r
Ġkav ga
Ġten ezz
ĠteÅŁ ekkÃ¼r
Ġmar uz
Ġper for
emiz in
ĠPas ta
Ġdiz i
ĠÃ¶lÃ§ Ã¼
Ġkoltu ÄŁum
Ġkoltu ÄŁu
ĠYanÄ±lt Ä±yor
Telefon um
Ġir sal
ĠAÄŁ Ä±r
Ġpiyas ada
Ġyapacak larÄ±nÄ±
ĠdaÄŁÄ± tÄ±ma
ĠÄ°lgilen miyor
ĠÄ°lgilen miyorlar
ĠTemiz lik
ĠTemiz leme
larÄ±nÄ±z Ä±
amuk kale
ĠdÃ¼ÄŁÃ¼n Ã¼mÃ¼z
Ġmer cilere
Ġyapar sanÄ±z
ĠYÃ¼z Ã¼nden
ĠilÃ§ esinde
ĠDÃ¼z en
ĠDÃ¼z ce
ĠsorduÄŁum uzda
ĠaÃ§tÄ±ÄŁÄ±m Ä±zda
Ġdakik alÄ±k
Ġtahsil at
ĠgÃ¶revl isi
MA CFit
Ġlam basÄ±
Ġsuy undan
ĠSaÃ§ ma
ĠÃ§eÅŁit li
ĠdÃ¼ÄŁ mesi
Ġverecek siniz
Ġred de
Ġanlam Ä±
ĠgeÃ§iÅŁ tir
Ġtedav isi
ĠBaÅŁv uru
ĠyÄ±rt Ä±ldÄ±
mey ince
ĠSi yah
ĠSab iha
ĠKazan Ã§
ĠÅŁah s
ĠDeniz bank
Ġuc uz
ĠbaÅŁk asÄ±
ĠgÃ¶nderilmiÅŁ tir
ĠyaÅŁama k
ĠbulunduÄŁum uz
ĠZor lu
Ġsandal y
ĠArac Ä±n
Alt us
Ġsahib iyim
ĠgÃ¶rÃ¼ÅŁtÃ¼ÄŁÃ¼m de
ĠÄ±sÄ±t mÄ±yor
Ara c
DoÄŁ taÅŁ
Deniz bank
Ġbab am
ĠkoÅŁ ul
ĠSeb ep
Ġduv ar
ĠKad ar
ĠAda m
ĠÅŁof Ã¶r
Ġyapama yÄ±z
ĠFÄ±r Ä±n
ĠolmadÄ±ÄŁ Ä±ndan
ĠeÅŁy alar
ĠbaÄŁlantÄ± sÄ±
ĠÃ§evrem deki
Ġtutan ak
Son y
tam onu
Ġsin yal
ĠÅŁaÅŁ Ä±rttÄ±
ĠMon taj
ĠHay al
ĠHay Ä±r
ĠPlay Station
Ġetik et
ĠKartÄ±m dan
ĠLek e
ĠÅŁubeniz de
Ġhaziran da
Ġpatates ler
ĠMÃ¼dÃ¼r lÃ¼ÄŁÃ¼
Ġsoyul malar
gin Ã§
ĠsÄ±nÄ±f ta
Ġkey fi
ath lon
ĠdÃ¼k kan
ĠDik kat
Ġmac un
Ġmahall esinde
ĠÃ¶ÄŁ le
Ġhalle de
ĠForm u
Ġbenz eri
Ġolmam Ä±za
ĠArt Ä±ÅŁÄ±
Ġask Ä±ya
resti ge
ĠistediÄŁimiz de
Kas Ä±m
Yat aÅŁ
Ġsilik on
ĠVakÄ±f Bank
Ġsoruml uluk
ĠCon nec
ĠÄ°nÅŁ aat
ĠgÃ¶tÃ¼rdÃ¼ÄŁÃ¼m de
ĠIs rarla
ĠÃ§arÅŁ af
ĠDeÄŁiÅŁik liÄŁi
ĠÃ¶nemse medim
ĠÄ±sÄ±tÄ± cÄ±sÄ±
ĠKargolan madÄ±
Merh aba
YÄ±l lardÄ±r
idi ye
ĠSS D
ĠSak arya
ĠaydÄ±n lat
ĠDet erj
ĠPla stik
osmeti ca
Ġeksp ertiz
Ġdenil erek
ĠgerekÃ§ esiyle
ĠkaydÄ±m Ä±
ĠAtat Ã¼rk
ĠWin dows
Ġavuk at
Nest le
ref our
ĠÃ§ey rek
ĠTeh dit
ĠKoz metik
Ġmus luk
ĠMask e
ĠMetro city
Ġkarant ina
Ġbilgis ini
cros oft
Ġtesp it
ĠAnd roid
ĠRoc her
Ġistemedi ÄŁimi
Ġsalg Ä±nÄ±
Kab lo
Pop eyes
Rena ult
Si emens
Sat Ä±n
Ġhev es
ĠBaz en
ĠBask Ã¼l
ĠTrab zon
Ġabar tÄ±sÄ±z
ĠKÄ±b rÄ±s
ĠApp le
Ġnaf ile
ĠGere ÄŁinin
ĠGÃ¶k Ã§en
ĠFakÃ¼l tesi
ĠNot ebook
Ġhavalim an
ĠTedav i
kswag en
Ġtenezz Ã¼l
Ġperfor man
ĠConnec t
) ,
. !
. :
1 000
3 2
5 3
5 8
6 9
7 8
8 0
8 00
9 06
A P
A da
B G
B or
B ah
B eÅŁ
C h
C k
D yson
E L
E l
E ur
E BA
G o
G it
H es
H az
H opi
H oroz
K S
K T
K Ã¼
K redi
K itap
L CW
M ay
M akin
M altepe
M olfix
N e
N ex
N Ã¼fus
O O
O S
O n
O z
O cak
P lay
P etrol
P rima
P andora
P ereja
P amukkale
R a
S K
S h
S w
S en
S Ã¼t
S arÄ±
S amsun
S Ä±fÄ±r
S inem
S chafer
S tarbucks
T R
T es
T Ã¼r
T av
T op
T OKÄ°
T Ã¼vtÃ¼rk
T edaÅŁ
U n
U ludaÄŁ
U BG
X EL
Y urtiÃ§i
Y ves
a dÄ±
a ce
a go
a ut
b is
b arÄ±
b eyi
b iliyor
b adem
c s
c am
c uk
d k
d ine
d bir
d unuz
e al
g ur
g re
g ulan
g ht
g arin
h ur
h met
h ka
h lo
i el
i dan
i Phone
k ek
k ullan
k tan
k ana
k oda
l d
l in
l or
l han
l ilere
l ulu
m al
m ana
n ek
n es
n oz
n ova
o tal
o se
o int
p ara
p ark
p ed
p riz
r ey
s Ã¼n
s ervis
s af
s mart
s kÃ¼
s aray
t x
t me
t ek
t ara
t Ã¶r
t onu
t emiz
u di
u st
u sun
u ÄŁu
v let
v her
v resim
w ox
y m
y Ä±l
y dÄ±m
y alÄ±
y ayÄ±
y alar
y os
y sa
y Ã¼p
y sam
y ince
y atÄ±
y XEL
z e
z urum
z eme
z oz
Ġ #
Ġ +
Ġ X
Ġ un
Ġ !,"
Ġ amp
Ä± Ã§
ar Ä±ndan
ar yak
Ã¼ yen
ÅŁ Ä±k
er ah
er lik
er imi
an o
an dÄ±
an dÄ±m
an ya
an sÄ±
an Ä±lmaz
Ġb y
Ġb ine
Ġb ark
Ġb isik
Ġb lender
Ġb Ã¶yl
de vlet
in s
in Ã§
ÄŁ an
ÄŁ da
ÄŁ lu
al larÄ±
ma dÄ±ÄŁÄ±nÄ±
ma dÄ±nÄ±z
ma ÄŁan
or s
or land
Ġs a
Ġs o
Ġs Ã¶n
Ġs ef
Ġs ig
Ġs Ã¼p
Ġs Ã¼tÃ¼n
Ġs eklinde
Ġs Ã¼tÃ¼
Ġk a
Ġk li
Ġk Ã¶y
Ġk ade
Ġk us
Ġk ediler
Ġk loz
Ġk oskoca
Ġk umaÅŁ
Ã§ Ä±
Ã§ ek
Ã§ Ä±k
Ã§ iler
il em
il atÃ¶r
Ġg ur
Ġg Ã¼l
Ġg enÃ§
Ġg tx
en iyor
en to
ir im
ir ler
ir eksiyon
Ġy emiÅŁ
Ġy Ä±rtÄ±k
di y
di da
di ÄŁini
me ce
me lerine
dÄ± ma
Ã¶ ÅŁ
ol it
ol ped
el ere
et k
et t
et leri
et siz
et oot
im ento
Ġt ep
Ġt anÄ±n
Ġt ransfer
Ġt uvalet
ay ip
at on
at Ä±cÄ±
Ġi a
Ġi Phone
Ġi ÄŁrenÃ§
ak ende
Ġv id
Ġv ant
Ġh e
Ġh aciz
ek er
ek ler
Ã¼n Ã¼zÃ¼
on da
es in
es se
Ġol ama
Ġol ayÄ±
Ġol masÄ±nÄ±
Ġol acaÄŁÄ±
Ġol amayacaÄŁÄ±nÄ±
la mÄ±yorlar
iÅŁ li
Ġde mesi
Ġde miÅŁler
Ġde kon
Ġde sen
ur i
ur du
lar Ä±mda
as aray
ĠS A
ĠS p
ĠS t
ĠS ar
ĠS il
ĠS Ã¶yle
ĠS te
ĠS arÄ±
ĠS ilik
ĠS arÄ±m
ĠS ens
ĠS izi
ĠS igortam
ĠS incan
ĠS Ã¼mer
ĠS uperb
ĠS ebebi
ĠS KT
Ġal ay
Ġal Ä±nÄ±
Ġal Ä±mÄ±
Ġal mÄ±yorlar
Ġal madÄ±m
Ġal amÄ±yor
Ġal anda
Ġal malarÄ±
Ġal yans
Ġal arm
ik asÄ±
ĠB ayat
ĠB Ã¶cek
ĠB Ä±Ã§ak
ĠB ang
ĠB alÄ±kesir
ĠB alkon
ĠB ianchi
ĠB lutv
Ä±k sÄ±z
ĠÃ§ ayÄ±
ĠÃ§ ubuk
le v
le miÅŁ
le diler
le diÄŁim
le mesi
le yi
Ã¼r Ã¼n
Ã¼r Ã¼k
Ã¼r ken
am bi
am ing
ĠT K
ĠT Ã¼n
ĠT ra
ĠT Ã¼k
ĠT oz
ĠT aki
ĠT ransfer
ĠT uzla
Ġd u
Ġd ar
Ġd uÅŁ
Ġd iler
Ġd Ã¶v
ĠK it
ĠK em
ĠK uÅŁ
ĠK aÄŁÄ±
ĠK ayÄ±p
ĠK urt
ĠK asko
ĠK urumu
ĠK ipa
ĠK loz
ĠK oskoca
ĠA dÄ±
ĠA la
ĠA lan
ĠA cÄ±
ĠA det
ĠA idatÄ±
ĠA lamama
Ä±l mak
Ä±l madÄ±ÄŁÄ±
Ġm alÄ±
Ġm iyim
Ġm Ã¼c
Ġm ulti
it ikasÄ±
is iyle
Ġf az
Ġf ram
Ġf Ä±ndÄ±k
Ġf aks
Ġp es
Ġp os
Ġp us
Ġp Ã¼s
Ġp lat
Ġp ansiyon
Ġp izz
ul op
ul tu
ok opi
ĠÅŁ im
ĠÅŁ Ä±k
ĠÅŁ ebek
Ä±r dÄ±m
Ä±r lan
20 02
aÄŁ Ä±na
az lÄ±
Ä° s
Ä° Ã§
Ä° Phone
Ä° lhan
Ġn ab
Ġyap Ä±
Ġyap tÄ±ÄŁ
Ġyap acaÄŁ
Ġyap amadÄ±m
Ġyap amÄ±yoruz
Ġyap tÄ±ÄŁÄ±nÄ±
Ġyap manÄ±zÄ±
Ġyap Ä±larak
Ġyap abilirim
ce ÄŁimi
ce vher
Ġ1 10
ĠM er
ĠM ek
ĠM ana
ĠM eg
ĠM urat
ĠM ehmet
st ar
Ġe p
Ġe ylÃ¼l
Ġe cz
ĠiÃ§ tiÄŁim
ĠH ikay
ĠH aber
ĠH enÃ¼z
ĠH aciz
ĠH ilton
ĠH osp
ĠY unu
ĠY Ä±rt
ĠY eÅŁil
ĠY alnÄ±z
ĠY umoÅŁ
ĠG M
ĠG er
ĠG iÅŁ
ĠG iyim
ĠG Ã¶l
ĠG iden
ĠG ranit
ĠG reen
ĠG lobal
ĠG ofret
ĠÄ° p
ĠÄ° gdaÅŁ
ĠÄ° sp
Ġay arÄ±
Ġay larÄ±nda
Ġay Ä±rt
Ġay lardÄ±r
Ġay akkab
em inde
em li
em bey
ti ÄŁini
li ÄŁim
dÄ±ÄŁ Ä±na
Ġbu ton
Ġbu lamÄ±yoruz
Ġbu tonu
Ġver emedim
Ġgel mem
Ġgel meyen
Ġgel sin
Ġgel miÅŁti
Ġgel meyecek
tÄ± sÄ±
eri me
Ġil er
Ġil ginÃ§
ab Ä±n
ab inde
ĠD il
ĠD ama
ĠD uÅŁ
ĠD iye
ĠD ireksiyon
lan dÄ±ÄŁÄ±nÄ±
lan dÄ±rma
uz en
uz ul
ĠgÃ¼n Ã¼n
ĠgÃ¼n Ã¼m
ĠE dir
ĠE ge
ĠE TS
ĠE FT
ĠÃ¼ l
Ġr u
Ġr ad
Ġr azÄ±
Ġr obot
Ġr eÃ§et
Ġr Ã¶tar
Ġr andÄ±m
ark et
ĠP et
ĠP is
ĠP ip
ĠP aran
ĠP araf
ĠP ed
ĠP ow
ĠP rima
ĠP iranha
ĠP latin
Ġbil miyor
Ġbil mediÄŁim
Ġbil diÄŁiniz
iy iz
Ġet mesi
Ġet medim
Ġet memiÅŁ
Ġet miÅŁler
ey t
ey aÄŁ
Ġson landÄ±r
ĠgÃ¶ m
ta h
dÄ±ÄŁÄ±m dan
Ġma x
Ġma z
Ġma halle
Ġu san
laÅŁ tÄ±r
Ġara mamÄ±za
ĠÃ¼r etimi
Ġar ar
Ä±s Ä±na
Ä±s Ä±nÄ±n
mes inin
ah i
ah Ä±
Ã¼m l
Ġan ti
ĠÃ¶ b
Ġne z
Ġne vresim
Ġist em
Ġist ina
mÄ±ÅŁ Ä±m
Ġo d
Ġo p
Ġo dalar
ĠV ere
ĠV ide
ĠV itr
Ġz an
Ġz ehir
ĠF i
ĠF iz
ĠF iyasko
ĠF akir
ĠF ace
ĠolduÄŁ unun
Ã¼ÅŁt e
miÅŁ im
miÅŁ iz
Âł Ġ
ĠbaÅŁ lan
ĠO ra
ĠO na
ĠO sman
ĠO GS
Ġ3 000
Ġkullan dÄ±k
Ġkullan Ä±ma
Ġkullan mam
Ġkullan Ä±rÄ±m
ĠÃĩ or
ĠÃĩ at
ĠÃĩ Ã¶k
ĠÃĩ eki
ĠÃĩ iÃ§ek
ĠÃĩ anakkale
edi z
uÅŁ tur
erv uar
Ġama cÄ±
alar Ä±ndan
ĠgeÃ§ ip
mÄ±yor uz
eti ye
tan iye
ĠsÃ¼r ece
ĠsÃ¼r esini
Ġben ek
ĠÃ§Ä±k madan
ĠÃ§Ä±k arken
ĠÃ§Ä±k amÄ±yoruz
ĠÃ§Ä±k tÄ±ÄŁÄ±nÄ±
Ġsor du
Ġsor duk
ez gah
ĠN ak
ĠN ov
Ġkal ka
Ġkal acaÄŁÄ±m
eb ebek
eb ze
ĠC uma
ĠC of
ĠC las
ĠKar ar
ĠKar am
ĠaÃ§ Ä±n
ĠaÃ§ tÄ±
ĠaÃ§ madÄ±
ĠaÃ§ tÄ±k
ĠaÃ§ madan
ĠaÃ§ Ä±ldÄ±
ĠaÃ§ Ä±nca
ĠaÃ§ tÄ±ktan
ĠaÃ§ Ä±lacak
af aza
masÄ± yla
Ġkap Ä±ya
Ġkap lamasÄ±
se dÃ¼r
ĠiÅŁ leri
ĠgÃ¶r medi
ĠgÃ¶r mÃ¼yor
ĠgÃ¶r medik
Ġ5 6
ev ent
Ġc id
Ġc errah
Ġc Ã¼ml
Ġyaz dÄ±ÄŁÄ±m
Ġyaz mÄ±yor
Ġyaz dÄ±ÄŁÄ±
Ġyaz Ä±sÄ±nÄ±
ĠÃľrÃ¼n Ã¼mÃ¼
len medi
Ġel i
Ġel inde
Ġel div
Ġmark aya
ĠulaÅŁ mÄ±ÅŁ
Ġhizmet leriniz
Ġsaat imi
Ġsaat lerde
Åŀ u
ĠgÃ¶nder en
ĠgÃ¶nder ip
ĠgÃ¶nder mek
ĠgÃ¶nder miyor
ĠgÃ¶nder diÄŁim
ĠgÃ¶nder dik
ĠgÃ¶nder ilmesini
aÃ§ a
ĠÃ§alÄ±ÅŁ mak
ĠÃ§alÄ±ÅŁ tÄ±ÄŁ
ĠÃ§alÄ±ÅŁ Ä±yoruz
ĠÃ§alÄ±ÅŁ Ä±yorsunuz
201 3
ĠÃ¶de meniz
Ġfir masÄ±nÄ±
Ġyan Ä±
ĠyapÄ±l mamÄ±ÅŁ
Ġservis le
Ġgit medi
Ġgit mem
urum da
ada sÄ±
ĠdÃ¶n dÃ¼
ĠÅŀ irk
ĠÅŀ ikayeti
ĠÅŀ anlÄ±urfa
ĠÅŀ eker
ĠÅŁey den
Ġedil mesine
Ġkon unun
tÃ¼ ÄŁ
ĠsÃ¶yle ye
ĠsÃ¶yle diÄŁimiz
ĠmÃ¼ÅŁteri yi
Ġek ip
Ġek si
Ġnumar aya
om bi
us uz
ĠyÄ±l Ä±n
ĠyÄ±l dÄ±z
ĠAr am
ĠAr ka
Ġsat Ä±p
Ġsat Ä±c
Ġyer ini
ĠdeÄŁiÅŁ en
ĠdeÄŁiÅŁ mesi
ĠdeÄŁiÅŁ mesini
Ġtak Ä±yorum
Ġtak Ä±lan
ĠAl ak
ĠAl mak
ĠAl mÄ±yor
ĠAl man
Ġzaman lar
man Ä±za
ĠAn laÅŁ
ĠAn lat
ĠAn iden
Ġden en
Ġden ey
Ġden edik
Ġon ca
Ġon larca
Ġev len
Ġev imin
Ġev vel
Ġev liyim
ĠYap an
ĠYap Ä±ldÄ±
ĠYap tÄ±klarÄ±
Ġgir en
Ġgir ilmiÅŁ
Ġgir eceÄŁim
ĠL o
Ä±nÄ±z Ä±n
Ġolan Ä±
Ġolan dan
ĠBir lik
ĠBir evim
ĠdeÄŁil miÅŁ
oy un
op tan
ĠR ece
ĠR eh
ĠR ica
eli me
let me
Ġfatur alÄ±
Ġfatur amÄ±
Ġveril mesini
ers hka
Ġyar Ä±sÄ±ndan
Ġyar dÄ±ma
ĠÅŁub eler
ĠÅŁub esini
iler den
Ġsorun um
Ġsorun lu
Ġsorun suz
Ġak si
Ġak Ä±llÄ±
lama dan
Ġbak mÄ±yorlar
Ġkes me
Ġkes ip
Ġkes iyorsunuz
Ġediyor du
Ġat masÄ±
Ġat tÄ±k
Ġat Ä±p
Ġat Ä±ldÄ±
Ġat tÄ±lar
Ġl is
Ġl ink
Ġtaraf Ä±nda
Ġtaraf tan
Ġyol lar
Ġyol una
Ġot eli
Ġot og
Ġbulun masÄ±nÄ±
Ġbulun duÄŁu
Ġce b
ĠkÃ¶ r
Ġdurum la
Ġ6 7
may Ä±p
may Ä±nca
ĠBil gil
ĠBil gisiz
ĠÃĸ r
Ġkur t
Ġkur uÅŁ
Ġkur uma
Ġkur muÅŁlar
Ġyak laÅŁ
Ġyak tÄ±ÄŁÄ±m
Ġdev ir
Ġdev rem
Ġyet iÅŁk
yen in
abil iyorlar
ĠÃ§Ã¶z Ã¼le
ĠÃ§Ã¶z emediler
aÄŁÄ± da
ĠkÄ±r Ä±lmÄ±ÅŁ
eler inde
eler ini
Ġsu ya
Ġsu larÄ±nda
ĠÃ§ek i
ĠÃ§ek miÅŁ
ĠÃ§ek tiÄŁim
Ġzor luk
Ġ7 1
Ġ7 000
Ġark asÄ±ndan
Ġtem muz
Ġmak buz
Ġbit mesine
Ġbit meden
ĠVer ildi
ĠVer diÄŁimiz
ĠÄ°n ci
Ġ20 5
Ġ20 00
Ġede miyor
Ġede lim
Ġede ceÄŁini
Ġede miyoruz
ĠPar ex
ĠgÃ¶z Ã¼m
ver en
ver est
Ġyat an
Ġyat madÄ±
ĠparÃ§ alandÄ±
Ġpro fesyonel
Ġpro vizyon
Ġpro sedÃ¼r
alan dÄ±r
ĠkiÅŁ ileri
ĠkiÅŁ ilerin
Ã¶r ek
asÄ±nda ki
ĠBen den
ĠaldÄ±k larÄ±
Ġkab lo
if i
if iye
Ġbekle diÄŁim
Ġbekle mem
Ġbekle yip
Ġbekle yin
Ġbay anÄ±n
Ġbay iden
Ġ8 1
Ġkay dol
Ġ15 00
ĠÃ¼st lÃ¼k
ĠÃ¼st Ã¼nden
ĠbaÅŁv urumu
ĠyÃ¼z de
ĠyÃ¼z ey
ĠyÃ¼z Ã¼m
ĠyÃ¼z Ã¼nde
ĠyÃ¼z Ã¼nÃ¼
Ġte dbir
ĠServis in
Ġilet ti
Ġmail e
Ġkol a
Ġkol on
Ġtan esini
Ġtan esinin
ĠalÄ±n masÄ±
ĠalÄ±n masÄ±na
ĠbaÄŁ lamÄ±yor
Ġiz leme
ĠmaÄŁaz asÄ±
ĠmaÄŁaz asÄ±na
Ġfiyat Ä±na
Ġfiyat Ä±nÄ±n
lat Ä±yor
Ġme tal
Ġme ÄŁer
Ġgelmedi ÄŁi
Ġbilet imin
ĠSÃ¼r ede
amp on
raf ik
ĠÃ¶deme leri
ĠsÄ±k Ä±ÅŁ
Ä±lÄ± Ã§
ĠbaÅŁvur un
Ġsan al
Ġsan dÄ±m
Ġla stiÄŁi
Ġla sti
ĠYan sÄ±t
Ġoy sa
Ġoy alÄ±yor
Ġcihaz a
Ġcihaz Ä±mÄ±
ĠdeÄŁiÅŁtir miÅŁ
ĠdeÄŁiÅŁtir diler
ĠdeÄŁiÅŁtir ildi
Ġyetk isi
Ġko ca
Ġsonu ca
ĠarkadaÅŁ Ä±
ĠarkadaÅŁ lara
Ġhaz n
ĠÃ¼rÃ¼nler de
ĠÃ¼rÃ¼nler inizi
ĠmaÄŁdur iyeti
hat tan
Ġalmak tayÄ±m
Ġbenim le
ib inden
ĠOl masÄ±na
Ġsay ac
Ġsay gÄ±
ĠoluÅŁ muÅŁ
ĠalÄ±ÅŁveriÅŁ imde
Ġdur dur
Ġdur dular
Ġdur urken
Ġmemnun um
Ġmerkez inin
ĠgÃ¼ven c
ĠgÃ¼ven ce
ĠgÃ¼ven li
ĠgÃ¶tÃ¼r Ã¼p
Ġgetir t
Ġgetir in
Ġgetir diler
Ġgetir dik
Ġgetir mediler
Ġhakk Ä±nÄ±
Ġhakk Ä±mÄ±zÄ±
ĠSaat i
Ġses le
ĠEl ektronik
Ġbelirt ip
Ġbelirt ti
Ġbelirt erek
Ä±mda ki
Ġetmek ten
ĠgÃ¶rÃ¼n dÃ¼ÄŁÃ¼
Ġmakin enin
Ġmakin esini
Ġkapat tÄ±
Ġkapat mak
Ġkapat Ä±yorlar
ĠTÃ¼r lÃ¼
ĠFatur ayÄ±
ĠsÃ¶ylen en
ĠW eb
ĠW ic
ĠGÃ¶nder medi
ĠGÃ¶nder ilmedi
mez se
Ġolur sa
ĠÃ¼rÃ¼nÃ¼n Ã¼z
ĠsaÃ§ larÄ±m
Ġalt Ä±nÄ±
Ġalt Ä±ndaki
Ġkart Ä±nÄ±
Ġsistem den
ĠyÃ¶n t
ĠÄ°ÅŁ i
ĠÄ°ÅŁ ini
ĠÄ°ÅŁ kur
ĠÄ°ÅŁ sizlik
ĠÃľcret li
ge ot
ĠI ÅŁÄ±k
caÄŁ Ä±z
ĠTur bo
ĠTur gut
ĠEn glish
ĠbÄ±rak Ä±p
ĠbÄ±rak Ä±lmÄ±ÅŁ
ĠAra ma
ĠAra dÄ±k
Ġgeliyor du
ĠEt meme
ĠEt miyorlar
ĠYapÄ±l mÄ±ÅŁ
ĠYapÄ±l mayan
kara hisar
Ġtab ir
Ġtab aÄŁ
Ġtab leti
Ġsev iy
Ġtut uyor
Ġtut muyor
ĠHizmet ler
esiz lik
ĠAk Ã¼
ĠAk si
ĠPro mosyon
ĠyÃ¼k leme
Ġhav alandÄ±rma
ĠEdil mesi
Ġ201 4
ĠkÄ±rÄ±k lÄ±ÄŁÄ±na
Ġsalon da
Ġsalon unda
Ãĩ anakkale
Ãĩ ilek
Ġgider ildi
Ġgider ilmesi
Ġindir imde
ile medi
Ã¶k Ã¼m
ĠeÅŁ imin
ĠOp el
ĠbaÄŁlan Ä±yor
ĠbaÄŁlan mak
ch elin
Ġok un
Ġkor u
ĠKap Ä±
ĠKap or
ĠyaptÄ±ÄŁÄ±m Ä±z
Ġ18 0
ĠÃ§Ä±kar maya
ĠÃ§Ä±kar dÄ±ÄŁÄ±
ĠBel li
ĠBel ki
ĠkaÃ§ ak
ĠkaÃ§ Ä±r
ĠkaÃ§ aÄŁÄ±
ĠBank a
ĠÃ§aÄŁ r
Ġrez alet
ĠkartÄ±m Ä±n
ĠkartÄ±m la
ĠÅŀub eyi
Ġkurul uÅŁ
Ġtemiz lenmiyor
Ġtemiz liÄŁini
duÄŁum uz
Ġekran Ä±n
eg al
Ġter biy
Ġhar iÃ§
ĠSat Ä±ÅŁÄ±
Ġ16 0
Ġedildi ÄŁini
ĠgiriÅŁ te
ĠElektrik li
Ġbank adan
Ġkut usu
ĠsÃ¼rec inin
Ġotur uyoruz
Ġyas tÄ±k
ĠUlaÅŁ mÄ±yor
ĠUlaÅŁ Ä±lamÄ±yor
ĠUlaÅŁ amama
ĠEksik liÄŁi
Ben de
ĠBoz ulmuÅŁ
ĠMa aÅŁ
Ġtemsil ci
Ġbas tÄ±r
ĠyÄ±k at
Ġdoktor u
ĠKen dim
ĠKen dine
ne ÄŁi
ars on
Ġta dilat
ĠEr soy
Ġ24 0
ĠiÃ§erisinde ki
Ġhak larÄ±mÄ±
Ġhak aret
Ġhak sÄ±zlÄ±k
Ġolsun lar
ĠMart ta
ĠHayat Ä±mda
ĠÃ§alÄ±ÅŁan lar
na me
Ãľ Ã§
ĠboÅŁ alt
Ġkir a
Ġkir li
Ġkah ven
Ġtop u
Ġtop lam
Ġtop rak
lÄ±ÄŁ a
lÄ±ÄŁ Ä±m
ĠkonuÅŁ tuk
ĠÃ§ekil iÅŁe
lerinde ki
ĠYaz Ä±lÄ±m
sÄ±n lar
Ġduy madÄ±m
ĠkÄ±z ar
Ġyen ile
ĠtaÅŁ Ä±ma
Ġiti barÄ±
ĠyapÄ±la mÄ±yor
ĠyapÄ±la caÄŁÄ±nÄ±
Ġkapan mÄ±yor
ĠSorun um
ĠsÄ±kÄ±ntÄ± sÄ±
ĠoluÅŁtur duÄŁum
ĠoluÅŁtur duk
Ġdest eÄŁi
Ġdan Ä±ÅŁmanlÄ±k
ĠKullan amÄ±yorum
ĠKullan madÄ±ÄŁÄ±m
ĠbaÅŁla dÄ±ktan
Ġadres ini
Ġadres te
Ġizle diÄŁim
ĠsÃ¶zleÅŁ memi
Ġolacak tÄ±
Ġolacak sÄ±nÄ±z
ĠKur ye
Ġkitap larÄ±mÄ±
ĠkarÅŁÄ±laÅŁ tÄ±k
ĠÃ¼ye yim
ĠdÃ¼zelt in
Ġkazan mÄ±ÅŁ
Ġpas if
Ġpas landÄ±
ĠyapmÄ±ÅŁ lar
ĠyapmÄ±ÅŁ tÄ±m
ĠyapmÄ±ÅŁ tÄ±r
ĠEv et
ĠEv kur
ĠOn u
ĠÅŁirket inin
ĠÃ§ocu ÄŁun
ĠfotoÄŁraf Ä±nÄ±
Ġolduk larÄ±
Ġolduk larÄ±nÄ±
ĠÃľst Ã¼
Ġtedarik Ã§i
Ġkoltuk larÄ±n
ĠolmuÅŁ tum
ĠSÃ¶z leÅŁ
Ġotel in
ĠÃ¶ÄŁren mek
23 2
ĠÃ¶yle ce
Ġtur lu
Ġtur una
ĠSay f
ĠÄ°lgisiz lik
Ġbitti ÄŁini
ĠsoÄŁ ut
Ġtah mini
ĠÃ§ar ÅŁamba
Ġac ayip
ĠYat madÄ±
Ġdik iÅŁ
At v
ĠSal ads
ĠSÄ±k Ä±ntÄ±
Ġpat lat
ĠÄ°st iyor
ĠÄ°st edi
Ġren g
Ġborc umun
Mars hall
og raf
larÄ±mÄ±z Ä±n
Ġalmam Ä±za
ĠBur aya
ĠBur ger
Ġkayb Ä±
Ġtelevizyon umda
bu ki
Ġkas a
Ġkas Ä±m
ĠhÄ±z landÄ±r
ĠKÄ±rÄ±k lÄ±ÄŁÄ±
Ġbede l
Ġsigort amÄ±
ĠKan dÄ±rma
Ġaran Ä±yorum
Ġaran dÄ±ÄŁÄ±nda
ĠÃ¶den miÅŁ
ĠBilet in
fe e
fi ce
ĠBay r
ĠBay ii
ĠTak Ä±mÄ±
ĠFil tre
ĠdeÄŁer inde
ĠOy alÄ±yor
emeye ceÄŁi
Ġkodu yla
Ġihtiya cÄ±mÄ±z
ĠAs k
ĠAs lÄ±nda
ĠMakin enin
Ġsayf ayÄ±
Ġsayf asÄ±ndan
ĠseÃ§ enek
Ġkom b
Ġkom ik
Ġyeri me
Ġolay la
ĠAv is
ĠAv uk
Ġsebep ten
ĠbÃ¶lÃ¼m de
Ġdos yasÄ±
ĠGÃ¶ ster
Ġverdik ten
Ġanla dÄ±ÄŁÄ±m
ĠanlaÅŁ tÄ±k
ĠanlaÅŁ malÄ±
ĠyaÅŁa dÄ±k
Ġuygulama da
ĠBor nova
Ġnumara dan
ĠHas ta
ĠHas talÄ±k
ĠDi di
ĠOr ijinal
ĠOr ganizasyon
ĠOr tada
Ġvide olarÄ±
ĠBe dava
Ġmil yar
ĠGetir miyor
ĠNeden i
ĠNeden ini
ĠsÃ¼pÃ¼rg esi
ĠsÃ¼pÃ¼rg enin
ĠsÃ¼pÃ¼rg esini
ĠadÄ± ma
ulmuÅŁ tur
ĠHav a
ĠÅŁubesinde ki
Ġoyn ama
gan ce
tay dÄ±
ĠMedi a
Ġann emi
Ġelem anÄ±
Ġaktar ma
Ġlaptop um
Ġbahan elerle
Kar de
Ġap arat
Ġdil im
ĠfÄ±r Ã§
ĠHaf talar
ĠGit tim
ĠGit tiÄŁim
ĠPiÅŁman lÄ±ktÄ±r
Ġbizim le
Ġmuh afaza
Ġistedik leri
Ġmuayene ye
Ġkop ma
Ġkop tu
ĠKab lo
ĠSaygÄ±sÄ±z lÄ±k
bey li
Ġser isi
Ġsinema da
ĠDav et
ĠmaaÅŁ Ä±mdan
ĠaraÅŁtÄ±r ma
Ġsitesinde ki
Ġedecek ler
ĠmaÄŁduriyet im
ĠMaÄŁaz acÄ±lÄ±k
Ġertel en
Ġertel eme
Av is
Av ÅŁar
ĠgÃ¼ ler
ĠBey az
ĠKitap larÄ±m
Ġpark e
ĠMar ath
ĠiÃ§eri ye
ĠEdiyor um
Ġetmiyor sunuz
ĠoÄŁl umu
Ġgide ceÄŁim
Ġ48 22
ĠÃ§alÄ±ÅŁma maya
tÄ±ÄŁÄ±nÄ±z da
meyecek lerini
Ġteh lik
Ġbilgiler ini
Ä±lama z
Ä±lama yan
ĠgiÅŁ elerden
ĠDoktor un
Ġaram alar
Ġisten iyor
ĠsuÃ§ tur
ĠkÃ¼f Ã¼r
ĠkÃ¼f lenmiÅŁ
Ġtaahh Ã¼dÃ¼m
Ġbebe ÄŁim
Ã§ak oca
Ġman tar
Ġmon t
Ġney in
ĠHakk Ä±mÄ±
Ġizleye miyoruz
ĠÃĸnce den
ĠKesin likle
Ġeleman larÄ±
Tek nosa
Tek irdaÄŁ
ĠÃ§al mÄ±yor
ĠParam Ä±n
ĠyÄ±kama da
ĠyaÄŁmur lu
sak lÄ±
Ġkit abÄ±
Ġgr up
Ġtor b
ĠdÃ¶k Ã¼ldÃ¼
ĠdÃ¶k Ã¼lÃ¼yor
Ġper de
Ġper ÅŁembe
ĠyanÄ±lt mak
ĠÅŁubat ta
Ġrezil lik
ĠÃĩalÄ±ÅŁan larÄ±
ĠHesab Ä±ma
Ġlen si
ĠÄ±ÅŁÄ±k larÄ±
Ġham ur
Ġham ile
Ġham burger
ĠAd resi
ĠAÄŁ Ä±z
Ġpeynir in
ĠÅŁart lar
ĠÃĸz en
Ġkork uyorum
Ġuygula masÄ±nÄ±
Ġuygula masÄ±nda
Ġborcum dan
sey dim
Ġif las
ĠSistem leri
ĠÃ§ab asÄ±
ĠTor tu
ĠKÃ¼ Ã§
ĠMal um
ĠÄ°let iÅŁime
Ġayn Ä±sÄ±nÄ±
ĠilÃ§ esi
ĠÃĩekil di
ĠÅŀif r
ĠÅŀif re
ĠÃ¼yeliÄŁim in
Ġdosy amÄ±
Ġlam b
ĠSh op
ĠBÄ±rak tÄ±
Ġameli yatÄ±
ĠKut usu
ĠmÄ±s Ä±r
ĠMas lak
ĠÄ°s kender
Ġbula madÄ±lar
Ġtedav i
ĠdoÄŁr usu
ĠdoÄŁr ultu
ĠBaÅŁv urum
ĠbÃ¶lg ede
ĠbÃ¶lg eye
Ãĸz lem
ĠÃ§ikolat asÄ±
Ä±ÄŁ a
Ä±ÄŁ Ä±m
ĠSi emens
ĠalmÄ±yor uz
ĠÅŁah Ä±s
ĠGerÃ§ek leÅŁtir
ĠhatÄ±r lamÄ±yorum
ĠdÄ±ÅŁarÄ± dan
ĠGÃ¶rÃ¼n tÃ¼
ĠÃ§izik ler
Ġmalzeme leri
Deniz li
biy o
Ġle zz
alat asaray
ĠkÄ± v
ĠTal eb
Ġduv ara
ĠKiÅŁ isel
ĠKÃ¼f lÃ¼
Ġfay da
Ġfay dalan
Ġpomp a
ĠgÃ¼nah tÄ±r
Ġkullanabil dim
Ġbeklen iyor
ĠÅŀiÅŁ li
ĠolmadÄ±ÄŁ Ä±na
Ġaks aklÄ±k
ĠhemÅŁir e
Ġuzak tan
Ġkokuyor du
ĠÃ§evrem de
Ġmekan ik
ill it
ildim i
ĠSos yal
ĠSultan gazi
ĠBez i
Ġdok un
Ġdok uz
arab aÄŁlar
Ġez iyet
ĠDÄ±ÅŁ Ä±nda
ĠEm san
ĠÃ¼t Ã¼m
Ġoper atÃ¶r
ĠAyÄ±p tÄ±r
Ãĸn celikle
ĠvatandaÅŁ Ä±
Tur a
ĠsayÄ±s Ä±
ĠsayÄ±s Ä±nÄ±
Ġsigor tal
Ġkla sik
Ġkla vye
ĠtÄ±r aÅŁ
Ġrak am
ĠCar refour
eceÄŁimiz i
Ġizl iyorum
Ġizl iyoruz
ĠAtak ent
resti j
Ġsevk iyat
ĠAÃ§Ä±k Ã§asÄ±
ĠTakÄ±m Ä±nÄ±n
ĠkÄ±lÄ±f Ä±
DS L
ody ne
Ġur unu
arÄ±k Ä±z
Ġiddi a
Ġols aydÄ±
Ġdenet im
ĠSer amik
ĠKaÅŁ Ä±ntÄ±
Ġnere ye
Ġnere den
ĠYaÄŁ mur
ĠPer akende
ĠuÄŁra dÄ±m
Ġistey en
ĠbaÅŁar Ä±sÄ±z
Ġkonak lama
ĠakÅŁ ama
ĠakÅŁ amÄ±
Ġkendiler ini
ĠHalk bank
ĠaÅŁk Ä±n
Ġazal dÄ±
Ġkord onu
Ġtahl illeri
ĠKampany asÄ±ndan
ĠKarÅŁÄ± yaka
ĠKurumsal lÄ±k
ĠTemsilc isi
Ġkup onu
Ġtaz min
Ġfor ma
ĠHey eti
ĠDA SK
ĠEur asia
ĠÃĩocu ÄŁum
ĠLir a
Ġyollay Ä±n
Ġyetmez miÅŁ
Ġedemez siniz
ĠgÃ¶tÃ¼rdÃ¼ ler
Ġkulak lÄ±ÄŁÄ±
ĠAvr asya
Kargo m
ĠBahÃ§ elievler
ĠBelirt ilen
Ġpsikoloj ik
Cor netto
Def alarca
Dev let
Pron et
Sal cano
aca at
adÄ±k Ã¶y
tey ner
Ã¼lÃ¼ p
Ġblok ta
ĠsÄ±n Ä±r
Ġgen iÅŁ
Ġvade li
ĠvÃ¼cu dum
ĠhÃ¼s ran
ĠSine masÄ±
ĠBebe ÄŁim
ĠÃ§Ä± tÄ±r
ĠKara c
ĠKah v
ĠKusur lu
Ġmo use
ĠÅŁÃ¼p h
ĠyapamÄ±yor sanÄ±z
duy maz
Ġemin im
ĠPan el
Ġbilgisay arÄ±
mesey dim
ĠSÃ¼rec inde
Ġbahs et
ĠUyar Ä±sÄ±
ĠSebeb ini
Ġulus lar
ĠUzak tan
ĠgÃ¼rÃ¼ltÃ¼ lÃ¼
BD H
Gold master
Homet ech
Vol kswagen
eu geot
Ġbro ÅŁÃ¼r
Ġbeye fendi
ÄŁlen ce
Ġsivil ce
Ġkep ek
ilev s
Ġib raz
ĠhanÄ± me
ĠmÃ¼s lÃ¼m
iskÃ¼ v
Ä°st inye
Ġyapars Ä±nÄ±z
ĠMÃ¼ÅŁt er
Ġed ince
ĠHan gi
Ġanah tar
ĠVi alan
ment us
ĠFabr ika
ĠCle an
ĠCiddi yet
ĠÃ¼yesiy dim
ĠdoÄŁduÄŁ undan
Ġkorun masÄ±
Ġdavlum baz
ĠVatandaÅŁ lÄ±k
Ġirsal iye
Nex t
OO V
Play Station
Sh ell
SÃ¼t aÅŁ
Sinem ia
skÃ¼ dar
aryak Ä±t
Ġbisik leti
Ã§ek mece
dida s
etoot h
ĠSarÄ±m saklÄ±
ĠSuperb ox
ĠalÄ±nÄ± p
Ġfram bu
Ġplat f
ulop ak
ĠMana v
ĠHosp ital
ĠÄ°sp anya
embey az
ĠEdir ne
Ġistina den
ĠVitr ifiye
ĠFace book
ĠNov ada
Ġkalka cak
ĠCof fee
ĠClas si
Ġeldiv eni
ĠRece p
ĠyetiÅŁk in
ĠWic k
ĠKandÄ±rma casÄ±
ĠMarath on
ĠdoÄŁrultu sunda
' m
* .
, #
2 20
3 19
4 7
4 8
4 24
5 1
5 9
6 0
6 2
7 00
7 11
7 46
8 3
8 50
9 3
9 7
A K
A b
A ir
A cil
A ile
A wox
B P
B e
B i
B an
B at
B lu
B Ã¼yÃ¼k
B irk
B alÄ±kesir
B odrum
C K
C ol
C ap
C as
C adde
C ovid
C errah
C itro
C osmetica
C illit
D C
D P
D el
D ek
D on
D eÄŁ
D Ã¼ÄŁÃ¼n
D ijitsu
E ÅŁ
E la
E le
E ve
E ge
E ner
E yÃ¼p
E verest
F O
F S
F res
F atura
G Ã¼
G Ã¶z
G arant
G azi
G FK
G rand
G alatasaray
H o
H at
H am
H izmet
H af
H ot
H ilton
I ke
J ET
K ay
K ur
K ara
K az
K ullan
K aÃ§
K azan
K uv
K ent
K raft
L K
L in
M a
M c
M o
M al
M ak
M aÄŁ
M ark
M erkez
M oda
M uh
M iss
M ersin
M illi
M urat
M OOV
N utella
O to
P er
P uma
P ert
P remi
P iranha
P apara
P restige
P orland
P eugeot
R Ä°
R oy
R amazan
R egal
R ulopak
S Y
S p
S iz
S aÄŁ
S Ã¶z
S aÃ§
S ayÄ±n
S alg
S omp
S ivas
S epaÅŁ
S arÄ±kÄ±z
T C
T u
T on
T Ã¼m
T urk
T ivibu
T erm
V K
V e
V it
V ileda
V FS
W at
Y T
Y an
Y az
Y alÄ±
Y emek
Y urt
Y Ä±ldÄ±z
Y umoÅŁ
a il
a ir
a ik
a ult
b in
b ay
b iz
b ere
b Ã¼s
b oldu
c k
c ir
c ta
c unun
c usu
c asÄ±na
c Ä±lÄ±k
d d
d z
d Ä±na
d inden
e ÄŁim
e der
f k
f il
f ler
f Ä±nda
f af
g Ã¼
g al
g am
g Ã¶r
g Ã¼l
g ate
h iÅŁ
h ut
h las
i um
j c
j en
j et
j ital
k in
k Ä±n
k eme
k art
k iler
k Ã¼l
k ileri
k oloji
l iyor
l esi
l iyorum
l ili
l orm
l uyorum
l ock
m o
m u
m il
m Ã¼r
m Ã¼ÅŁteri
m ron
m ila
n u
n af
n umar
n av
n eme
n ov
n eÄŁin
o dan
o ter
o stan
o ob
p s
p as
p lak
p ert
p ost
p Ä±nar
r it
r uk
r ede
s m
s ar
s ul
s ipariÅŁ
s imi
s Ã¼t
s Ã¼ne
s onu
s ens
t ti
t ez
t ing
t hane
u lar
u fi
v h
v ar
x is
y Ã¼
y ol
y as
y ala
y Ä±ldÄ±z
z ik
Ġ :
Ġ inde
Ġ cr
Ġ lu
Ä± st
Ä± larÄ±
ar e
ar ÅŁ
ar tÄ±
ar ine
ar lÄ±
ar na
ar sÄ±zlÄ±k
Ã¼ fen
ÅŁ k
ÅŁ u
ÅŁ Ä±
er in
er al
er ez
an Ä±yor
an ce
an mak
an Ä±zda
an zÄ±m
an isa
Ġb a
Ġb l
Ġb o
Ġb Ã¶
Ġb et
Ġb on
Ġb ec
Ġb id
Ġb Ã¼f
Ġb ari
Ġb oÄŁaz
Ġb any
Ġb Ã¶rek
Ġb iskÃ¼v
Ġb embeyaz
in im
ÄŁ iyle
ÄŁ uma
ÄŁ undan
al d
al iz
al eti
ma x
or r
or if
or siyon
Ġs Ã¶
Ġs inde
Ġs em
Ġs unu
Ġs Ã¼z
Ġs ana
Ġs om
Ġs ilip
Ġs uluk
Ġs taj
Ġs unuyor
Ġs ulu
Ġs ipa
Ġs Ä±nava
Ġk e
Ġk edi
Ġk uÅŁ
Ġk lim
Ġk Ã¼l
Ġk remi
Ġk las
Ġk ula
Ġk riz
Ġk uzen
Ġk elime
Ã§ am
Ã§ iye
Ã§ iliÄŁi
il la
il meden
il emiyor
Ġg e
Ġg ev
Ġg erÃ§
Ġg aza
en da
en ol
en ce
en te
ir v
ir el
ir iz
ir li
ir men
ir seniz
ir inÃ§
Ġy el
Ġy am
Ġy ut
Ġy aya
Ġy ayÄ±m
Ġy uv
Ġy abancÄ±
Ġy alÄ±tÄ±m
Ġy avr
di ÄŁin
Ä±n cÄ±
me ler
me mek
me ÄŁi
Ã¶ bet
ol uk
ol arÄ±nda
el a
el en
el ler
et le
et aÅŁ
et ine
et iyle
Ġt r
Ġt iz
Ġt uz
Ġt om
Ġt erk
Ġt ost
Ġt aciz
Ġt uzlu
ay i
ay olu
ay ban
at mÄ±yor
Ġi c
Ġi d
Ġi cr
Ġi dar
ak art
Ġv b
Ġv an
Ġv ara
Ġv asÄ±
Ġv aat
Ġv Ã¼c
Ġh o
Ġh t
Ġh iz
Ġh usu
Ġh amil
Ġh ukuki
ek on
ek lik
ek tÃ¼
Ã¼n ce
um unu
um uÅŁ
um ba
un ken
on ta
on gul
es an
es un
es uar
Ġol u
Ġol malÄ±
Ġol acaÄŁÄ±z
Ġol manÄ±zÄ±
Ġol aÄŁan
la dÄ±ÄŁÄ±
la sÄ±
la caÄŁÄ±
la ck
ap ark
ap ta
iz ma
iz re
iÅŁ leri
iÅŁ imi
Ġde k
Ġde miÅŁ
Ġde lik
Ġde mir
Ġde diniz
Ġde diÄŁimizde
ur ma
ur usu
ur ant
lar ken
lar Ä±ndaki
as at
ĠS a
ĠS Ä±
ĠS Ä±n
ĠS ur
ĠS alÄ±
ĠS uy
ĠS ib
ĠS tar
ĠS Ã¼tÃ¼n
ĠS efer
ĠS ert
ĠS erdi
ĠS co
ĠS ky
ĠS chafer
ĠS tarbucks
ĠS ivas
Ġal dan
Ġal mas
Ġal dÄ±r
Ġal eti
Ġal ana
Ġal sÄ±n
Ġal acaÄŁÄ±z
Ġal madÄ±ÄŁÄ±m
Ġal abilirsiniz
ik lini
ĠB P
ĠB ar
ĠB er
ĠB es
ĠB Ã¼r
ĠB lu
ĠB asÄ±l
ĠB ib
ĠB ant
ĠB unca
ĠB ron
ĠB lok
ĠB odrum
ĠB MW
ĠB ostan
Ġbir inde
Ġbir ini
Ġbir inci
ĠÃ§ am
le di
le miyor
le bi
le meye
le yen
le yip
le yin
Ä±yor sun
am ma
am Ä±n
am la
am lÄ±
ĠT A
ĠT un
ĠT ah
ĠT Ã¼p
ĠT amamen
ĠT ost
ĠT encer
ĠT our
ĠT OKÄ°
ĠT EB
ĠT otal
ĠT ezgah
Ġd eri
Ġd ert
Ġd og
Ġd ri
ler imin
ler ji
Ġa g
ĠK i
ĠK er
ĠK Ã¶y
ĠK edi
ĠK lim
ĠK ime
ĠK alan
ĠK lima
ĠK aba
ĠK omp
ĠK umanda
ĠK orkmaz
ĠK raft
ĠK oton
ĠK ocaman
ĠK ombi
ĠK arabaÄŁlar
ĠK adÄ±kÃ¶y
ĠA ki
ĠA ÄŁÄ±
ĠA laÃ§
ĠA udi
ĠA xis
ĠA lerji
Ä±l ay
Ä±l masÄ±na
Ä±l dÄ±ÄŁÄ±nÄ±
Ä±l sÄ±n
Ġm l
Ġm Ã¼z
Ġm ot
Ġm gb
it ek
it iz
it Ã¶r
is yen
Ġf a
Ġf en
Ġf lat
Ġf anÄ±
Ġf ahiÅŁ
Ġf erah
Ġp s
Ġp oÄŁ
Ġp oz
Ġp op
Ġp eki
Ġp riz
Ġp osta
Ġp embe
Ġp hone
Ġp orselen
Ġp antol
Ġp Ä±rlan
Ġp orsiyon
Ġp irinÃ§
ara j
ul ma
ul madÄ±
ul dum
ul mamÄ±ÅŁ
ul ayan
iyor du
Ä±z Ä±n
ok ian
ĠÅŁ id
ĠÅŁ ans
ĠÅŁ aka
ĠÅŁ artÄ±
20 2
aÄŁ Ä±mÄ±z
Ã¶n er
Ä° ptal
Ä° stik
Ä° hlas
Ġn ef
Ġn eler
Ġn Ã¶bet
Ġyap alÄ±
Ġyap masÄ±
Ġyap may
Ġyap mayan
Ġyap malÄ±
Ġyap Ä±ÅŁÄ±k
Ġyap abilirsiniz
ce mi
ce ÄŁiniz
ye ar
ye ceÄŁim
ĠM y
ĠM ut
ĠM ado
ĠM olfix
ĠM apfre
st il
dan Ä±
dan Ä±n
ĠiÃ§ e
ĠiÃ§ en
ĠiÃ§ ini
ĠiÃ§ iyorum
ĠiÃ§ ten
ĠiÃ§ erken
ĠH ol
ĠH ub
ĠH ill
ĠH oroz
Ġda yÄ±m
ĠY eri
ĠY orum
ĠY alÄ±tÄ±m
ĠY KS
ĠG ol
ĠG ur
ĠG az
ĠG Ã¼zel
ĠG aming
ĠG ebze
ĠÄ° laÃ§
Ġay Ä±r
Ġay ran
Ġay larda
Ġay kÄ±rÄ±
em is
em den
em mel
ti ca
ti Gidiyor
li ÄŁin
li ght
Ġbu ÄŁ
Ġver mes
Ġver eli
Ġver mez
Ġver meme
Ġver mekte
Ġver sem
Ġver ebil
Ġver eceklerini
Ġgel me
Ġgel ene
Ġgel ebil
Ġgel ebilir
Ġil g
Ġil i
Ġil an
Ġil ac
Ġil Ã§e
ab ol
ab ak
ab ey
ab alar
ab Ä±nÄ±n
ab alÄ±k
ab bet
ab evi
ĠD u
ĠD es
ĠD Ã¼ÄŁ
ĠD uv
ĠD ell
ĠD erece
ĠD isk
lan dÄ±m
uz a
ĠgÃ¼n Ã¼ne
ĠgÃ¼n kÃ¼
ĠE tik
ĠE dici
Ġr ul
Ġr Ä±z
Ġr Ã¼z
Ġr efer
ĠP az
ĠP av
ĠP ili
ĠP uma
ĠP omp
ĠP riz
ĠP andora
ĠP orselen
ĠP UBG
Ġkar e
Ġkar ta
dil di
dil ek
dil ik
ra div
Ġbil diÄŁim
Ġbil emiyoruz
iy er
iy eler
iy stal
Ä±nda dÄ±r
Ġet raf
Ġet meli
Ġet seler
Ġet apta
ey tin
Ġson a
Ġdi s
Ġdi bi
Ġdi van
Ġdi jital
ta ge
ta urant
Ġma ÅŁ
Ġma te
Ġma mayÄ±
Ġu st
Ġu tan
laÅŁ ma
laÅŁ mÄ±ÅŁ
Ġara mayÄ±n
Ġara dÄ±ÄŁÄ±nÄ±zda
ĠÃ¼r Ã¼
Ġar tÄ±
Ġar aya
Ġar alarÄ±nda
Ġar Ä±tma
Ä±s Ä±r
Ä±s Ä±nÄ±z
go s
go v
mes iyle
ah u
ah ir
ah tarÄ±
ĠÃ¼rÃ¼n le
ĠÃľ lk
ĠsipariÅŁ le
ĠsipariÅŁ ten
Ġan dan
Ġan lÄ±k
Ġan ten
Ġan ne
ĠÃ¶ v
ĠÃ¶ ks
ĠÃ¶ tÃ¼rÃ¼
Ġist is
Ġist ika
Ġist emiyoruz
Ã¼k emmel
mÄ±ÅŁ tÄ±k
mÄ±ÅŁ sÄ±nÄ±z
Ġo ÄŁlu
ama ha
ĠV ida
ĠV ileda
Ġhal iyle
Ġz ula
Ġz eminde
Ġz umba
iÃ§ in
ĠF iÅŁ
ĠF PS
ĠF aiz
ĠF ox
ĠF LO
ĠF ranke
medi ÄŁimiz
medi ÄŁiniz
Ã¼ÅŁt Ã¼
Ġtarih in
Ġtarih inin
Ġtarih ten
mek teyim
ĠÃ¶n e
ĠÃ¶n Ã¼nden
ĠÃ¶n erdi
ĠbaÅŁ Ä±ndan
ĠbaÅŁ lÄ±ÄŁ
ĠbaÅŁ Ä±mÄ±za
ĠbaÅŁ lÄ±yor
ĠbaÅŁ layacak
ĠO men
ĠO nun
ĠO dalar
ĠO lamaz
ĠO cta
Ġ3 2
Ġ3 10
Ġ3 75
Ġkullan Ä±p
Ġkullan Ä±ldÄ±
Ġkullan Ä±rken
Ġkullan acaÄŁÄ±m
Ġkullan Ä±lmÄ±ÅŁ
Ġkullan mayÄ±
Ġkullan madÄ±m
Ġkullan dÄ±ÄŁÄ±mÄ±z
Ġkullan Ä±lamÄ±yor
Ġkullan madÄ±k
Ġkullan abilirsiniz
Ġkullan Ä±lamaz
ĠÃĩ il
ĠÃĩ ark
ĠÃĩ ob
ĠÃĩ Ã¶p
ĠÃĩ iÄŁ
edi amond
ayÄ± f
uÅŁ u
leri me
Ã¼z ar
ĠgeÃ§ mek
ĠgeÃ§ ince
ĠgeÃ§ emedi
ĠgeÃ§ ici
ĠgeÃ§ tikten
eti me
eti ci
ĠsÃ¼r Ã¼n
ĠsÃ¼r dÃ¼
bi ber
Ġsonra da
Ġvar ana
ĠÃ§Ä±k masÄ±nÄ±
ĠÃ§Ä±k madÄ±ÄŁÄ±
ĠÃ§Ä±k mÄ±ÅŁtÄ±r
ĠÃ§Ä±k acaÄŁÄ±nÄ±
Ġin at
Ġin saf
Ġsor gulama
Ġsor dular
ep siyon
ez ia
ĠhiÃ§ b
** '
cr Ã¼b
elef unken
ĠN ig
ĠN utella
ec athlon
Ġkal a
Ġkal p
Ġkal Ä±n
Ġkal em
Ġkal dÄ±ÄŁÄ±m
Ġkal mÄ±yor
Ġkal masÄ±
Ġkal Ä±yoruz
Ġkal madÄ±k
Ġkal orif
eb rik
ĠC D
ĠC ap
ĠC ine
ĠC ep
ĠC oc
ĠC rown
ĠC ildimi
ĠC izre
ĠKar tal
ĠaÃ§ mak
ĠaÃ§ Ä±yorlar
ĠaÃ§ arken
ĠaÃ§ Ä±ÄŁa
Ġpar alÄ±
Ġpar alar
Ġpar alarÄ±
af i
Ġkad ran
ac k
Ġkap as
Ġkap ama
Ġkap lama
Ġkap Ä±sÄ±
Ġkap aÄŁÄ±n
Ġkap Ä±sÄ±nda
Ġkap aÄŁÄ±nÄ±
Ġdaha da
ut tu
ut una
lik ten
Ġ4 1
Ġ4 50
ĠiÅŁ aret
ĠiÅŁ sizlik
ĠgÃ¶r Ã¼p
ĠgÃ¶r mÃ¼ÅŁt
Ġ5 4
Ġ5 7
Ġ5 8
Ġ5 10
Ġ5 50
Ġc h
Ġc u
Ġc Ã¼z
Ġc anÄ±
Ġc orona
Ġyaz dÄ±
Ġyaz mÄ±ÅŁ
Ġyaz mak
Ġyaz Ä±ldÄ±
Ġyaz Ä±lmÄ±ÅŁ
Ġyaz dÄ±ÄŁÄ±mda
Ġyaz mÄ±ÅŁlar
Ġyaz mÄ±ÅŁtÄ±m
Ġdiye cek
Ġdiye bilir
ro om
ro up
te gre
ĠÃľrÃ¼n e
len ip
Ġel im
ĠulaÅŁ amÄ±yor
ĠulaÅŁ tÄ±ÄŁÄ±nÄ±
ĠulaÅŁ tÄ±ktan
ĠulaÅŁ acaÄŁÄ±
ĠulaÅŁ amÄ±yorsunuz
ken ce
iniz in
Ġgeldi ÄŁim
Ġhizmet in
Ġsaat im
Ġsaat ten
si fler
si jen
Åŀ ubat
Åŀ iÅŁli
maya caÄŁ
maya caÄŁÄ±nÄ±
ĠgÃ¶nder ecek
ĠgÃ¶nder miyorlar
ĠgÃ¶nder mediler
ĠgÃ¶nder ilmesi
ĠgÃ¶nder eceklerini
ĠÃ§alÄ±ÅŁ mam
ĠÃ§alÄ±ÅŁ mayan
ĠÃ§alÄ±ÅŁ malar
ĠÃ§alÄ±ÅŁ tÄ±ÄŁÄ±mda
ĠÃ§alÄ±ÅŁ tÄ±ÄŁÄ±nÄ±
ĠÃ§alÄ±ÅŁ tÄ±klarÄ±
ĠÃ¶de miÅŁ
ĠÃ¶de memi
ĠÃ¶de memiz
Ġfir may
Ġtes limi
os man
Ġyan ma
Ġyan dan
Ġyan madÄ±
Ġyan mÄ±yor
Ġyan Ä±p
Ġyan Ä±ldÄ±m
ĠyapÄ±l ma
ĠyapÄ±l dÄ±ÄŁÄ±nÄ±
ĠyapÄ±l maz
ig ren
Ġgit t
Ġgit miÅŁler
tr esi
ada me
Ġtelefon unu
Ġtelefon una
Ġtelefon larÄ±nÄ±
ĠdÃ¶n d
ĠdÃ¶n dÃ¼k
ĠdÃ¶n Ã¼mÃ¼
ĠdÃ¶n Ã¼le
ĠdÃ¶n Ã¼ÅŁte
av ak
cÄ± ma
ĠÅŀ ekil
aman dÄ±ra
Ġdol ar
Ġdol an
Ġdol aÅŁ
Ġdol mak
Ġdol muÅŁ
Ġdol mamÄ±ÅŁ
Ġedil ir
Ġedil mek
Ġedil ece
Ġedil meden
Ġedil iyoruz
Ġedil emiyor
Ġedil emez
Ġolma dÄ±ÄŁÄ±m
Ġolma mÄ±ÅŁtÄ±r
dum duymaz
tÃ¼ dy
ĠsÃ¶yle d
ĠsÃ¶yle diÄŁim
ĠsÃ¶yle diÄŁimizde
Ġek on
Ġek ibi
Ġek ÅŁim
Ġek ledim
Ġnumar alar
Ġnumar amÄ±
Ġnumar alarÄ±
Ġnumar alardan
om an
om arin
ter esan
ĠAr Ä±yor
ĠAr asÄ±
ĠAr Ä±yoruz
ĠAr dÄ±ndan
ĠAr Ä±tma
Ġsat an
Ġsat tÄ±k
Ġsat tÄ±ÄŁÄ±m
Ġsat tÄ±lar
Ġsat Ä±lÄ±yor
Ġyer ler
Ġyer leri
Ġyer inin
art Ä±yor
Ġtak ar
Ġtak tÄ±ÄŁÄ±m
Ġtak Ä±ldÄ±
Ġtak ib
Ġtak arken
Ġtak Ä±ldÄ±ÄŁÄ±
Ġtak tÄ±rdÄ±m
ĠAl o
ĠAl madan
ĠAl Ä±yorlar
ĠAl madÄ±m
ĠAl madÄ±lar
ĠAl yans
ĠAl etleri
Ġzaman la
Ġbul ur
Ġbul mak
Ġbul muyorum
ĠÃ¼z Ã¼l
ĠAn ahtarÄ±
Ġden li
tik er
Ġon da
Ġev imi
uy du
ĠYap ama
ĠYap amÄ±yoruz
Ġgir mem
Ġgir emiyorum
Ġgir diÄŁi
Ġgir emez
ĠL ig
ĠL event
op aÅŁ
ĠR af
ĠR obot
ĠR eal
ĠR ose
ĠR ayban
eli ÄŁinde
Ġgerek ir
Ġhat asÄ±ndan
Ġhaf if
Ġhaf talÄ±k
Ġhaf tasÄ±
Ġ10 2
Ġ10 9
Ġor alÄ±
Ġor talar
ĠAy lar
ĠAy rÄ±lma
Ġveril ir
Ġveril mesine
Ġveril miÅŁtir
Ġveril miÅŁti
ĠÅŁub edeki
ĠGel ip
ĠÃ¼cret leri
ĠÃ¼cret imin
Ġsorun a
Ġsorun umu
Ġsorun umuz
ĠU l
ĠU mur
Ġak siyon
Ġak Ä±b
Ġak rab
Ġen teresan
Ġbel a
Ġken arÄ±nda
Ã¼t hiÅŁ
lama dÄ±ÄŁÄ±m
ĠSipariÅŁ ler
ĠSipariÅŁ imiz
Ġbak arak
Ġbak maya
Ġbak Ä±p
Ġbak tÄ±ÄŁÄ±m
Ġbak Ä±mda
Ġbak Ä±nca
Ġbak tÄ±lar
ĠÅŁikayet e
ĠÅŁikayet lerini
Ġkes tir
Ġkes meye
Ġkes miÅŁler
ĠyaÅŁ am
Ġat mÄ±ÅŁ
Ġat mak
Ġat arak
Ġat Ä±yorlar
Ġat Ä±lmÄ±ÅŁ
Ġl ist
Ġl ila
Ġtaraf a
Ġyol c
Ġyol l
Ġyol un
Ġyol dan
Ġyol lan
Ġyol ladÄ±
Ġyol culuk
Ġpara dan
Ġbulun madÄ±
Ġbulun muyor
Ġbulun acaÄŁÄ±m
Ġbulun maktayÄ±m
ĠÄ°ade sinin
ĠkÃ¶ f
ĠkÃ¶ kÃ¼
Ġdurum larda
Ġ6 3
Ġ6 4
Ġ6 50
ayÄ±s Ä±
Ġdef olu
Ġdef orme
ĠBil miyor
ĠBil meyen
ĠBil etim
ĠBil gisi
ĠÃĸ lÃ§
ka ca
Ġkur s
Ġkur tar
Ġdiyor sunuz
eÅŁ in
eÅŁ me
eÅŁ im
muÅŁ um
Ġuy dur
Ġuy gulan
ĠdÃ¶nÃ¼ÅŁ Ã¼nÃ¼zÃ¼
Ġyak Ä±
Ġdev r
Ġdev re
ĠdÃ¼ÅŁ mÃ¼yor
abil iyor
ĠMÃ¼ÅŁteri ye
ĠÃ§Ã¶z Ã¼n
ĠkÄ±r Ä±lÄ±yor
ĠkÄ±r Ä±ldÄ±ÄŁÄ±
eler ine
eler inden
Ġfark Ä±nda
iyat ri
mam Ä±n
ili di
ili on
ĠÃ§ek miÅŁler
Ġzor un
Ġ7 2
." "
Ġark adan
Ġark asÄ±na
ĠkÃ¶tÃ¼ sÃ¼
Ġmak as
Ġmak simum
Ġmak arn
ĠalmÄ±ÅŁ tÄ±
Ġiste mediÄŁim
Ġbit er
Ġbit ik
Ġbit medi
10 8
re e
re am
re is
re dim
ĠkarÅŁ Ä±la
ĠkarÅŁ Ä±lamÄ±yor
ĠkarÅŁ Ä±lÄ±ÄŁÄ±
ĠÄ°n dir
ĠÄ°n cel
ob ile
Ã¼ÄŁ Ã¼nde
Ġede medik
Ġede bil
Ġede meyeceklerini
ĠPar mak
ĠPar Ã§asÄ±
ĠPar amparÃ§a
Ġinternet in
Ġinternet im
Ġyat Ä±yor
ĠparÃ§ alarÄ±n
imiz den
cel eri
Ġkan aat
Ġkan unun
Ġpro tez
ĠÄ°ptal inde
ĠarÄ±z alar
ĠarÄ±z alanmÄ±ÅŁ
Ġinsan larla
han esi
Ġad Ä±nda
iv e
iv asa
iv ea
Ġkab Ä±
if on
Ġbekle meme
Ã¼l medi
Ã¼l mÃ¼ÅŁ
Ġbay r
Ġbay aÄŁÄ±
Ġmesaj la
Ġmesaj lar
ĠZ yXEL
Ġmi dir
Ġ8 5
Ġ8 6
Ġ8 7
acak larÄ±nÄ±
lay Ä±n
ĠyÃ¼z Ã¼ÄŁÃ¼n
ĠyÃ¼z lerce
ĠyÃ¼z Ã¼mÃ¼ze
ĠServis ine
orm da
Ġilet iyorum
Ġmail de
Ġkol u
Ġtan Ä±ma
Ġtan Ä±sÄ±
ĠalÄ±n Ä±r
ĠalÄ±n dÄ±ÄŁÄ±
ĠalÄ±n madan
ĠalÄ±n madÄ±ÄŁÄ±
Ä±la caÄŁÄ±nÄ±
ĠbaÄŁ lay
Ġiz ah
fen dinin
ĠHal le
ĠHal buki
ĠiÅŁlem ine
ĠiÅŁlem lerini
ĠmaÄŁaz anÄ±n
ĠmaÄŁaz anÄ±z
ĠmaÄŁaz anÄ±za
Ġfiyat lÄ±
gu Ã§
gu le
lat Ä±ldÄ±
Ġme hmet
Ġbilet leri
ĠSon u
ĠSon unda
ĠSon ucu
ĠSÃ¼r esinin
ĠSÃ¼r eci
amp aÅŁa
Ġkim sey
Ġkim yas
ĠNe dir
ĠNe omarin
Ġboz dur
Ġboz dunuz
ĠsÄ±k ma
ĠsÄ±k Ä±ldÄ±m
Ġfil an
ĠÄ°Ã§ i
Ġbilgi ye
Ġkredi yi
Ġkredi sine
Ġoy alanÄ±yor
Ġcihaz da
Ġcihaz dan
Ġcihaz Ä±mÄ±z
ĠdeÄŁiÅŁtir ip
ĠdeÄŁiÅŁtir meye
ĠdeÄŁiÅŁtir meden
Ġko ya
Ġsonu c
Ġsonu cunda
ĠÃĩÄ±k Ä±ÅŁ
ĠÃĩÄ±k mÄ±yor
ĠÃĩÄ±k masÄ±
ĠÃĩÄ±k artÄ±yor
ĠarkadaÅŁ Ä±n
ĠarkadaÅŁ larÄ±
ĠarkadaÅŁ Ä±mÄ±n
ĠsÃ¶z Ã¼
Ġhaz ir
Ġhaz nesi
ĠsipariÅŁim le
erÃ§ek ten
Ar tÄ±k
Ar by
Ġalmak tan
ĠTes t
ĠTelefon a
ĠTelefon lara
ĠTelefon umda
ĠAt tÄ±
ĠAt lant
ĠOl duÄŁum
ĠOl madÄ±ÄŁÄ±
tar es
Ġsay esinde
ĠoluÅŁ an
ĠoluÅŁ uyor
ĠalÄ±ÅŁveriÅŁ e
ĠalÄ±ÅŁveriÅŁ imi
Ġdur madan
ĠHastan eleri
04 8
muyor lar
ĠKal dÄ±
ĠmÄ± yÄ±m
Ġmerkez den
Ġmerkez iniz
Ġistedi ÄŁiniz
ĠdÃ¼ÅŁÃ¼n Ã¼p
ĠdÃ¼ÅŁÃ¼n dÃ¼k
ĠgÃ¼ven ip
ĠgÃ¼ven imi
ĠgÃ¼ven dik
ĠyaptÄ±r Ä±yorum
ĠYok tur
Ġdedi ÄŁi
ĠTek a
ĠTek n
ĠTek er
ĠTek stil
Ġfirma da
Ġgetir en
Ġgetir di
Ġgetir ip
Ġgetir medi
Ġgetir miyor
ĠaÃ§Ä±l an
ĠaÃ§Ä±l mamÄ±ÅŁ
Ġses li
Ġkez de
Ġoluyor um
ĠEl diven
ĠEl bis
Ġbelirt tiÄŁim
Ġpaket inin
Ġpaket ten
Ġpaket leme
Ġgaranti yi
ĠgÃ¶rÃ¼n mesine
Ġlir anÄ±n
Ġmakin emi
ĠMaÄŁ durum
Ġkapat tÄ±r
Ġkapat Ä±ldÄ±
ĠFatur alar
ĠsÃ¶ylen miÅŁ
ĠsÃ¶ylen ildi
ĠsÃ¶ylen miÅŁti
ĠW il
ĠW esse
ĠGÃ¶nder im
ĠGÃ¶nder ilmeyen
Ġ9 6
Ġ9 00
Ġmode m
Ġkart lÄ±
Ġkart Ä±na
Ġkalit eniz
Ġaz ar
Ġaz alt
Ġaz Ä±c
*** )
Ġsistem ine
Ġsistem sel
Ġsistem lerinde
ĠÄ°ÅŁ leme
ĠÄ°ÅŁ letme
Ġbor noz
enc iyim
enc ard
Ġhesab Ä±mda
Ġhesab Ä±mÄ±n
caÄŁ Ä±n
ĠTur u
ĠEn erji
ĠbÄ±rak mak
ĠbÄ±rak tÄ±k
ĠAra da
ĠAra cÄ±
ĠAra dÄ±ÄŁÄ±mda
Ġ12 8
Ġ12 9
ĠEt meden
ĠYapÄ±l madan
ĠBaÅŁ kent
ĠÃ§Ã¶zÃ¼m Ã¼
dar ip
Ġtut um
ĠKon s
ĠHizmet imi
ĠhazÄ±r lÄ±k
Ġer iÅŁ
eris ini
ans ino
ĠAk Ã§akoca
ĠAk aryakÄ±t
ĠPro gram
ĠPro fesyonel
ĠyÃ¼k lenmiyor
ĠyÃ¼k lemek
Ġhav alar
Ġhav ada
Ġhav lu
ĠNisan da
ĠSu Ã§
Ġbildir mek
Ġbildir ildi
Ġbildir irim
abilir iz
ĠuÃ§ aÄŁa
ĠdÄ±ÅŁ Ä±na
Ġ201 2
Ġsalon larÄ±
Ãĩ aÄŁ
Ġis kender
Ġindir dim
ĠaraÃ§ larÄ±n
ĠOp et
ĠOp mar
ĠbaÄŁlan dÄ±m
ĠbaÄŁlan mÄ±yor
Ġkor uma
ĠKap lamasÄ±
ĠKÄ±r aÃ§
ĠKÄ±r Ä±lmasÄ±
ĠÃ§Ä±kar Ä±yor
ĠÃ§Ä±kar ta
ĠÃ§Ä±kar mÄ±yor
ĠÃ§Ä±kar Ä±p
ĠÃ§Ä±kar dÄ±lar
Ġilgilen miyor
Ġilgilen mesini
Ġilgilen miyorlar
Ġilgilen mediler
ĠgÃ¶zÃ¼k tÃ¼ÄŁ
Ġproblem im
ĠdÃ¼zel ir
Ġes er
Ġhastan eniz
ĠBel ediye
Ġfilm de
Ġfilm in
Ġfilm inin
ĠkÃ¼ Ã§
ĠkÃ¼ vet
ĠkaÃ§ Ä±yor
ĠkaÃ§ Ä±rÄ±yor
ĠBank an
Ġrez ervuar
ĠÅŀub e
ĠÅŀub eye
ĠÅŀub esinden
Ġkurul uma
Ġtemiz liÄŁi
Ġtemiz lemek
Ġtel es
Ġtel afi
ĠaÄŁ da
ĠaÄŁ lÄ±yor
ĠuÄŁr at
ĠuÄŁr attÄ±
ĠbÃ¶l ge
ĠkayÄ±t larÄ±
Ġhar ic
Ġhar ici
ĠSat ma
ĠSat tÄ±ÄŁÄ±
Ġ16 00
ĠgÃ¶ster di
ĠgÃ¶ster ip
ĠgÃ¶ster ilmiyor
Ġedildi ÄŁi
Ġbank alar
Ġeder ken
Ġeder seniz
Ġverdi ÄŁini
Ġverdi ÄŁiniz
ĠÃĩalÄ±ÅŁ anÄ±n
ĠaÃ§Ä±k Ã§asÄ±
Ġotur muÅŁ
Ġotur maktayÄ±m
"" .
19 9
Ġmas k
Ġmas aya
Ġmas anÄ±n
memiÅŁ tim
larÄ±m dan
Al mÄ±ÅŁ
ĠBoz ulma
ĠyaptÄ± ysam
Ġ14 9
ĠMa ile
ĠFir mayÄ±
ĠMaÄŁdur uz
dÃ¼k ten
Ġbas Ä±yorum
Ġbas tÄ±ÄŁÄ±m
Ġbas Ä±nca
mamÄ±ÅŁ lar
Ġdoktor um
Ġdoktor un
Ġdoktor lar
Ġdoktor una
Ġdoktor umuz
ĠEr kek
ĠEr zurum
ĠÃ¼yeli ÄŁin
din g
Ġhak em
Ġhak larÄ±na
ĠÃ§alÄ±ÅŁan larÄ±nÄ±n
ĠyatÄ±r Ä±lmasÄ±nÄ±
Ãľ mraniye
Ãľ skÃ¼dar
Ġkoy an
Ġkoy ulmuÅŁ
Ġkoy muÅŁlar
Ġtop la
ĠÄ°z i
ĠÄ°z leme
lÄ±ÄŁ Ä±ndan
ĠkonuÅŁ ma
ĠkonuÅŁ up
Ãĸ de
Ġsab aha
ĠYaz ar
ĠYaz Ä±sÄ±
Ġduy uyor
Ġduy gu
ĠMark anÄ±n
ĠMah voldu
ĠMah kemeye
Ġdav etiye
Ġaray Ä±ÅŁ
Ġaray acaÄŁÄ±m
Ġbah se
Ġkul l
Ġkul p
ĠkÄ±z Ä±ma
ĠkÄ±z arÄ±k
ĠtaÅŁ Ä±na
Ġ17 00
Ġkapan ma
Ġkapan masÄ±
ĠSorun umun
ĠsÄ±kÄ±ntÄ± larÄ±n
ĠoluÅŁtur up
ĠoluÅŁtur uldu
ic le
unuz un
Ġdest eÄŁ
Ġdan Ä±ÅŁman
ĠKullan dÄ±ÄŁÄ±m
ĠKullan Ä±mda
ĠKullan Ä±lmÄ±ÅŁ
ĠAÃ§ mÄ±yor
ĠAÃ§ Ä±lÄ±yor
ĠÅŁimdi ye
ĠbaÅŁla dÄ±ÄŁÄ±m
ĠbaÅŁla mak
ĠaldÄ±ÄŁÄ±mÄ±z dan
Ġmarket te
Ġmarket lerden
Ġadres im
Ġizle dik
ĠsÃ¶zleÅŁ mem
ĠuÄŁraÅŁ tÄ±r
ĠuÄŁraÅŁ Ä±yoruz
Ġim za
Ġik iz
Ġik ili
Ġalmaya cak
ĠKur amÄ±yorum
ĠsatÄ±ÅŁ Ä±nÄ±
Ġverildi ÄŁini
ing ale
Ġkitap lar
Ġtamam lan
Ġdon an
Ġdon ma
Ġdon du
Ġdon duk
Ġ100 00
ĠBugÃ¼n e
Ġtat ile
Ġoda k
ĠSonra dan
Ġtemsilc ilerini
Ġitibar i
Ġkazan mak
Ã¶p rÃ¼
Ġpas lÄ±
Ġpas lanma
ĠpiÅŁman lÄ±k
ĠÅŁarj lÄ±
ĠEv ye
Ġettir mem
ĠOn dan
Ġteslimat Ä±nÄ±
Ġbeklet iyor
Ġbeklet iyorlar
ĠÃĸn ceki
ĠÅŁirket e
ĠÅŁirket inde
Bir eysel
ĠÃ§ocu ÄŁa
ĠfotoÄŁraf ta
Ġolduk Ã§a
Ġbilgisayar Ä±n
Ġbilgisayar Ä±mÄ±
ĠÃľst Ã¼nde
Ġkoltuk larda
dÃ¼ÄŁÃ¼m de
emedi k
ĠolmuÅŁ tur
ĠGeÃ§ ti
ĠÃľrÃ¼nÃ¼n Ã¼n
Ġotel den
ĠÄ°nsan lar
ĠÃ¶ÄŁren cileri
Ġbez lerde
Ġse da
Ġtur ist
ĠdÃ¼n yanÄ±n
ĠKes iliyor
Ġbilg iniz
ĠrahatsÄ±z Ä±m
ĠrahatsÄ±z lÄ±ÄŁÄ±
Ġsok up
ĠsoÄŁ u
ĠsoÄŁ udum
est on
Ġac ent
ĠYat Ä±rÄ±m
Ġdurumda yÄ±m
13 5
Ġtav anÄ±n
ĠSÄ±k ma
Ġettik leri
Ġdoldur mak
Ġdoldur uyorum
ĠUy gu
Ġkanal larÄ±nda
ĠkandÄ±r mayÄ±n
ĠgerÃ§ekleÅŁ medi
Ġsen s
Ġsen ede
larÄ±mÄ±z da
larÄ±mÄ±z la
ĠBur ak
ĠBur ada
ĠÅŁif rem
ĠÅŁif resi
ĠPark e
ĠdeÄŁiÅŁim ini
Ġyolla madÄ±
Ġyolla dÄ±k
Ġyolla mÄ±ÅŁlar
Ġsizin ki
ĠVeril miyor
Ġyetkil ilerine
Ġtamir e
Ġtelevizyon u
Ġtelevizyon da
alt h
Ġkas is
Ġkas adaki
Ġkam u
ĠgÃ¼zel di
ĠvirÃ¼s Ã¼
ĠhÄ±z la
ĠTe daÅŁ
Ġ23 524
Ġ40 77
Ġalak asÄ±z
ĠBiz de
Ġaran Ä±p
ĠÃ¶den mesi
ĠRes taurant
Ġkurulum unu
22 2
od year
ĠBay i
ĠBay mak
ĠTab leti
ĠTab ii
ĠDef a
Ġreklam Ä±
Ġreklam larÄ±nda
Ġ28 0
Ġanlay amÄ±yorum
ĠOy unu
ĠOy saki
Ġihtiya cÄ±
Ġmevcut tur
08 50
Ġsayf asÄ±nda
Ġsayf adan
Ay Ä±n
lo w
Ġbebek ten
Ġolay larÄ±n
Ġder im
Ġder se
Ġder ken
ĠAv cÄ±lar
ĠGÃ¼ven ilir
Ġvermiyor uz
Ġ22 8
madÄ±k larÄ±nÄ±
Ġkalk Ä±ÅŁ
Ġkalk masÄ±
ĠAlt us
ĠyakÄ±ÅŁ tÄ±r
ĠYÃ¶n etic
ĠPersonel in
Ġanla dÄ±m
Ġanla mak
Ġanla madÄ±k
ĠanlaÅŁ ma
ĠanlaÅŁ tÄ±m
ĠÃ¶nem le
ĠÃ¶nem lisi
Ġort am
ĠÃ§ocuÄŁum un
ĠÃ§ocuÄŁum uz
Ġdep oda
Ġdep odan
ĠÃ§at al
ĠÃ§at lama
ĠÃ§at lamalar
ĠDi amond
Ġanlat amam
ĠOt ob
ĠkullanÄ±yor duk
Ġmakine de
ĠsaÄŁlÄ±k lÄ±
Ġw irel
Ġvide olar
ĠSit eye
ĠSÃ¼pÃ¼r g
Ġmen dil
Ġetmeye ceÄŁiz
Ã¼mÃ¼z Ã¼
ĠÃĩek irde
Ġtaksit li
Ġtaksit leri
Ġtaksit lendirme
Ġduruyor du
Ġeski den
ĠÃ§aÄŁÄ±r dÄ±
ĠsÃ¼pÃ¼rg em
ĠsÃ¼pÃ¼rg esinin
ĠsÃ¶zleÅŁme deki
Ġkil omet
Ġpersonel iniz
ĠHav uz
ĠGecik en
ĠGecik me
Ġzam mÄ±
ĠFiyat Ä±
ĠFiyat lar
ĠgeÃ§er ken
ĠotobÃ¼s Ã¼
ĠotobÃ¼s Ã¼n
Ġhesap tan
ĠoluÅŁtu ÄŁunu
ĠÃ§ev r
ĠGerek en
ĠGÃ¶r sel
Ġayr Ä±ldÄ±m
Ġayr Ä±ntÄ±lÄ±
Ġ26 00
Ġarama da
Ġann emin
Ġuyar mamÄ±za
Ġlaptop u
Ġlaptop umu
Ġbahan esiyle
Ġaboneli ÄŁim
Ev len
Ev imize
Medi cana
SipariÅŁ im
Ġgecik meli
Ġye dim
Ġye dir
Ġyay Ä±na
Ġyay Ä±lan
ĠfÄ±r s
ĠfÄ±r sat
ĠilaÃ§ larÄ±
talar Ä±n
ĠÃ¶nc esinden
ĠtakÄ±m Ä±nÄ±
Ġhatt Ä±ndan
Ġlek eli
Ġmuh abbet
ĠdÃ¼zen lenmiÅŁ
ĠMaÄŁduriyet imizin
ĠsoÄŁuk ta
bo x
Ġkop maya
Ġkop yala
ĠYaÅŁ am
ĠYeni den
ĠCihaz Ä±m
Ġciddi ye
ĠgÃ¶nderil miyor
ĠyapÄ±lan dÄ±r
Ġsitede ki
ĠÄ±sÄ±n dÄ±
Ġkahv esi
ĠmÃ¼dÃ¼r lÃ¼ÄŁ
Ġbat arya
ess es
Ġmotor u
Ġmotor dan
Ġpis ti
Ġpuan Ä±m
ĠÅŁiÅŁ enin
Ġarab aya
Ġarab anÄ±n
Ġarab asÄ±nÄ±
ĠaraÅŁtÄ±r malar
Ġart Ä±ÅŁ
Ġart tÄ±
Ġart tÄ±r
Ġedecek tim
Ġlastik lerin
ĠMaÄŁaz aya
ĠmÃ¼ÅŁter isi
ĠmÃ¼ÅŁter ilere
Av cÄ±lar
Ġmet ni
ĠâĢ ĺ
Ġset imin
Ġgenel de
Ġgenel inde
ĠKitap larÄ±mÄ±n
ĠYol da
ĠYak Ä±n
ĠoÄŁl umun
Ġzar fÄ±nda
Ġ48 4
ĠÃ§alÄ±ÅŁma dÄ±ÄŁÄ±nÄ±
meyecek seniz
ĠAraÃ§ la
Ġhareket ler
Ġbilgiler inin
Ġbilgiler inize
Ak bank
ret er
sp ektÃ¼
erdi ven
Ġsun du
ĠgiÅŁ e
Ġalama mak
Ġders lere
ĠKim s
ĠKay bet
ĠKay boldu
Ä±lma dÄ±ÄŁÄ±nÄ±
ĠMÃ¼ cevher
Ġetme yip
Ġaram alarda
Ġisten di
Ġisten ilen
Ġisten mektedir
ĠbaÅŁlat tÄ±m
ĠOto matik
ĠOto masyon
Ġgeldik ten
Ġgeldik lerinde
Ġ02 12
Ġ02 16
ĠsuÃ§ um
ĠgÃ¼ncelle meden
gl ot
ari us
Ġkaf a
Ġkaf alarÄ±na
ĠaldÄ±ÄŁ Ä±n
Ġbirbir inin
Ġbirbir lerine
ĠTav uk
Ġman tÄ±k
Ġman evi
Ġpla za
Ġpla stiÄŁi
ĠpeÅŁ inde
Ġdama canayÄ±
ĠÃ¼tÃ¼ yÃ¼
ĠyazÄ± larÄ±
lendi ÄŁini
ĠÃ§alÄ±ÅŁtÄ±r ma
ĠRen ault
ĠÄ°ÅŁlem i
ĠÄ°ÅŁlem leri
Ġesn ada
Ġizleye miyorum
Ġbuzdolab Ä±nda
Em niyet
ĠBit meyen
ĠÃ§al Ä±yor
ĠTat lÄ±
ĠTop lam
ĠDen et
ĠDen iyor
ĠDen eme
ĠRez il
ĠGÃ¼ncel le
ĠyÄ±kama k
Ġimz al
Ġimz aladÄ±m
Ġkampanya dan
Ġmalz emesi
Kon for
Ġsur esi
ĠsÄ±z dÄ±rÄ±yor
Ġyorum lar
Ġyorum larÄ±
Ġyorum lara
Ġten ek
ĠteÅŁ his
ĠteÅŁ hir
ĠdÃ¼ÅŁt Ã¼ÄŁÃ¼
ĠdÃ¼ÅŁt Ã¼ÄŁÃ¼nÃ¼
ĠAÅŁ k
ĠAÅŁ aÄŁÄ±da
ĠPas landÄ±
Ġdiz isi
Ġister se
Ġhalinde yken
ĠÃ§Ä±kart Ä±yor
ĠÃ§Ä±kart maya
Ġtest leri
ĠyanÄ±lt maya
ĠsaÄŁlan mÄ±yor
ĠgÃ¶rÃ¼ntÃ¼ sÃ¼
ĠÃĩalÄ±ÅŁan larÄ±n
ĠyapÄ±lacak tÄ±r
ĠAÄŁ rÄ±
Ġpiyas adan
ĠÅŁart sÄ±z
Ġnot ebook
ĠÄ°k it
ĠÄ°k inci
ĠDol ayÄ±sÄ±yla
ĠDur muyor
Ġsiteniz e
ĠÃĸz dilek
ĠarkadaÅŁÄ±m la
Ġtutar Ä±n
Ġhava alan
Ġkork un
Ġkork usu
ĠtaÅŁÄ±n dÄ±m
ĠtaÅŁÄ±n dÄ±ÄŁÄ±m
Ġapart mana
ation al
Ġsar dÄ±
Ġkara c
ĠtÄ±k Ä±r
ĠtuÅŁ luyorum
Ġif tar
ĠhoÅŁ uma
ĠAc er
Ġmart ta
ĠMal zeme
ĠGarant ili
ĠGazi osman
ĠilÃ§ esindeki
ĠDon ma
ĠDÃ¼z gÃ¼n
Ġkullanmaya caÄŁÄ±m
ĠÃĩekil mesi
ĠÅŀif remi
ĠsÃ¶yledik leri
Ġevrak larÄ±
ĠkesilmiÅŁ tir
Ġkolay lÄ±k
Ġdakik asÄ±
Ġdakik ada
Ġresim leri
ĠaÅŁaÄŁÄ± ya
ĠaÅŁaÄŁÄ± daki
ĠIn tern
ĠÃ¶ÄŁrenc ilerin
ĠÃ¶ÄŁrenc isiyim
Ġdosy am
ĠmenÃ¼ de
ĠDavran Ä±yor
ĠDavran Ä±ÅŁlarÄ±
ĠBulun amadÄ±
Ġlam inat
Ġbask Ã¼l
Ġsak lama
Ġsuy un
ĠkaÄŁÄ± dÄ±
Ġtraf o
ĠalÄ±r dÄ±m
Ġalabil eceÄŁim
ĠBÄ±rak Ä±yor
ĠÃ§erÃ§ev e
Ġdin len
ĠdÃ¼ÄŁ me
ĠMas hattan
ĠayÄ±p tÄ±r
Ġverecek ti
ĠgeliÅŁ tir
ĠDer hal
ĠElim izde
Ġmadde leri
ĠÃ¶deye cek
ĠÃ¶deye ceÄŁim
Ġfirmalar dan
Ġkabl osu
Ġkabl osunu
Ġtedav iye
ĠBaÅŁv urusu
Ġism ine
Ġism inin
ĠaÄŁz Ä±ndan
ĠaÄŁz Ä±ma
ĠbÃ¶lg esinde
ÃľrÃ¼n Ã¼
ĠSalon da
Ġoyuncak lar
ĠKimse ye
son s
Ġli g
ĠbÄ±k kÄ±n
Ġbib er
Ġsav un
ĠyÄ±rt Ä±yor
ĠTut uyor
ĠTut arsÄ±z
ĠKÄ±s acasÄ±
ĠMi crosoft
ĠMil as
duÄŁ unuz
Ġvermedi ÄŁi
ĠDeniz li
Ġuc una
Ġistasyon undan
Ġtarz Ä±
ĠÃĩay kur
ĠNumar alÄ±
Ġmey ve
ĠdÄ±ÅŁarÄ± da
Ġoku dum
Ġtatil imi
Ġsahib inin
Ġsokak ta
ĠGÃ¶rÃ¼n Ã¼yor
Ara cÄ±ma
Ġsaf h
Ġkre dim
Ġtad Ä±nda
Ġtad Ä±nÄ±
Ġolabil iyor
Ġolabil eceÄŁini
Ġalmaz dÄ±m
ĠKiÅŁ ilik
ĠKiÅŁ ilerin
ĠKad Ä±n
ĠAm balaj
ĠAda pazarÄ±
Ä±lÄ±r sa
Ġfay ans
Ġpomp asÄ±
ĠÅŁef i
ĠÅŁof Ã¶rÃ¼
Ġnok ta
ĠMadde si
ĠHar eket
ĠkarÄ±ÅŁ Ä±mÄ±
ĠarayÄ±n ca
ĠFÄ±r sat
ĠbaÅŁlÄ±k lÄ±
Ġaks esuar
Ġkabar dÄ±
ĠÃĩÄ±kar Ä±yor
ĠYetersiz liÄŁi
ĠOnay lanmadÄ±
Ġkamer asÄ±
ĠFotoÄŁrafÃ§ Ä±
Ġmecbur iyet
Ek ol
Ġul trason
Ġbar iz
Ġsin ek
ilmez se
diÄŁiniz i
med ya
Ã¶rÃ¼n de
Ġvak it
Ġolmaya caÄŁÄ±
Ġolmaya caÄŁÄ±nÄ±
ĠSultan beyli
ĠBun larÄ±
Ġmut lu
ĠÅŁaÅŁ Ä±rdÄ±m
ĠMode m
Ġdayan Ä±ksÄ±z
Ġbulama dÄ±ÄŁÄ±m
Ġbulama dÄ±ÄŁÄ±mÄ±z
ĠDÃ¼ÅŁ Ã¼yor
ĠEm lak
ĠEÅŁ yalarÄ±
ĠEde miyorum
Ġkarg on
Ġoper asyon
ĠOda sÄ±
ĠAyÄ±p lÄ±
ĠÅŁubeniz den
ĠmeÅŁ gule
Ġbozul ma
Ġbozul uyor
ĠYapÄ±lan dÄ±rma
ĠKonuÅŁ ma
ĠKapat Ä±yor
ĠkatÄ±l Ä±m
ĠkatÄ±l mak
Ġkaybet tim
Ġkaybet tiler
Ġmuayen esi
Ġmikro fon
ĠHasar lÄ±
ĠYetkil ileri
ĠpiÅŁir me
Ġambalaj Ä±
ĠiÅŁletme c
ĠAbon eli
hir t
ww w
ĠÃ¼n iversit
ĠÃ¼n iversite
ĠÄ±ÅŁÄ± ÄŁ
Ã¼v ari
Ġkey if
ĠkÃ¼s Ã¼r
Ġyiye cek
ĠtÄ±r nak
Ġvur dumduymaz
Ġhad dinden
amÄ±z Ä±n
Ġmin ik
Ġmin imum
isin inde
Ġpol itikasÄ±
ĠGr undig
Ġveriyorlar dÄ±
ĠÃ¼lk emizde
ĠPol o
Ġmac unu
Ġbenz in
ĠyapÄ±lÄ±r sa
ĠkÃ¶p Ã¼r
ĠAktar ma
ĠKapan Ä±yor
ĠyoÄŁurt ta
ĠtatlÄ± larÄ±
ĠUygulama da
ĠBekle yen
ĠÃ¶zen li
Ko Ã§
Kas tamonu
Mi chelin
ht ingale
Ġku af
Ġgec en
dÄ±ra cak
Ġibar esi
Ġols aydÄ±m
ĠSer um
Ġalacak larÄ±nÄ±
Ġbirik im
ĠTR T
istan bul
Ġplak alÄ±
ĠMen Ã¼
ĠMik ro
ĠGi der
Ġetmedik leri
ĠuÄŁra dÄ±ÄŁÄ±m
ĠbaÅŁar Ä±lÄ±
ĠOk ul
Ġgib iydi
Ġsorgu lamak
Ġsorgu ladÄ±ÄŁÄ±mda
Ġcar e
Ġyararlan mak
ĠÄ°nÅŁ allah
ĠParÃ§ alandÄ±
ĠilettiÄŁim de
ĠilettiÄŁim izde
ĠyÄ±ka dÄ±m
halle bi
ĠkulÃ¼b Ã¼
ĠBeklet iliyor
ĠbÃ¶lÃ¼mÃ¼nde ki
ĠGitti Gidiyor
ĠdaÄŁÄ±tÄ±m da
Merh abalar
Es ki
Mar mara
Or han
Ver miÅŁ
Ġkup on
Ġger ilim
Ġgez in
Ġyumur ta
ĠyukarÄ± dan
Ã¶f te
Ġtaz e
ĠtÃ¼ketic inin
Ġhijyen ik
ĠSÄ±r a
ĠSah ibinden
ĠTan esi
ĠKÄ±l Ä±f
Ġfes ih
Ġdam la
ĠGÃ¶nderi ci
tive x
Ġreh in
ĠPat ladÄ±
ĠPiÅŁ ik
ĠÃ¶m rÃ¼
Ġistes em
ĠVen Ã¼s
ĠÃĩar ÅŁamba
ĠLir alÄ±k
Ġsiteler inde
ĠakÄ±t Ä±yor
Ġmesa i
Ġkims enin
Ġfiltr esi
ĠhastalÄ±k larÄ±
ĠhastasÄ± yÄ±m
Ġhavuz a
ĠaÃ§Ä±kla masÄ±nÄ±
ĠkonuÅŁtuÄŁum uzda
ĠparamÄ±z la
ĠTabak larÄ±n
ĠseÃ§ene ÄŁi
ĠAvr upa
ĠBorc um
Ġmillet e
Ġahlak Ä±na
Demir d
Fir madan
Gr undig
Ses u
Ġbal ata
Ġbeden i
Ġsep et
Ġsez on
ĠKey fi
ĠmÃ¼r acaat
ĠHam idiye
uzey den
ĠPak eti
ĠPak etim
ĠkarÄ±n c
rama j
Ġisters eniz
ĠistemiÅŁ tim
Ġkaps amÄ±
ĠiÅŁÃ§ ilik
Åŀikayet Ã§iyim
ĠLam basÄ±
Ġhaftalar ca
Ġotob Ã¼se
ĠkÃ¶ÅŁ ede
Ġmuame lesi
Ġproj e
ĠZaman Ä±nda
ĠdÃ¼ÅŁÃ¼nÃ¼yor dum
Ġaltyap Ä±
ĠBaÅŁk alarÄ±
ĠKendil iÄŁinden
Ġkatk Ä±sÄ±
Ġdepozit o
Ġinceledi ÄŁimde
ĠGÃ¶zÃ¼k Ã¼yor
Ġistemem ize
Ġkitab Ä±m
Bilet bay
omat es
ĠyumuÅŁ atÄ±cÄ±
ĠÃ¼slup la
Ġihtimal le
EÅŁim le
KÄ±r Ä±k
ux e
ĠbÃ¼r osun
Ġblu e
Ġsoya dÄ±m
ĠgÄ±cÄ±r tÄ±
Ġhiss ediyor
ĠBT K
ĠBin go
ĠTer eyaÄŁ
ĠTeÅŁ hir
ĠTanÄ± tÄ±m
ĠTic aret
Ġade ta
Ġacel em
ĠAlÄ± p
Ġmuz darip
Ġpet ek
ĠiÃ§er ik
ĠHoc am
ĠYoÄŁ urt
ĠYumur ta
ĠDak ika
ĠEle gance
ĠÃľzer inden
ĠÃ¶der ken
ĠÃĩikol at
ĠinÅŁ allah
ĠCr iystal
Ġtesad Ã¼fen
ĠAnlay Ä±ÅŁ
ĠÃ§ekirde k
Ġbitim inden
ĠEkst re
ĠbaÄŁlat tÄ±m
Ġizn im
Ġalmakta dÄ±r
ĠIsÄ±n ma
Ġsevin dim
ĠyÃ¼ksel t
Ġilgilendir miyor
Ġbankac Ä±lÄ±ÄŁÄ±
Ãľy eli
Ġihbar name
ĠMahke mesi
ĠÅŁifr eyi
ĠanlayÄ±ÅŁÄ± dÄ±r
emeyecek lerini
ĠGÃ¶tÃ¼r dÃ¼ÄŁÃ¼mde
Ġincelen mesini
Ġadapt Ã¶rÃ¼
ĠÅŁahs Ä±ma
ĠÃ¶ÄŁle den
ĠDeterj an
Ġhavaliman Ä±na
Git tiGidiyor
Makin enin
TÃ¼r kiye
Tav uk
hlo ok
kullan Ä±cÄ±
lor ence
Ġamp er
Ġbark od
ĠbÃ¶yl esine
Ġvid alarÄ±n
Ġvant ilatÃ¶r
ĠTra vel
ĠTaki bi
ĠKit abevi
ĠKem al
ĠKaÄŁÄ± thane
ĠKloz et
ĠÅŁebek e
ĠMer cedes
ĠMek an
ĠHikay esi
ĠGiÅŁ edeki
ĠgÃ¶m me
tah ya
ĠVide o
ĠFi at
ĠOra da
ĠÃĩÃ¶k me
ĠamacÄ± yla
Ġcid den
ĠcÃ¼ml eler
ĠAram alar
ĠAlak asÄ±z
ĠLo ve
ĠBilgil erimi
ĠBilgisiz liÄŁi
Ġdevrem Ã¼lk
ĠoluÅŁmuÅŁ tur
ĠTurgut reis
Ġterbiy esizlik
Ġyenile dim
ĠBayr ampaÅŁa
ĠHastalÄ±k larÄ±
Ġoynama yÄ±n
Karde ÅŁ
ĠHaftalar dÄ±r
Ġtehlik eli
ĠtaahhÃ¼dÃ¼m Ã¼n
Ġtorb asÄ±z
ĠÄ°skender un
biyo tik
Ġlezz etsiz
ĠkÄ±v am
Ġsigortal Ä±
Ġtazmin at
ĠKahv altÄ±
Ġuluslar arasÄ±
ĠmÃ¼slÃ¼m an
ĠVialan d
Ġframbu azlÄ±
Ġplatf ormda
ĠManav gat
ĠClassi c
Be in
Ban dÄ±rma
Blu ediamond
Birk aÃ§
Cerrah paÅŁa
Citro en
Don ald
Fres hlook
Garant isi
Gazi antep
Ike a
Kay seri
Lin ens
Mc Donald
Murat bey
Roy al
Somp o
Ton guÃ§
Turk Net
Term ikel
ail lant
gam ot
lorm ar
nov ia
plak alÄ±
sul sÃ¼z
sens o
ufi an
Ä±st Ä±ÄŁÄ±
anzÄ±m an
Ġsem t
ĠvasÄ± tasÄ±
ĠvÃ¼c ut
ongul dak
ĠSco oter
ĠBostan cÄ±
Ġdog algaz
Ġdri ver
ĠKomp le
ĠAki f
ĠAlaÃ§ atÄ±
ĠpoÄŁ aÃ§a
Ä°stik bal
ĠyapmalÄ± yÄ±m
ĠDerece de
ĠrÃ¼z g
ĠPav ilion
radiv arius
Ġmate matik
ĠOcta via
ĠNig htingale
ĠCoc o
Ġdiyebilir im
tÃ¼dy o
ĠÃ¼zÃ¼l dÃ¼m
ĠUmur s
ĠakÄ±b eti
Ġkimsey le
Ġkimyas al
ĠazÄ±c Ä±k
ansino h
ĠgÃ¶zÃ¼ktÃ¼ÄŁ Ã¼
Ġharic inde
ĠkÄ±zarÄ±k lÄ±k
Ġwirel ess
ĠGaziosman paÅŁa
ĠIntern ational
ĠbÄ±kkÄ±n lÄ±k
Biletbay isi
! ?
) .
1 05
1 50
1 30
3 17
3 90
4 3
4 17
4 26
4 66
4 96
5 6
5 40
5 14
5 90
6 4
6 7
7 4
7 02
7 08
7 70
8 12
9 66
9 35
9 33
A G
A L
A T
A V
A h
A p
A x
A cÄ±
A ÄŁust
A ÄŁustos
A fyon
A didas
A ÅŁk
B ar
B uz
B unun
B olu
B etf
B ebe
B od
B era
B ianchi
B lutv
B MW
B ambi
B ershka
C i
C ar
C ig
C inem
C umartesi
D K
D R
D Z
D i
D iz
D oy
D ent
D Ã¶kÃ¼m
D ecathlon
D ream
D icle
E G
E f
E mek
E lim
E ba
E ÄŁitim
E rol
E reÄŁli
F A
F en
F orum
F lo
F enerbahÃ§e
F illi
F use
F oto
F uzul
F air
F rit
F lormar
G K
G N
G al
G ir
G Ã¶nder
G Ã¼ven
G etir
G EB
G reen
G ago
G ust
G ediz
G roup
G erÃ§ekten
G DZ
H D
H p
H ar
H ir
H ay
H as
H it
H alÄ±
H astan
H Ã¼p
H aber
H epsi
H ane
I N
K an
K al
K il
K at
K Ã¼r
K am
K uÅŁ
K oz
K oc
K ia
K ron
K orona
K Ã¶tÃ¼
K anz
K oton
K Ä±lÄ±Ã§
K redim
L C
L ora
L ise
L oft
L ambi
L ufian
L ansinoh
M B
M U
M e
M u
M il
M en
M ik
M ah
M aÃ§
M ode
M otor
M od
M ate
M ado
M apfre
M olped
M anisa
M adame
M opaÅŁ
N O
N P
N T
N i
N al
N or
N ak
N ab
N uk
N ET
N ivea
O f
O l
O va
O kan
O mron
P F
P et
P ark
P ey
P ub
P aÃ§
P erm
P endik
P Ä±nar
Q NB
R S
R u
R es
R em
R ix
R ins
S M
S P
S c
S n
S u
S ar
S an
S im
S ur
S ok
S em
S ine
S ervis
S ut
S ana
S adece
S ite
S ing
S ens
S afir
S ix
S asa
S Ã¼mer
S uperb
S GB
S koda
S yos
S tÃ¼dyo
T a
T h
T or
T aÅŁ
T uk
T oy
T up
T est
T he
T uzla
T itiz
T elefunken
U y
U ra
U lus
U FO
V ar
V an
V ize
V aillant
Y ol
Y ak
Y un
Y ap
Y ine
Y edi
Y eÅŁil
Y udum
Y urdum
Y AP
Y ahu
Z eh
a i
a el
a der
a cr
b Ä±
b el
b im
b la
b ap
b as
b Ä±nÄ±
b unu
b os
b akk
b oÅŁ
b va
c l
c in
c ik
c ul
c iy
c tr
c ci
c asÄ±nÄ±
c sin
d on
d Ã¼z
d oÄŁ
d rem
d oÄŁu
d Ã¼nÃ¼z
d Ã¶ner
e mes
e dir
e ÄŁimi
e max
e alth
f f
f em
f eri
f ili
f tar
f ora
f ort
f atura
g m
g ab
g ra
g Ä±cÄ±
g esiz
g usu
g ari
g ital
g Ã¶ren
g zoz
g Ã¼zar
h o
h q
h ÅŁ
h et
h ak
h az
h ip
h af
h ro
h erm
h endi
i ma
i ya
i ch
i Ã¶ren
j ar
j ur
j it
j eksiyon
j isa
k g
k u
k ul
k Ä±r
k Ã¼z
k ep
k redi
k ron
k ilerin
k eÅŁke
k embe
k apÄ±
k Ã¶prÃ¼
l x
l Ã
l al
l Ä±m
l ip
l ayÄ±
l alar
l uyor
l iler
l ist
l usu
l uluk
l eket
l iliÄŁi
m l
m m
m de
m im
m iz
m inde
m ine
m ut
m erkez
m ali
n en
n el
n Ä±m
n as
n it
n ede
n asÄ±z
n emi
n he
n orr
o un
o du
o der
o om
o ver
o ix
o Ch
o tica
p y
p ir
p at
p on
p lÄ±
p larÄ±
p ro
p os
p us
p id
p ia
p ata
p od
p lant
p Ã¼sÃ¼
p oint
q ua
r c
r in
r or
r iÅŁ
r aya
r Ã¼t
r ite
s Ä±nÄ±
s alÄ±
s inden
s ana
s isi
s Ä±nÄ±n
s por
s ite
s emiyor
s indeki
s ultan
s hirt
t as
t Ã¼m
t ro
t inin
t eli
t meye
t eler
t asÄ±ndan
t sp
t Ã¼nÃ¼n
t ech
t ilmemesi
t uÅŁa
t gen
t Ã¶rÃ¼nde
u me
u el
u le
u ant
u cunun
v s
v iy
v ey
v eÃ§
v ad
v edi
v ada
v edik
v illa
w ers
w are
w ich
x i
x y
y s
y um
y eri
y go
y mÄ±ÅŁ
y eti
y olu
y ayÄ±m
y elim
y azÄ±
y stal
y ruk
z or
z aman
¼ Į
Â °
Ä ·
Ä ı
È Ļ
ï ¼Į
ð Ł
Ġ =
Ġ ?
Ġ ler
Ġ asÄ±l
Ġ Ã¼nde
Ġ umu
Ġ ***
Ġ lere
Ä± dan
ar l
ar lar
ar dÄ±m
ar Ä±mÄ±
ar atÄ±
ar casÄ±na
Ã¼ ya
Ã¼ bey
ÅŁ i
ÅŁ il
ÅŁ ek
ÅŁ ey
ÅŁ ubat
er o
er de
er im
er iz
er ru
er gel
er lendirme
an ay
an ta
an dÄ±k
an oz
an talya
an dÄ±ktan
an istan
Ġb v
Ġb oÄŁ
Ġb os
Ġb om
Ġb Ã¼t
Ġb alÄ±k
Ġb aba
Ġb arda
Ġb ag
Ġb adem
Ġb and
Ġb alkon
Ġb Ä±Ã§
de x
de al
de ti
de len
de ceÄŁim
de mir
in di
in da
in miÅŁ
in ke
ÄŁ Ä±n
ÄŁ la
ÄŁ ur
ÄŁ Ä±na
ÄŁ Ã¼t
ÄŁ ince
ÄŁ ba
al ak
al eri
al tÄ±r
al oÅŁ
al ova
al ife
ma tÃ¼r
ma dÄ±ÄŁÄ±mÄ±z
ma dÄ±ÄŁÄ±ndan
or g
or i
or on
or tum
or masyon
or ld
or hip
Ġs l
Ġs t
Ġs ip
Ġs ark
Ġs alÄ±
Ġs op
Ġs iler
Ġs Ã¼s
Ġs ildi
Ġs amsun
Ġs ib
Ġs eh
Ġs irk
Ġs akin
Ġs ars
Ġs uyla
Ġs top
Ġs oda
Ġs ifon
Ġk er
Ġk um
Ġk ef
Ġk alar
Ġk uyu
Ġk efal
Ġk isin
Ġk ocaman
Ġk ilidi
Ã§ esi
Ã§ alÄ±ÅŁ
Ã§ ilik
Ã§ iÃ§ek
Ã§ iyiz
il it
il ya
il us
il eme
il memiÅŁ
il meli
il mesin
Ġg iz
Ġg as
Ġg Ã¼c
Ġg lobal
Ġg izli
Ġg Ã¼mÃ¼ÅŁ
Ġg rafik
Ġg arson
Ġg araj
en ler
en ilen
en book
en ny
ir a
ir i
ir di
ir me
ir mi
ir siniz
Ġy em
Ġy iy
Ġy ama
Ġy aÄŁÄ±
Ġy iyorlar
Ġy emedi
Ġy emeye
Ġy edik
Ġy irmi
di f
di ye
Ä±n d
Ä±n cak
me de
me lik
me mekte
me likte
dÄ± yor
da m
da ma
da ha
ol l
ol ay
ol um
ol masÄ±
ol os
ol amaz
ol via
ol ium
el at
el ebek
el iydi
et en
et ler
et inde
et ti
et man
et menin
et erin
im li
im ine
im ark
im oÄŁlu
im nas
Ġt o
Ġt v
Ġt ir
Ġt ol
Ġt ay
Ġt Ã¼n
Ġt as
Ġt ik
Ġt ara
Ġt ra
Ġt ef
Ġt ere
Ġt ivibu
Ġt rans
Ġt rim
Ġt Ã¶v
Ġt ebrik
ay n
ay lÄ±
ay ev
ay nÄ±
ay amÄ±yorum
ay dÄ±nÄ±z
ay cell
ay rÄ±lma
at Ã¼r
at li
at lÄ±
at tan
at te
at sa
at if
at Ã§a
at Ä±lmÄ±ÅŁ
at epe
at Ã¶re
at kaca
at olium
Ġi t
Ġi ce
Ġi dim
Ġi gdaÅŁ
Ġi OS
Ġi vedi
ak Ä±
ak ab
ak Ã¶y
ak mak
ak larda
Ġv a
Ġv en
Ġv ol
Ġv es
Ġv iz
Ġv ana
Ġv izyon
Ġv asat
Ġh is
Ġh Ä±r
Ġh ey
Ġh op
Ġh eye
Ġh oc
Ġh id
Ġh oca
Ġh ic
Ġh edef
Ġh indi
Ġh ortum
ek eti
ek Ã§e
ek od
ek reter
ek kep
Ã¼n Ã§
um alÄ±
um uyor
um cu
um per
um ankaya
um hur
un t
un ayÄ±
un larÄ±n
on yak
on ota
on ors
es il
es me
es el
es is
es ince
Ġol a
Ġol d
Ġol urum
Ġol sam
Ġol amÄ±yor
Ġol malarÄ±
Ġol amayacaklarÄ±nÄ±
la ÄŁ
la dÄ±k
la caÄŁÄ±m
la mÄ±ÅŁlar
la dÄ±klarÄ±
ap orum
ap aÄŁan
ap olit
iz ce
iz masÄ±
iÅŁ ten
iÅŁ ne
Ġde de
Ġde men
Ġde dir
Ġde miyor
Ġde mesine
Ġde yin
Ġde meyi
Ġde co
Ġde yince
Ġde melerine
Ġde hÅŁ
ur a
ur cu
ur sa
ur up
ur luk
ur ubu
ur cuk
as ygo
ĠS D
ĠS P
ĠS Ã¶n
ĠS ini
ĠS ey
ĠS ef
ĠS ez
ĠS ub
ĠS ig
ĠS urt
ĠS enin
ĠS ide
ĠS uluk
ĠS Ä±rt
ĠS taj
ĠS pa
ĠS etin
ĠS apÄ±
ĠS koda
ĠS mil
ĠS amandÄ±ra
ĠS Ã¼vari
ĠS vad
Ġal d
Ġal n
Ġal Ä±
Ġal el
Ġal tÄ±m
Ġal masÄ±na
Ġal masÄ±nÄ±
Ġal anÄ±
Ġal mamÄ±ÅŁ
Ġal madÄ±ÄŁÄ±
Ġal dÄ±nÄ±z
Ġal acaÄŁÄ±mÄ±
Ġal erj
Ġal amayacaklarÄ±nÄ±
Ġal tern
Ġal amayacaÄŁÄ±nÄ±
Ġal erji
Ġal kol
ik an
ik ah
ik alar
ik let
ik alarca
ik sel
ik taÅŁ
ĠB i
ĠB y
ĠB ra
ĠB iy
ĠB ut
ĠB ig
ĠB aba
ĠB eden
ĠB eÄŁen
ĠB ernardo
ĠB Ã¶re
ĠB rown
ĠB ershka
ĠB lack
ĠB bva
ĠB rite
Ġbir er
Ġbir ime
Ġbir iyim
Ġbir isinin
Ġbir isiyim
Ġbir ÅŁey
Ä±k lar
Ä±k tÄ±
ĠÃ§ o
ĠÃ§ or
ĠÃ§ Ã¶
ĠÃ§ ip
ĠÃ§ oÄŁ
ĠÃ§ uv
ĠÃ§ imento
ĠÃ§ Ã¼rÃ¼k
le mesine
le miÅŁler
le ÄŁinden
Ã¼r Ã¼yor
Ã¼r Ã¼me
am i
am in
am ika
am lara
am alarÄ±
am Ä±za
am lÄ±ca
ĠT D
ĠT u
ĠT Ä±k
ĠT Ä±r
ĠT ef
ĠT ad
ĠT ro
ĠT oy
ĠT eli
ĠT Ã¼y
ĠT urk
ĠT ram
ĠT ow
ĠT Ã¼ketic
ĠT uzlu
ĠT rop
ĠT uvalet
ĠT Ã¼vtÃ¼rk
ĠT rafik
ĠT YT
ĠT enda
ĠT herm
Ġd r
Ġd ini
Ġd ona
Ġd ost
Ġd Ã¼dÃ¼k
Ġd uman
Ġd Ã¶ÅŁ
Ġd omates
ler y
ler imde
ler inizi
ler beyi
Ġa f
Ġa ir
Ġa ÄŁustos
Ġa qu
Ġa didas
Ġa cemi
ĠK W
ĠK la
ĠK Ä±ÅŁ
ĠK Ä±na
ĠK alÄ±
ĠK us
ĠK Ã¼l
ĠK oÅŁ
ĠK ia
ĠK ayan
ĠK ediler
ĠK umtel
ĠK iti
ĠK OS
ĠK ors
ĠK Ã¶fte
ĠK ilit
ĠA st
ĠA bi
ĠA ven
ĠA mi
ĠA lamÄ±yoruz
ĠA teÅŁ
ĠA SKÄ°
ĠA ilem
ĠA tiker
ĠA qua
Ä±l tÄ±
Ä±l dÄ±r
Ä±l mam
Ä±l madan
Ä±l Ä±rken
Ä±l malÄ±
Ä±l dÄ±ktan
Ġm t
Ġm ini
Ġm uy
Ġm uzlu
Ġm Ã¼kemmel
Ġm igren
Ġm erdiven
it o
it ir
it li
it tim
it lik
it ter
it siz
it asyon
it any
it ive
is er
is leri
is te
is san
is yon
is ilik
is ke
Ġf c
Ġf i
Ġf on
Ġf it
Ġf ul
Ġf Ä±s
Ġf Ä±rt
Ġf erm
Ġf iÅŁi
Ġf inc
Ġf Ä±stÄ±ÄŁÄ±
Ä±ÅŁ maya
Ġp o
Ġp in
Ġp erv
Ġp ank
Ġp astan
Ġp ing
Ġp etrol
Ġp ozit
Ġp ago
Ġp restij
Ġp iksel
ara cak
ara ge
ul f
ul ur
ul uyor
ul lu
ul masÄ±na
ul madan
ul masÄ±nÄ±
ul malar
ul ipa
iyor muÅŁ
Ä±z lÄ±
Ä±z anÄ±n
ok ul
ok sit
ĠÅŁ ap
ĠÅŁ as
ĠÅŁ ekli
ĠÅŁ ort
ĠÅŁ arkÄ±
ĠÅŁ anzÄ±man
Ä±r a
Ä±r sa
Ä±r sam
Ä±r sÄ±n
Ä±r sÄ±nÄ±z
Ä±r kÃ¶y
20 01
20 21
20 54
aÄŁ Ä±m
aÄŁ Ä±mÄ±
aÄŁ Ä±ma
aÄŁ Ä±mÄ±zÄ±
Ã¶n tgen
az er
az ik
az aÄŁa
Ä° M
Ġn Ä±
Ġn or
Ġn Ä±n
Ġn eti
Ġn amaz
Ġn eyi
Ġn etic
Ġn emden
Ġn esil
Ġn azik
Ġyap mas
Ġyap Ä±mÄ±
Ġyap Ä±nÄ±z
Ġyap sa
Ġyap masÄ±na
Ġyap maz
Ġyap sam
Ġyap makta
Ġyap amaz
Ġyap arÄ±m
Ġyap Ä±ya
Ġyap acaÄŁÄ±mÄ±
Ġyap acaÄŁÄ±
Ġyap manÄ±z
Ġyap amazsÄ±nÄ±z
Ġyap amÄ±yorsunuz
Ġyap amayacaÄŁ
ip tal
ip erm
ip pon
ce an
ce den
ye cek
ye ÅŁil
Ġ1 11
Ġ1 15
ĠM A
ĠM B
ĠM S
ĠM c
ĠM e
ĠM Ä±
ĠM an
ĠM ay
ĠM ini
ĠM ama
ĠM ez
ĠM ac
ĠM ev
ĠM Ã¼c
ĠM ua
ĠM ed
ĠM all
ĠM amada
ĠM olped
ĠM amma
ĠM Ä±sÄ±r
st af
du la
Ġe y
Ġe ÄŁ
Ġe di
Ġe miÅŁ
Ġe diniz
Ġe ÄŁit
Ġe mail
Ġe ÄŁlence
Ġe gzoz
ĠiÃ§ mek
ĠiÃ§ ece
ĠiÃ§ iyoruz
ĠiÃ§ eceÄŁi
ĠH k
ĠH el
ĠH Ä±r
ĠH ab
ĠH Ä±zÄ±
ĠH epsi
ĠH ijyen
ĠH adi
ĠH ukuki
ĠH edef
ĠH ealth
ĠH etman
ĠH iperm
Ġda y
Ġda mar
Ġda yak
ĠY or
ĠY ay
ĠY ara
ĠY edi
ĠY olu
ĠY ola
ĠY DS
ĠY udum
ĠY Ä±ldÄ±z
ĠY avr
ĠY oga
ĠY urdu
ĠY amaha
ĠY alova
aÅŁ ehir
ĠG C
ĠG O
ĠG ay
ĠG Ã¼r
ĠG ec
ĠG ece
ĠG ri
ĠG ala
ĠG Ã¼le
ĠG enÃ§
ĠG Ä±cÄ±r
ĠG aliba
ĠG rand
ĠG AP
ĠG ediz
ĠG arson
ĠG ramaj
ĠG SM
ĠG Ã¼ya
ĠG arage
ĠÄ° leri
ĠÄ° stik
ĠÄ° SKÄ°
ĠÄ° ftar
ĠÄ° vedik
Ġay a
Ġay lar
Ġay larÄ±n
em en
em co
ti on
ti ye
ti med
li o
li ye
li ÄŁinde
li ÄŁinden
li ÄŁine
li ÄŁiyle
Ġbu tikten
Ġver i
Ġver eme
Ġver mesini
Ġver mesine
Ġver meden
Ġver medim
Ġver ince
Ġver emiyor
Ġver elim
Ġver eceÄŁiz
Ġver ici
Ġver ebilir
Ġver memiz
Ġver meyeceÄŁim
Ġver meyin
Ġver seler
Ġver emeyeceÄŁini
Ġver mediniz
Ġgel erek
Ġgel se
Ġgel iyorlar
Ġgel emiyor
Ġgel eceÄŁiz
Ġgel mektedir
Ġgel meyince
Ġgel mesinin
eri y
eri di
eri um
den in
Ġil a
Ġil inde
Ġil anÄ±
Ġil indeki
ab asÄ±
ab Ä±zda
ĠD el
ĠD iz
ĠD is
ĠD ra
ĠD Ã¼k
ĠD edi
ĠD os
ĠD ede
ĠD iyorlar
ĠD igit
ĠD Ã¶k
ĠD ia
ĠD ert
ĠD Ã¼zel
ĠD ij
ĠD ost
ĠD omino
ĠD edik
ĠD Ã¼rÃ¼st
ĠD ijitsu
ĠD urumda
ĠD ekon
ĠD atÃ§a
lan da
lan mÄ±yor
lan masÄ±
lan mayan
lan mamasÄ±
ĠgÃ¼n dÃ¼z
ĠE A
ĠE K
ĠE f
ĠE ce
ĠE ki
ĠE mek
ĠE ba
ĠE cz
ĠE ÄŁlence
ĠE DC
ĠE MU
ĠE drem
ĠE asygo
Ġr i
Ġr un
Ġr ut
Ġr us
Ġr isk
Ġr aporum
Ġr iske
Ġr Ã¶ntgen
ark asa
ĠP S
ĠP s
ĠP u
ĠP ah
ĠP sik
ĠP amp
ĠP aten
ĠP eki
ĠP ala
ĠP aylaÅŁ
ĠP iyas
ĠP ril
ĠP ansiyon
ĠP anÃ§o
ĠP apara
ĠP izz
ĠP restige
ĠP oint
ĠP restij
ĠP eÅŁin
ĠP aycell
Ġkar Ä±nca
Ġkar Ä±ÅŁÄ±k
Ġoldu ysa
dil ife
Ġbil i
Ġbil en
Ġbil im
Ġbil erek
Ġbil meden
Ġbil mez
Ġbil gisiz
Ġbil miyorlar
Ġbil emedim
Ġbil dikleri
Ġbil iyordum
Ġbil diÄŁin
Ġbil eklik
iy an
iy ere
Ġ2 10
Ġ2 12
Ġet i
Ġet mes
Ġet sin
Ġet meyi
Ġet memi
ey di
ey ip
ey der
ey erek
ey dik
ey ikli
ih inde
ih aber
ih irli
Ġson da
ĠgÃ¶ k
ĠgÃ¶ st
Ġdi zel
Ġdi gital
ta Ã§
Ġma t
Ġma den
Ġma vi
Ġu f
Ġu v
Ġu la
Ġu sta
laÅŁ Ä±yor
laÅŁ tÄ±
Ġara masÄ±nÄ±
Ġara dÄ±ÄŁÄ±nÄ±
Ġar Ä±
Ġar at
Ġar alar
Ġar aman
Ġar om
Ġar arÄ±m
Ġar alarda
Ġar alÄ±ÄŁÄ±
Ä±s Ä±ndaki
mes inde
mes iydi
mes gut
ah s
ah lÄ±
ah met
ca ma
ĠÃ¼rÃ¼n Ã¼nde
Ã¼m de
Ã¼m rÃ¼t
ĠÃľ r
ĠÃľ s
ĠÃľ z
ĠsipariÅŁ e
ĠsipariÅŁ ime
ĠsipariÅŁ lerde
ĠsipariÅŁ lerimi
ĠsipariÅŁ imizin
ĠsipariÅŁ imizde
eÃ§ e
eÃ§ iÃ¶ren
Ġan ca
Ġan ormal
Ġan lÄ±yorum
Ġan akart
lÄ± han
lÄ± can
ĠÃ¶ l
ĠÃ¶ te
ĠÃ¶ ve
Ġne gat
tal up
Ġist ek
Ġist emeye
Ġist emi
Ã¼k lÃ¼m
der n
der ek
der us
der mine
Ġo caÄŁÄ±
Ġo danÄ±n
ama mak
ama tik
ama dÄ±lar
ĠV iz
ĠV ez
ĠV ac
ĠV ant
ĠV Ã¼cu
ĠV allahi
ĠV adi
ĠV DSL
Ġtar Ä±m
Ġtar if
Ġhal Ä±nÄ±n
Ġz il
Ġz eytin
Ġz ayÄ±f
Ġz iya
Ġz iyan
Ġz ahmet
ĠF ay
ĠF un
ĠF ac
ĠF os
ĠF ot
ĠF ant
ĠF inish
ĠF uzul
ĠF eder
ĠF lorence
ĠF HD
ad yo
ad olum
ĠolduÄŁ un
ĠolduÄŁ unuz
Ġtarih e
Ġtarih lerde
Ġtarih lerinde
Ġyok um
Ġyok sun
ĠÃ¶n den
ĠÃ¶n Ã¼ne
ĠÃ¶n Ã¼me
miÅŁ siniz
ĠbaÅŁ tan
ĠbaÅŁ larda
ĠbaÅŁ rol
ĠbaÅŁ layan
ĠbaÅŁ lÄ±ÄŁÄ±n
mak taydÄ±
ĠO top
ĠO ÄŁl
ĠO etk
ĠO SGB
Ġgi deri
dÄ±r dÄ±
dÄ±r arak
dÄ±r masÄ±
dÄ±r Ä±ldÄ±m
Ġ3 4
Ġ3 29
Ġ3 86
Ġ3 33
Ġkullan Ä±l
Ġkullan dÄ±ÄŁÄ±
Ġkullan Ä±yorsunuz
Ġkullan makta
Ġkullan amaz
Ġkullan amÄ±yor
Ġkullan amÄ±yoruz
Ġkullan dÄ±ktan
Ġkullan mayÄ±n
Ġkullan acaÄŁÄ±mÄ±
Ġkullan mÄ±ÅŁtÄ±m
Ġkullan Ä±larak
Ġkullan Ä±lmadÄ±
Ġkullan mÄ±yoruz
ĠÃĩ orum
ĠÃĩ oÄŁu
ĠÃĩ erÃ§ev
ĠÃĩ ankaya
ĠÃĩ imento
ĠÃĩ erez
ĠÃĩ oluk
ĠÃĩ etaÅŁ
ĠÃĩ akmak
ĠÃĩ amlÄ±ca
edi p
edi ÄŁim
edi yenin
ayÄ± cÄ±sÄ±
uÅŁ um
uÅŁ madÄ±
uÅŁ muÅŁ
uÅŁ muyor
miyor muÅŁ
alar Ä±mla
ĠgeÃ§ in
ĠgeÃ§ mesi
ĠgeÃ§ mem
ĠgeÃ§ ecek
ĠgeÃ§ mesini
ĠgeÃ§ meden
ĠgeÃ§ mez
ĠgeÃ§ iyorlar
ĠgeÃ§ iyorsunuz
ĠgeÃ§ miÅŁti
mÄ±yor dum
mÄ±yor sunuz
tan a
tan Ä±
ĠsÃ¼r en
ĠsÃ¼r medi
ĠsÃ¼r esinde
ĠsÃ¼r eniz
ĠsÃ¼r enin
ĠsÃ¼r eyi
ĠsÃ¼r eleri
ĠsÃ¼r Ã¼cÃ¼
ĠsÃ¼r eyle
ĠsÃ¼r memeli
ĠsÃ¼r priz
ĠsÃ¼r atli
ĠsÃ¼r esince
ĠÃ§Ä±k tÄ±k
ĠÃ§Ä±k aran
ĠÃ§Ä±k tÄ±ÄŁÄ±m
ĠÃ§Ä±k amÄ±yorum
ĠÃ§Ä±k masÄ±na
ĠÃ§Ä±k maz
ĠÃ§Ä±k makta
ĠÃ§Ä±k Ä±ÅŁÄ±
ĠÃ§Ä±k mamÄ±ÅŁ
ĠÃ§Ä±k mamasÄ±
ĠÃ§Ä±k tÄ±ÄŁÄ±
ĠÃ§Ä±k madÄ±k
ĠÃ§Ä±k mayÄ±n
Ġdah ili
sun dan
sun daki
Ġin Ã§
Ġin ce
Ġin anÄ±n
Ġsor mak
Ġsor mamÄ±za
Ġsor gul
Ġsor gusu
ep a
ep ozit
ep ita
ez han
ĠhiÃ§ e
ĠhiÃ§ bi
diler ini
ĠN g
ĠN ere
ĠN iye
ĠN eye
ĠN iÅŁan
ĠN itro
ĠN aut
ĠN emli
ĠN okian
ĠN iÃ§in
ĠN apolit
ĠN ippon
ec k
Ġkal d
Ġkal Ã§
Ġkal dÄ±ÄŁÄ±
Ġkal dÄ±ktan
Ġkal madÄ±ÄŁÄ±m
Ġkal abalÄ±k
eb a
eb ra
eb iliyor
ĠC y
ĠC or
ĠC ad
ĠC ez
ĠC eb
ĠC om
ĠC amÄ±
ĠC iv
ĠC inema
ĠC eket
ĠC ha
ĠC ebil
ĠC ard
ĠC ivil
ĠC ity
ĠC lup
ĠC errah
ĠC ore
ĠC osmeti
ĠC isim
ĠC osmetica
ĠC hro
ĠC oun
ĠC lio
ĠKar Ä±ÅŁÄ±k
ĠKar ekod
ĠaÃ§ Ä±yor
ĠaÃ§ acaÄŁ
ĠaÃ§ Ä±yoruz
ĠaÃ§ acaÄŁÄ±m
ĠaÃ§ mayÄ±
ĠaÃ§ tÄ±klarÄ±
ĠaÃ§ Ä±lacaÄŁÄ±
Ġpar lat
Ġpar asÄ±na
Ġpar alara
Ġpar amparÃ§a
af ran
ub a
ub org
Ġkad ro
Ġtarihinde ki
ac Ä±k
ac to
ac Ä±lÄ±ÄŁ
ac ity
Ġkap lÄ±
Ġkap ut
Ġkap tÄ±r
Ġkap Ä±ma
Ġkap Ä±mÄ±zÄ±n
Ġkap Ä±sÄ±na
ĠÃ§ok tan
Ġkargo y
Ġkadar Ä±nÄ±
se ven
ut tum
ut ucu
ut landÄ±r
ut kÃ¶y
Ġ4 2
Ġ4 20
Ġ4 19
Ġ4 40
Ġ4 66
ĠiÅŁ l
ĠiÅŁ lerine
ĠiÅŁ inizi
ĠiÅŁ veren
ĠiÅŁ kence
Ġiade ler
Ġiade li
ĠaldÄ±ÄŁÄ±m Ä±
ĠaldÄ±ÄŁÄ±m Ä±zÄ±
ĠaldÄ±ÄŁÄ±m Ä±za
ĠgÃ¶r Ã¼yorum
ĠgÃ¶r Ã¼le
ĠgÃ¶r med
ĠgÃ¶r mekten
ĠgÃ¶r Ã¼lÃ¼yor
ĠgÃ¶r sÃ¼n
Ġ5 1
Ġ5 12
Ġ5 30
Ġ5 73
Ġ5 88
ĠBu lamama
Ġc i
Ġc l
Ġc ol
Ġc ip
Ġc ih
Ġc ola
Ġc eket
Ġc ard
Ġc isim
Ġc Ä±ktÄ±
Ġc abasÄ±
tir di
tir diler
Ġyaz Ä±n
Ġyaz dÄ±k
Ġyaz Ä±cÄ±
Ġyaz Ä±yorsunuz
Ġyaz acaÄŁÄ±m
Ġyaz dÄ±ÄŁÄ±nÄ±z
Ġyaz Ä±sÄ±ndan
Ġdiye ceÄŁim
te ÄŁi
te medim
te ÅŁe
ana cak
ĠÃľrÃ¼n de
ĠÃľrÃ¼n le
ĠÃľrÃ¼n lerim
len iyorum
len mesi
len miÅŁti
Ġel ine
Ġel ini
Ġel leri
Ġel iniz
Ġel lerim
Ġel inize
Ġel bet
Ġel imden
Ġel diven
tÄ±r dÄ±
tÄ±r mÄ±yor
tÄ±r dÄ±k
Ġmark alarÄ±
Ġmark asÄ±ndan
Ġmark asÄ±z
Ġmark asÄ±nÄ±n
Ġmark aydÄ±
Ġmark anÄ±za
ĠulaÅŁ an
ĠulaÅŁ Ä±n
ĠulaÅŁ mam
ĠulaÅŁ madan
ĠulaÅŁ mamÄ±ÅŁ
ĠulaÅŁ madÄ±ÄŁÄ±
ĠulaÅŁ tÄ±ÄŁÄ±
ĠulaÅŁ Ä±lama
ĠulaÅŁ mamÄ±ÅŁtÄ±r
ĠulaÅŁ tÄ±ÄŁÄ±nda
iniz le
dÄ±k Ã§a
gil izce
Ġhizmet l
Ġhizmet le
Ġhizmet ten
Ġhizmet lerindeki
Ġsaat leri
Ġsaat inin
Ġsaat lerimi
Ġsaat inizde
ĠSor u
Åŀ ok
Åŀ anlÄ±urfa
Åŀ enol
Åŀ ahs
Ġiptal inin
maya caÄŁÄ±
ĠgÃ¶nder e
ĠgÃ¶nder mesi
ĠgÃ¶nder ilir
ĠgÃ¶nder diniz
ĠgÃ¶nder eyim
ĠgÃ¶nder iyorsunuz
ĠgÃ¶nder elim
ĠgÃ¶nder eceÄŁiz
ĠgÃ¶nder memi
ĠgÃ¶nder menizi
ĠgÃ¶nder meyecekseniz
ĠÃ§alÄ±ÅŁ tÄ±k
ĠÃ§alÄ±ÅŁ anÄ±n
ĠÃ§alÄ±ÅŁ maz
ĠÃ§alÄ±ÅŁ mÄ±ÅŁtÄ±r
imi me
201 1
ĠÃ¶de m
ĠÃ¶de t
ĠÃ¶de di
ĠÃ¶de medi
ĠÃ¶de diler
ĠÃ¶de meye
ĠÃ¶de yen
ĠÃ¶de yin
ĠÃ¶de miÅŁtim
Ġfir malarÄ±
Ġfir manÄ±z
Ġtes ti
Ġtes ter
Ġtes lima
Ġtes ise
os la
os lar
os uz
os sa
os iklet
Ġyan Ä±k
Ġyan Ä±na
Ġyan masÄ±
Ġyan dÄ±ÄŁÄ±nÄ±
Ġyan Ä±mda
Ġyan Ä±lmÄ±ÅŁ
Ġyan larÄ±nda
Ġyan Ä±lmasÄ±
Ġyan gÄ±n
Ġyan Ä±ÄŁÄ±
ĠyapÄ±l dÄ±ÄŁÄ±
ĠyapÄ±l masÄ±na
ĠyapÄ±l Ä±nca
ĠyapÄ±l makta
ĠyapÄ±l mamÄ±ÅŁtÄ±r
ig bi
ig asyon
ig Ã¼zel
Ġservis inde
Ġservis inden
Ġservis iyle
Ġservis lerine
Ġservis inize
Ġservis teki
Ġgit gi
Ġgit medik
Ġgit meyi
Ġgit sem
Ġgit mediÄŁini
tr y
Ġbek ler
Ġtelefon daki
Ġtelefon larÄ±na
Ġtelefon umda
Ġtelefon unuzu
gi da
gi bi
tÄ±k larÄ±nÄ±
diÄŁim i
ĠdÃ¶n medi
ĠdÃ¶n mek
ĠdÃ¶n eme
ĠdÃ¶n ers
ĠdÃ¶n dÃ¼ÄŁÃ¼m
ĠdÃ¶n eceÄŁiz
ĠdÃ¶n erken
av igasyon
ĠÅŀ aÅŁ
ĠÅŀ art
ĠÅŀ Ã¼p
ĠÅŀ amp
ĠÅŀ eh
ĠÅŀ alg
ĠÅŀ ehir
ĠÅŀ ampuan
ĠÅŁey di
ĠÅŁey miÅŁ
Ġdol um
Ġdol ce
Ġdol masÄ±
Ġdol masÄ±na
Ġdol acak
Ġdol gu
Ġdol unca
Ġdol duÄŁu
Ġedil iyorum
Ġedil mez
Ġedil irken
Ġedil ebil
Ġedil emeyeceÄŁi
Ġkon s
Ġkon um
Ġkon du
Ġkon tÃ¶r
Ġkon teyner
Ġkon ulmamÄ±ÅŁ
Ġolma dÄ±m
Ġolma dÄ±ÄŁÄ±mÄ±z
Ġolma makla
Ġolma yÄ±nca
tÃ¼ yor
tÃ¼ el
ĠsÃ¶yle medi
ĠsÃ¶yle mektedir
ĠmÃ¼ÅŁteri yim
Ġek let
Ġek leye
Ġek lenmiÅŁ
Ġek lenen
Ġek leyemiyorum
Ġek lediÄŁim
Ġtek taÅŁ
Ġtek nesi
Ġnumar asÄ±ndan
Ġnumar asÄ±nÄ±n
Ġnumar alarÄ±na
san larÄ±
om uz
om inin
om uzda
us ya
ĠyÄ±l lar
ĠyÄ±l Ä±ndan
ĠyÄ±l baÅŁÄ±
ĠAr if
ĠAr ayan
ĠAr zum
ĠAr by
ĠAr matÃ¼r
Ġsat Ä±yor
Ġsat tÄ±
Ġsat Ä±ldÄ±
Ġyer di
Ġyer le
Ġyer leÅŁ
Ġyer lerin
Ġyer deki
Ġyer lerinden
Ġyer indeki
Ġyer imizde
Ġyer leÅŁtir
eme d
eme yip
eme diniz
Ä±p ark
ĠdeÄŁiÅŁ miÅŁ
ĠdeÄŁiÅŁ miyor
art Ä±lÄ±
art est
art emis
Ġtak an
Ġtak Ä±n
Ġtak si
Ġtak madan
Ġtak tiÄŁi
Ġtak tÄ±rmak
Ġtak site
oz or
ĠAl p
ĠAl mÄ±ÅŁ
ĠAl masÄ±
ĠAl Ä±mÄ±
ĠAl dÄ±ÄŁÄ±
ĠAl dÄ±lar
ĠAl mÄ±yorlar
ĠAl fa
ĠAl dat
ĠAl kol
ĠAl dÄ±ÄŁÄ±ma
ĠAl mila
Ġzaman Ä±m
Ġzaman ki
Ġzaman Ä±mÄ±
man y
Ġbul du
Ġbul up
Ġbul maz
ĠAn i
ĠAn ti
ĠAn gel
ĠAn nem
ĠAn tares
ĠAn atolium
ede ÄŁi
lu ÄŁ
Ġden iz
Ġden mez
Ġden emek
tik leri
tik lerini
Ġon larÄ±
Ġon ayÄ±m
Ġev ler
Ġev inde
Ġev ye
Ġev leri
Ġev imizde
Ġev imdeki
Ġev lenecek
uy o
uy olu
ĠYap ma
ĠYap mÄ±ÅŁ
ĠYap Ä±p
ĠYap tÄ±ÄŁÄ±m
ĠYap Ä±yorlar
ĠYap maz
ĠYap madÄ±lar
ĠYap tÄ±ktan
ĠYap amama
Ġgir er
Ġgir miÅŁ
Ġgir diÄŁim
Ġgir mesi
Ġgir meden
Ġgir iyoruz
Ġgir emeye
Ġgir dikten
Ġgir emedim
ot ch
ĠL im
ĠL ine
ĠL ora
ĠL akayÄ±t
ĠL CW
ĠL NB
ĠL uxe
ĠL acr
mem izi
Ġolan Ä±n
Ġolan Ä±nÄ±
ĠBir ini
ĠBir Ã§ok
ĠdeÄŁil ler
ĠdeÄŁil ken
oy u
oy ol
ĠVe ya
op y
op en
op car
ecek ler
ecek ti
ĠR ize
ĠR ent
ĠR owenta
ĠR ota
ĠR amazan
ĠR adyo
ĠR usya
Ġgerek e
Ġgerek se
Ġgerek irse
yon u
Ġhat larÄ±
Ġhat alar
Ġhat asÄ±nÄ±
Ġhat larÄ±nÄ±
Ġhat asÄ±z
Ġhat ayla
let iyor
Ġ10 4
Ġ10 6
Ġ10 53
Ġfatur ama
Ġfatur aya
Ġfatur alarÄ±nÄ±
Ġor anda
ĠAy aÅŁ
ĠAy na
ĠAy kÄ±rÄ±
ĠAy azaÄŁa
Ġveril me
Ġveril eceÄŁi
ers eniz
Ġyar Ä±
Ġyar at
Ġyar Ä±ÅŁ
Ġyar Ä±ÅŁÄ±
Ġyar Ä±ya
Ġyar Ä±sÄ±nÄ±
ĠÅŁub eleri
Ġbiz le
Ġbiz lere
ĠGel ecek
ĠGel meden
ĠGel miyorlar
ĠGel emedi
ĠGel memesi
ĠÃ¼cret inden
ĠÃ¼cret lendirme
Ġsit enin
Ġsit esinin
Ġsit elerden
Ġsorun lar
Ġsorun unuz
Ġsorun larla
Ġsorun umuzu
ĠU san
ĠU ÄŁr
ĠU sta
ĠU sulsÃ¼z
ĠU NO
ĠU ÄŁur
Ġak la
Ġak Ä±p
Ġak tarÄ±
Ġak tara
Ġak abinde
Ġak tÃ¼el
ank Ä±rÄ±
Ġen d
Ġbel ediye
Ġbel lek
lam i
lam alara
Ã¼t sÃ¼z
lama mak
lama yan
lama dÄ±nÄ±z
lama yÄ±n
ĠSipariÅŁ te
Ġbak mak
Ġbak madÄ±
Ġbak tÄ±k
Ġbak Ä±ma
Ġbak tÄ±ÄŁÄ±mÄ±zda
Ġbak Ä±lÄ±rsa
ĠÅŁikayet in
ĠÅŁikayet ler
ĠÅŁikayet ini
ĠÅŁikayet ten
ĠÅŁikayet iyle
ĠÅŁikayet Ã§iyiz
Ġkes iyor
Ġkes esi
Ġkes miyor
Ġkes imi
Ġkes ilmesi
Ġkes ilmiyor
Ġediyor sanÄ±z
ĠyaÅŁ ay
ĠyaÅŁ larÄ±nda
ĠyaÅŁ amÄ±yor
ĠyaÅŁ amaya
Ġat Ä±n
Ġat tÄ±r
Ġat maya
Ġat Ä±yorsunuz
Ġat abilir
Ġat Ä±lan
Ġat alÄ±m
Ġat mayÄ±n
Ġat Ä±lÄ±yor
Ġat tÄ±klarÄ±
Ġat latÄ±yor
Ġl isan
Ġtaraf Ä±n
Ġtaraf ta
Ġtaraf lÄ±
Ġtaraf Ä±mÄ±z
Ġtaraf Ä±mdan
Ġtaraf taki
Ġtaraf Ä±nÄ±za
Ġtaraf Ä±nÄ±zdan
Ġyol unu
Ġyol unda
Ġyol lara
Ġyol landÄ±
Ġyol layÄ±p
Ġot urum
Ġot oyol
Ġbulun a
Ġbulun un
Ġbulun du
Ġbulun masÄ±
Ġbulun dur
Ġbulun muÅŁ
Ġbulun masÄ±na
Ġbulun uldu
Ġbulun maktaydÄ±
ĠÄ°ade ye
ĠÄ°ade yi
ran sit
acaÄŁ Ä±na
ĠkÃ¶ k
ĠkÃ¶ ÅŁe
ĠkÃ¶ mÃ¼r
Ġdurum lar
Ġdurum una
Ġdurum umu
Ġdurum uyla
ime x
Ġ6 10
Ġ6 02
Ġ6 000
Ġ6 90
Ġ6 34
Ġmarka dÄ±r
ci de
ci ÄŁer
cu larÄ±n
Ġ0 55
may Ä±ÅŁÄ±
Ġdef o
Ġdef ormasyon
sÄ±z lar
ĠBil mem
ĠBil gisay
Ġneden ini
Ġneden lerden
ĠÃĸ d
ĠÃĸ yle
Ġkur mak
Ġkur ut
Ġkur dum
Ġkur tu
Ġkur up
Ġkur duk
Ġkur ula
Ġkur su
Ġkur utma
Ġkur allarÄ±
Ġdiyor uz
eÅŁ li
eÅŁ tir
eÅŁ ehir
muÅŁ sunuz
meye ceÄŁi
Ġuy gul
Ġyak a
Ġyak madÄ±m
Ġyak tÄ±lar
Ġyak ala
Ġdev ret
Ġdev irde
Ġmu hallebi
Ġtal ima
ĠdÃ¼ÅŁ en
ĠdÃ¼ÅŁ meye
ĠdÃ¼ÅŁ Ã¼p
erk and
Ġyet eri
Ġyet medi
Ġyet miyormuÅŁ
yen et
abil iyorum
abil dik
abil itasyon
ĠÃ§Ã¶z dÃ¼
ĠkÄ±r k
ĠkÄ±r dÄ±
ĠkÄ±r dÄ±lar
ĠkÄ±r Ä±lma
eler imi
eler inin
Ġfark Ä±nÄ±n
iyat Ä±
iyat rol
mam la
mam Ä±zÄ±
ĠÃ§ek me
ĠÃ§ek miyor
ĠÃ§ek iyorum
ĠÃ§ek mesine
ĠÃ§ek iyorlar
ĠÃ§ek iyoruz
ĠÃ§ek tiÄŁimiz
ĠiÃ§inde yim
Ġzor da
Ġ7 7
Ġ7 8
ĠkÄ±s Ä±k
05 36
ĠGÃ¼n eÅŁ
nun a
Ġark asÄ±
Ġtem ini
Ġtem inin
ĠkÃ¶tÃ¼ leÅŁ
ĠkÃ¶tÃ¼ sÃ¼ne
Ä±mÄ±z dan
ĠÄ°l la
Ġmak ul
Ġmak arna
Ġmak amlara
Ġmes afe
ĠalmÄ±ÅŁ Ä±m
ĠalmÄ±ÅŁ lar
Ġiste ÄŁi
Ġiste diniz
Ġiste medik
Ġiste yecek
Ġbit mek
Ġbit ene
Ġbit sin
Ġbit miÅŁtir
Ġbit eceÄŁini
ĠVer ip
ĠVer gi
ĠVer miyorlar
ĠVer iliyor
ĠVer dikleri
ĠVer nel
anÄ±n ca
10 4
10 11
10 23
10 906
leÅŁ miÅŁ
bul ans
ĠkarÅŁ Ä±l
ĠkarÅŁ Ä±mda
ĠkarÅŁ Ä±lan
ĠkarÅŁ Ä±sÄ±ndaki
ĠsaÄŁ ma
ĠsaÄŁ lar
ĠsaÄŁ landÄ±
ĠsaÄŁ lamÄ±yor
ĠsaÄŁ layan
ĠÄ°n anÄ±lmaz
ĠÄ°n gilizce
ob e
ob ert
ob ell
ob ook
Ġ20 7
Ġ20 05
ĠPar is
ĠPar ti
ĠPar ib
ĠPar alarÄ±
ĠgÃ¶z Ã¼
ĠgÃ¶z den
ĠgÃ¶z Ã¼nde
Ġinternet te
Ġyat tÄ±
Ġyat acak
Ġyat makta
Ġyat aÄŁÄ±nda
ĠparÃ§ alarÄ±nÄ±
ĠparÃ§ alÄ±yor
ĠparÃ§ alanmÄ±ÅŁ
erkez kÃ¶y
Ġcevap larÄ±
cel en
arÄ± ca
Ġkan dÄ±m
Ġkan unu
Ġkan lÄ±
Ġkan Ä±t
Ġkan ser
Ġpro fil
Ġpro spektÃ¼
ĠarÄ±z anÄ±n
ĠarÄ±z alan
ĠarÄ±z asÄ±nÄ±
alan Ä±yorum
Ġinsan lardan
han ede
ĠsÃ¶y les
ĠkiÅŁ ilere
Ġad alet
Ġad Ä±nÄ±za
siz in
Ã¶r den
Ã¶r leri
Ã¶r pÃ¼sÃ¼
ĠBen z
amÄ± yo
iv an
iv obook
ĠaldÄ±k larÄ±nÄ±
eÄŁ er
ĠEk im
Ġkab in
Ġkab us
if ik
if te
if oÄŁlu
Ġbekle miyor
Ġbekle meye
Ġbekle meden
Ġbekle mez
Ġbekle diÄŁimiz
Ġbekle mekte
Ġbekle mektedir
Ġbekle yeceÄŁim
Ã¼l mesini
Ġbay isi
Ġbay attÄ±
Ġbay inizden
ĠÃ¼y elerine
Ġmesaj a
Ġmesaj Ä±n
Ġmesaj da
Ġmesaj Ä±nÄ±
ĠZ ula
ĠZ onguldak
ĠZ enbook
erÃ§ i
Ġmi dem
Ġ8 3
Ġ8 4
Ġ8 00
Ġ8 104
Ġkay Ä±ÅŁ
Ġkay mak
Ġkay det
Ġkay dÄ±nÄ±z
Ġ15 9
ĠÃ¼st leri
ĠÃ¼st Ã¼me
ĠÃ¼st Ã¼nÃ¼
acak sÄ±n
lay amÄ±yorum
lay amadÄ±m
lay Ä±nca
Ã¼y erek
ĠyÃ¼z e
ĠyÃ¼z le
ĠyÃ¼z lÃ¼
ĠyÃ¼z Ã¼ne
ĠyÃ¼z Ã¼ÄŁÃ¼m
Ġte a
Ġte crÃ¼b
ĠServis le
ĠServis inin
ĠServis teki
ĠverdiÄŁim i
Ġilet tik
Ġilet eceÄŁim
Ġilet ilmedi
Ġilet memize
Ġilet iÅŁimi
Ġmail ime
Ġkol inin
Ġkol iyi
Ġtan esinde
ĠalÄ±n mÄ±yor
ĠalÄ±n dÄ±ÄŁÄ±nÄ±
ĠalÄ±n madÄ±m
ĠalÄ±n amadÄ±
ĠalÄ±n mÄ±ÅŁtÄ±r
Ä±la madÄ±
Ä±la bil
ĠbaÄŁ Ä±m
Ġbelir tir
Ġbelir tiÄŁim
Ġbelir leye
Ġbelir gin
Ġiz leri
Ġiz let
Ġiz mir
Ġiz lenmiyor
Ġiz ni
ĠHal i
ĠHal inde
ĠHal iyle
iyet te
ĠiÅŁlem de
ĠiÅŁlem inin
ĠiÅŁlem inizi
ĠmaÄŁaz ayÄ±
ĠmaÄŁaz asÄ±nda
ĠmaÄŁaz alarÄ±na
ĠmaÄŁaz acÄ±lÄ±k
ĠmaÄŁaz anÄ±zda
eye bil
Ġfiyat Ä±n
Ġfiyat larÄ±
Ġfiyat lara
Ġtalep te
ĠyardÄ±m Ä±
cil ik
lat ma
lat Ä±p
Ġme ki
Ġme zun
Ġme bla
Ġme gab
Ġbilet im
Ġbilet imizi
Ġbilet lerimi
ĠSÃ¼r e
ĠSÃ¼r meli
ĠSÃ¼r priz
ĠSÃ¼r ahi
alÄ±k avak
Ġkim liÄŁi
Ġkim liÄŁin
Ġboz du
Ġboz ulan
Ġboz ula
Ġdak ikaya
ĠÃ¶deme me
ĠÃ¶deme li
ĠÃ¶deme dim
ĠÃ¶deme miÅŁ
Ġas Ä±k
ĠsÄ±k maya
ĠsÄ±k Ä±ÅŁtÄ±r
ĠsÄ±k lÄ±kla
ĠsÄ±k laÅŁtÄ±
ĠÅŁu dur
ĠbaÅŁvur madan
ĠbaÅŁvur duÄŁum
ĠbaÅŁvur unuz
ĠbaÅŁvur duk
Ġsan ayi
Ġsal Ä±ncak
Ġbilgi de
ĠÃ§Ä±ktÄ± lar
Ġla ub
ĠYan gÄ±n
Ġkredi sini
ĠbugÃ¼n de
Ġoy unu
Ġoy unun
Ġoy na
Ġoy saki
Ġoy alanÄ±yorum
Ġcihaz la
Ġcihaz larda
ĠdeÄŁiÅŁtir iyor
ĠdeÄŁiÅŁtir erek
ĠdeÄŁiÅŁtir dik
ĠdeÄŁiÅŁtir miyorlar
ĠdeÄŁiÅŁtir ilmiÅŁ
ĠdeÄŁiÅŁtir eyim
ĠdeÄŁiÅŁtir ilmesi
ĠdeÄŁiÅŁtir elim
ĠdeÄŁiÅŁtir ebilirsiniz
ve dilik
Ġko dum
ĠÃĩÄ±k ma
ĠÃĩÄ±k madÄ±
ĠarkadaÅŁ Ä±ma
ĠarkadaÅŁ Ä±mÄ±zÄ±
ĠarkadaÅŁ larÄ±ma
ĠsÃ¶z el
ĠsÃ¶z lerden
ĠsÃ¶z lerle
Ġarac Ä±mda
Ġarac Ä±mÄ±zÄ±
ĠÃ¼rÃ¼nler inden
ĠÃ¼rÃ¼nler imi
ĠÃ¼rÃ¼nler inin
ĠÃ¼rÃ¼nler imin
ĠmaÄŁdur uz
Ar iel
Ar maÄŁan
Ar ifoÄŁlu
Ġuz an
Ġuz adÄ±
Ġfazla dÄ±r
Ġfazla sÄ±
Ġbenim k
Ġbenim ki
Ġbekl iyorlar
ib o
ib ur
ĠTes ad
ĠTes limi
ĠTes isleri
ĠTelefon lar
ĠTelefon larÄ±
ĠTelefon umdan
ĠAt v
ĠAt ma
ĠOl madÄ±
ĠOl madan
ĠOl duk
ĠOl umlu
tar ihinde
Ġsay Ä±lmÄ±ÅŁ
ĠalÄ±ÅŁveriÅŁ i
ĠalÄ±ÅŁveriÅŁ ler
ĠalÄ±ÅŁveriÅŁ te
Ġdur ma
Ġdur up
ĠHastan e
ĠHastan ede
ĠHastan enin
Ġdefa dÄ±r
Ġmemnun duk
ĠKal ma
ĠKal mÄ±ÅŁ
ĠmÄ± yÄ±z
Ġmerkez de
Ġmerkez lerine
Ġmerkez indeki
Ġistedi ÄŁi
ĠdÃ¼ÅŁÃ¼n Ã¼n
ĠdÃ¼ÅŁÃ¼n medim
ĠdÃ¼ÅŁÃ¼n cesi
ĠdÃ¼ÅŁÃ¼n Ã¼rken
ĠdÃ¼ÅŁÃ¼n memiÅŁtim
ĠgÃ¼ven dim
ĠgÃ¼ven liÄŁi
ĠgÃ¼ven eceÄŁiz
ĠgÃ¼ven iyordum
ĠyaptÄ±r dÄ±
ĠyaptÄ±r Ä±p
ĠyaptÄ±r abil
ĠyaptÄ±r Ä±rken
ĠyaptÄ±r dÄ±ktan
ĠYok tu
ĠTek eri
ĠTek zen
ĠTek irdaÄŁ
Ġres et
Ġres epsiyon
ĠgÃ¶tÃ¼r Ã¼yor
ĠgÃ¶tÃ¼r Ã¼yorum
ĠgÃ¶tÃ¼r mÃ¼ÅŁ
ĠgÃ¶tÃ¼r Ã¼nce
Ġfirma dÄ±r
id or
Ġgetir dim
Ġgetir miÅŁ
Ġgetir ene
Ġgetir ildi
Ġgetir eceÄŁiz
Ġgetir dikleri
Ġgetir meleri
Ġhakk Ä±mÄ±z
Ġhakk Ä±mda
ĠSaat inde
ĠSaat te
ĠaÃ§Ä±l masÄ±
ĠaÃ§Ä±l dÄ±ÄŁÄ±
ĠaÃ§Ä±l madan
ĠaÃ§Ä±l masÄ±nÄ±
ĠaÃ§Ä±l mÄ±ÅŁtÄ±r
ĠaÃ§Ä±l mayacak
ĠaÃ§Ä±l dÄ±ÄŁÄ±nda
ĠaÃ§Ä±l mamÄ±ÅŁtÄ±r
sil tme
Ġses im
Ġses lerini
Ġoluyor sunuz
Ġoluyor muÅŁ
ĠEl ite
ĠEl lerinde
Ġbelirt miÅŁ
Ġbelirt iyorlar
Ġetmek le
Ġpaket im
Ġpaket le
Ġpaket inden
Ġpaket iyle
Ġpaket lendi
Ġpaket teki
ĠgÃ¶rÃ¼n en
ĠgÃ¶rÃ¼n mektedir
ĠgÃ¶rÃ¼n mediÄŁini
ĠgÃ¶rÃ¼n Ã¼mlÃ¼
ĠgÃ¶rÃ¼n tÃ¼nÃ¼n
Ġlir aydÄ±
Ġdakika dÄ±r
12 68
ĠMaÄŁ aza
Ġkapat mÄ±ÅŁ
Ġkapat Ä±yorum
Ġkapat Ä±rken
Ġkapat acaÄŁÄ±m
Ġkapat mÄ±ÅŁlar
Ġkapat mÄ±ÅŁtÄ±m
ĠW C
ĠW at
ĠW ee
ĠW aik
ĠW orld
ĠolmadÄ± k
ĠGÃ¶nder in
ĠGÃ¶nder mesi
ĠGÃ¶nder memesi
ĠGÃ¶nder ilmiyor
ĠGÃ¶nder ilmemesi
Ġ9 4
Ġ9 7
Ġ9 000
Ġ9 99
mez miÅŁ
mez sem
Ġolur lar
Ġolur sunuz
ĠÃ¼rÃ¼nÃ¼n Ã¼n
ĠsÃ¼re den
ĠsaÃ§ malÄ±
Ġhep sinde
Ġhep simi
Ġalt tan
Ġkart on
Ġkalit ede
Ġkalit eye
Ġkalit esine
Ġkalit esini
02 2
maz sÄ±nÄ±z
*** âĢĻ
âĢ ĺ
Ġsistem in
Ġsistem leri
ĠyÃ¶n etici
ĠyÃ¶n ergel
Ġiyi dir
ĠÄ°ÅŁ imiz
ĠÄ°ÅŁ Ã§ilik
ĠÃľcret imi
ĠÃľcret lendirme
suz luk
ĠI P
ĠI MA
ĠI sÄ±t
ĠI ME
Ġbor u
Ġbor usun
olu x
ĠDeÄŁ irmen
Ġkesin tiler
Ġhesab Ä±mÄ±
Ġhesab Ä±nÄ±za
Ġhas talar
Ġhas tam
ĠEn za
ĠEn erj
ĠEn para
ĠEn tegre
Ġkendi sine
Ã¼c Ã¼k
Ã¼c Ã¼sÃ¼
ĠbÄ±rak mÄ±ÅŁ
ĠbÄ±rak arak
ĠbÄ±rak tÄ±ÄŁÄ±m
ĠbÄ±rak madan
ĠbÄ±rak tÄ±nÄ±z
ĠAra dÄ±m
ĠAra ca
Ġ12 5
ĠEt me
ĠEt mek
ĠEt tiler
ĠEt memesi
ĠEt tiÄŁi
ĠYapÄ±l mamÄ±ÅŁ
An da
An neler
An kastre
An ky
irk et
ĠBaÅŁ lÄ±k
ĠBaÅŁ aran
ĠBaÅŁ lat
ĠBaÅŁ Ä±b
ĠHer cul
Ġkonu larda
Ġsev iyor
Ġsev iye
Ġtut arak
Ġtut tu
Ġtut up
Ġtut tuk
Ġtut arÄ±nda
Ġtut uldum
ĠKon teyner
ster dam
ĠHizmet inden
ĠbaÅŁladÄ± lar
Ġer iÅŁim
Ġer ror
ĠAk Ä±t
ĠAk bank
ĠAk asya
ĠAk hisar
ĠAk saray
ĠAk abinde
ĠPro dÃ¼k
ĠPro vizyon
ĠPro tex
usu f
ĠyÃ¼k len
ĠyÃ¼k lÃ¼
ĠyÃ¼k lÃ¼yor
ĠyÃ¼k ledik
ĠyÃ¼k Ã¼mlÃ¼
Ġhav adan
Ġhav uÃ§
Ġhav alandÄ±r
Ġhav lusu
por a
Ġbildir i
Ġbildir di
Ġbildir diler
Ġbildir dik
Ġbildir meme
Ġbildir ilmiÅŁ
Ġbildir memize
abilir di
bar s
Ġbur Ã§
Ġbur un
Ġbur ger
ĠEdil dim
ĠEdil dik
ĠEdil emiyor
ĠuÃ§ aÄŁÄ±
Ġ201 5
ande m
ĠkÄ±rÄ±k lar
ren in
Ãĩ alÄ±ÅŁ
Ãĩ ocuk
Ãĩ ocu
Ãĩ amaÅŁÄ±r
Ãĩ eyiz
Ãĩ ift
Ġis ek
Ġis eniz
ĠÃ¶ÄŁr etmenin
Ġgider in
Ġgider iz
Ġgider se
Ġgider ken
Ġgider ecek
Ġgider emedi
Ġgider ilmedi
Ġgider ilmezse
Ġindir ip
Ġelektrik sel
ĠaraÃ§ larÄ±nÄ±
ĠaraÃ§ taki
ĠOp timed
ĠkarÅŁÄ± dan
ĠkarÅŁÄ± tÄ±
ĠbaÄŁlan Ä±yorum
ĠbaÄŁlan madÄ±
ĠbaÄŁlan Ä±p
ĠbaÄŁlan amadÄ±m
ĠbaÄŁlan Ä±nca
ĠbaÄŁlan mayÄ±
30 96
ite d
ch er
ch ael
ch oll
to wn
to wers
Ġok ula
Ġok umuyor
Ġkor uy
Ġkor umalÄ±
Ġab artÄ±lÄ±
ĠKap sam
ĠKap ora
ĠKÄ±r mÄ±zÄ±
ĠHat ay
ĠHat asÄ±nÄ±
ĠÃ¶zel liÄŁini
Ġ30 8
ĠÃ§Ä±kar dÄ±ÄŁÄ±m
ĠÃ§Ä±kar dÄ±k
ĠÃ§Ä±kar sa
ĠÃ§Ä±kar tÄ±p
Ġilgilen medi
Ġilgilen eceÄŁiz
Ġilgilen eceklerini
Ġilgilen menizi
Ġilgilen irseniz
Ġuygu lamalara
ĠgÃ¶zÃ¼k en
ĠgÃ¶zÃ¼k mek
ĠgÃ¶zÃ¼k mesine
Ġproblem in
Ġproblem ler
Ġproblem leri
ĠdÃ¼zel temedim
dÃ¼ lÃ¼
alg a
alg at
Ġhastan elik
Ġhastan esinden
Ġhastan enin
ĠBel ek
Ġfilm ini
Ġfilm leri
ida y
ĠkÃ¼ lah
ĠkaÃ§ tÄ±lar
ĠkaÃ§ Ä±rmaya
ĠkaÃ§ Ä±ncÄ±
ĠBank ayla
ĠiÃ§eris ine
Ġrez idan
ĠÅŀub esinde
ĠÅŀub eleri
Ġkurul du
Ġtel leri
ĠaÄŁ Ä±z
ĠuÄŁr ay
ĠuÄŁr amÄ±ÅŁ
Ġekran Ä±nÄ±
Ġekran Ä±na
Ġzorunda yÄ±m
Ġzorunda sÄ±nÄ±z
Ġmodel lerinde
eg on
eg go
ĠbÃ¶l meli
Ġter Ã¶rÃ¼
ĠSat Ä±lan
ĠSat Ä±lmasÄ±
ĠSat tÄ±klarÄ±
ĠSat tÄ±ÄŁÄ±nÄ±z
Ġ16 7
Ġ16 8
ĠgÃ¶ster en
ĠgÃ¶ster dim
ĠgÃ¶ster miyor
ĠgÃ¶ster dik
ĠgÃ¶ster meye
ĠgÃ¶ster ildi
ĠgÃ¶ster ilen
ĠgÃ¶ster meme
ĠyanlÄ±ÅŁ Ä±
Ġedildi ÄŁinde
Ġedildi ÄŁine
ĠgiriÅŁ i
Ġgerekiyor du
ĠkiÅŁi de
ĠÄ±s lÄ±k
ĠÄ±s lanÄ±yor
Ġbank asÄ±
Ġbank alarda
Ġbank omat
Ġbank anÄ±zÄ±n
Ġeder ler
Ġeder siniz
ĠHaz n
ĠHukuk suz
ĠÃĩalÄ±ÅŁ Ä±yor
ĠÃĩalÄ±ÅŁ tÄ±ÄŁÄ±m
ĠÃĩalÄ±ÅŁ mama
ĠÃĩalÄ±ÅŁ Ä±rken
ĠsÃ¼rec iyle
ĠaÃ§Ä±k lar
ĠaÃ§Ä±k lamasÄ±
Ġotur masÄ±
Ġotur uyor
Ġotur up
Ġotur duÄŁum
Ġotur ulmuyor
Ġyetkili ye
19 6
19 96
malar Ä±na
Ġmas ada
ĠUlaÅŁ Ä±m
ĠUlaÅŁ amÄ±yoruz
ĠUlaÅŁ Ä±lmasÄ±
ĠUlaÅŁ Ä±lmÄ±yor
ĠUlaÅŁ Ä±lamayan
Al o
Al fem
Al pata
Al gida
ĠBoz du
ĠBoz ulan
Ġveya hut
Ġ11 00
Ġ11 70
Ġ14 0
Ġ14 1
Ġ14 4
Ġ14 5
Ġ14 00
ĠMa g
ĠMa den
ĠMa ximum
ĠFir masÄ±nÄ±n
ĠMaÄŁdur u
ĠMaÄŁdur uyum
24 2
24 04
24 68
bur nu
Ġbin a
Ġbin ip
Ġbin aya
Ġbin anÄ±n
Ġbin lerce
Ġbin diÄŁimizde
Ġbas a
Ġbas tÄ±m
Ġbas amÄ±yorum
Ġbas tÄ±ÄŁÄ±mda
mamÄ±ÅŁ tÄ±m
ĠyÄ±k amÄ±yor
ĠyÄ±k amaya
Ġdoktor dan
Ġdoktor unu
ĠKen dilerini
Ġsorunu ma
Ġeksik siz
ne do
ne derek
ĠsÄ±r t
ĠsÄ±r aya
Ġkok muÅŁ
Ġacil e
Ä±lmÄ±ÅŁ tÄ±
ĠEr ol
ĠEr tan
ĠEr dem
Ġ24 5
ĠÃ¼yeli ÄŁiniz
ĠKalit esini
ĠyoÄŁ urdum
Ġhak lÄ±
Ġhak larÄ±
Ġhak larÄ±nÄ±
Ġhak larÄ±m
Ġhak larÄ±mÄ±n
ĠSigorta dan
ĠHak siz
ĠHak aret
ĠHak sÄ±zlÄ±k
ĠHak mar
Ġ21 50
ĠÃ§alÄ±ÅŁan Ä±nÄ±z
ĠÃ§alÄ±ÅŁan larÄ±n
Ġonay la
Ġonay sÄ±z
Ġonay ladÄ±
Ġonay landÄ±ÄŁÄ±
ĠyatÄ±r dÄ±ÄŁÄ±m
ĠyatÄ±r mak
ĠyatÄ±r mÄ±yor
ĠyatÄ±r dÄ±k
ĠyatÄ±r mama
ĠyatÄ±r dÄ±lar
ĠboÅŁ u
ĠboÅŁ tu
ĠboÅŁ altÄ±r
Ġkir al
Ġkir ik
Ġkir alan
Ġkat al
Ġkat Ä±nÄ±
Ġkat Ä±ndaki
Ġkat Ä±lmÄ±yor
Ġkat Ä±ldÄ±m
Ġkoy ar
Ġkoy un
Ġkoy dum
Ġkoy arken
Ġtop al
ĠÄ°z in
ĠÄ°z le
ĠÄ°z nik
lÄ±ÄŁ Ä±nÄ±
lÄ±ÄŁ Ä±mÄ±zla
**** **
ĠkonuÅŁ uyorlar
ĠsÃ¶yledi ÄŁi
ĠkÄ±sm Ä±ndan
ĠkÄ±sm Ä±nÄ±n
ram dan
Ãĸ ÄŁr
Ãĸ SY
Ġsab un
Ġsab Ä±r
ĠÃ§ekil iÅŁ
ĠÃ§ekil sin
ĠYaz Ä±lÄ±
ĠYaz arkasa
Ġveriyor sun
Ġveriyor sunuz
Ġgitti ÄŁini
Ġgitti ÄŁinde
Ġkod larÄ±
Ġduy duÄŁum
Ġduy uyorum
ĠmÃ¼ esses
ĠMark alÄ±
ĠMark antalya
ĠMah ir
ĠMah mut
Ġdav asÄ±
Ġaray Ä±nÄ±z
Ġaray ayÄ±m
Ġaray alÄ±m
ĠÄ°nternet e
ĠsonuÃ§ lar
ĠsonuÃ§ larÄ±
ĠsonuÃ§ larÄ±mÄ±n
ĠsonuÃ§ landÄ±r
Ġbah is
Ġbah Ã§e
Ġkul la
ĠkÄ±z art
ĠkÄ±z Ä±mla
Ġyen isiyle
ĠTem in
ĠTem ini
ĠyapÄ±la bilir
ĠyapÄ±la bileceÄŁini
ĠyapÄ±la mayacaÄŁÄ±
Ġkapan Ä±r
Ġkapan mÄ±ÅŁ
Ġkapan maya
Ġkapan dÄ±ÄŁÄ±
ĠSorun salÄ±
ĠÃĸde dim
ĠÃĸde miyor
ĠÃĸde mesi
ĠÃĸde mesini
ĠÃĸde miyorlar
ĠÃĸde diÄŁimiz
ĠÃĸde mediler
ĠÃĸde meyi
ĠÃĸde memi
ĠsÄ±kÄ±ntÄ± yÄ±
ĠsÄ±kÄ±ntÄ± larÄ±mdan
ĠoluÅŁtur amÄ±yorum
ĠoluÅŁtur uyorum
ĠoluÅŁtur mamÄ±za
ic o
ic ana
ic ili
Ġdan Ä±ÅŁ
Ġdan Ä±ÅŁma
ĠKullan maya
ĠKullan amadÄ±m
ĠKullan Ä±ÅŁlÄ±
ĠKullan Ä±lmayan
ĠAÃ§ an
ĠAÃ§ Ä±l
ĠAÃ§ tÄ±ÄŁÄ±mda
ĠAÃ§ Ä±lmamasÄ±
ĠGaranti den
ĠGaranti yi
ĠvermiÅŁ ler
ĠvermiÅŁ lerdi
ĠaldÄ±ÄŁÄ±mÄ±z Ä±n
Ġmarket in
Ġadres lerinden
Ġizle dim
Ġizle meye
ĠsÃ¶zleÅŁ mesi
ĠsÃ¶zleÅŁ meyi
ĠuÄŁraÅŁ ma
ĠuÄŁraÅŁ madÄ±m
Ġim iÅŁ
Ġim kanÄ±
Ġim plant
ĠsÄ±fÄ±r lanmÄ±ÅŁ
Ġik na
Ġik isininde
Ġolacak tÄ±r
Ġalmaya caÄŁÄ±z
ĠKur ula
ĠKur utma
ĠKur allarÄ±
ĠArÄ±z ayÄ±
ĠArÄ±z asÄ±na
ĠsatÄ±ÅŁ taydÄ±
ing ton
Ġkitap larÄ±
Ġkitap larÄ±m
Ġyemek leri
Ġyemek te
Ġtamam Ä±
Ġtamam lanmadÄ±
Ġtamam layÄ±cÄ±
Ġ100 6
ĠDoÄŁ a
ĠDoÄŁ al
ĠgÃ¼ncel lendi
ÄŁimiz de
ÄŁimiz in
ĠBugÃ¼n de
ĠBugÃ¼n lerde
ĠkarÅŁÄ±laÅŁ Ä±yoruz
ĠkarÅŁÄ±laÅŁ madÄ±k
ĠkarÅŁÄ±laÅŁ tÄ±ÄŁÄ±mÄ±z
Ġdair ede
Ġoda s
Ġoda ya
ĠbaÅŁvuru da
ĠdÃ¼zelt ip
ĠdÃ¼zelt meye
ĠdÃ¼zelt ilsin
Ġsah il
Ġsah te
Ġkazan lÄ±
Ġkazan dÄ±r
Ġpas lan
Ġpas lanmÄ±ÅŁ
Ġpas pas
ĠÅŁarj da
ĠyapmÄ±ÅŁ sÄ±nÄ±z
ĠEv i
ĠEv leri
Ġettir in
Ġettir diÄŁim
Ġettir dik
ĠOn arÄ±m
ĠOn larca
Ġkapsam Ä±ndaki
Ġbeklet mek
Ġbeklet iliyor
Ġbeklet ildim
ĠÃĸn c
ĠÃĸn soy
ĠÃĸn celikle
ĠÃĸn celeri
ĠuÃ§uÅŁ lar
ĠuÃ§uÅŁ umu
Ġabon eyim
ĠÅŁirket in
ĠÅŁirket ini
Bir arab
Bir evim
ĠBak Ä±rkÃ¶y
ĠÃ§ocu ÄŁuma
ĠfotoÄŁraf Ä±
ĠfotoÄŁraf larda
Ġ13 3
Ġ13 9
Ġ13 00
Ġolduk tan
Ġbilgisayar dan
Ġbilgisayar Ä±mÄ±n
Ġbilgisayar lardan
Ġcam dan
Ġcam lÄ±
Ġfirmas i
Ġfirmas Ä±nÄ±z
Ġkoltuk ta
Ġtercih im
ĠolmuÅŁ ken
ĠolmuÅŁ tu
Ġolmuyor lar
Ġform unda
Ġform una
ĠHalÄ± larÄ±
ĠHalÄ± yÄ±
ĠGeÃ§ miÅŁ
ĠGeÃ§ ersiz
Ġ25 6
ĠÅŀikayet im
ĠÅŀikayet ler
ĠÅŀikayet imi
ĠÅŀikayet var
Ġotel de
ĠÄ°nsan larla
ĠÃ¶ÄŁren cilere
23 6
ĠÃ¶yle de
Ġbez e
Ġbez den
Ġbez ini
Ġse an
Ġse ansÄ±
ĠyayÄ±n Ä±m
ĠyayÄ±n lar
ĠyayÄ±n lay
ĠyayÄ±n lanÄ±yor
ĠyayÄ±n lamÄ±yorlar
Ġtur bo
Ġhan e
Ġhan i
Ġhan eli
Ġhan Ä±mÄ±n
ĠSay gÄ±
ĠdÃ¼n y
ĠKes me
ĠKes ti
ĠKes imi
ĠKes ilen
ĠKes ilme
ĠHem ÅŁir
Ġbilg iyi
Ġbitti ÄŁinde
ĠrahatsÄ±z landÄ±m
Ġtah ta
Ġtah min
Ġtah riÅŁ
ĠolmasÄ± ydÄ±
ĠÃ§ar esi
Ġac ente
ĠMu h
ĠMu do
ĠYat Ä±ÅŁ
ĠYat Ä±r
ĠdeÄŁiÅŁik liÄŁim
Ġdurumda yÄ±z
Ġbozuk tu
Ġbozuk luÄŁu
ĠDeÄŁiÅŁ miyor
13 1
13 4
17 9
At las
ĠJ ant
ĠJ atomi
ĠJ umper
Ġtav siy
Ġtav uÄŁu
apor tum
ĠSal cano
ĠSpor t
Ġmal Ä±n
Ġmal iyet
Ġpat ron
Ġpat lamasÄ±
Ġpat layacak
Ġpat lÄ±can
Ġyapmak la
ĠÄ°st es
ĠÄ°st iyorum
ĠÄ°st asyon
ĠÄ°st iyorlar
ĠÄ°st emiyorum
ĠÄ°st inye
ĠÄ°st enen
ĠÄ°st erseniz
Ġren de
Ġettik ten
medik leri
Ġdoldur mam
ĠUy du
ĠUy urken
ĠkandÄ±r Ä±yor
ĠkandÄ±r Ä±ldÄ±k
ĠkandÄ±r maca
ĠkandÄ±r abiliyorlar
Ġborc unuz
Ġindirim den
16 50
ger me
og an
resi f
Ġbun larda
Ġbun larla
Ġbun lardan
Ġsen et
Ġsen elerdir
Ġsen kron
Ġkurum un
Ġkurum uÅŁ
Ġkurum una
larÄ±mÄ±z dan
Ġalmam Ä±
ĠBur adaki
ĠÅŁif renin
Ġyolla madÄ±lar
ĠVeril iÅŁ
ĠVeril mesi
ĠVeril meden
Ġyetkil ilere
Ġtamir i
Ġtelevizyon un
Ġtelevizyon dan
bu dur
ri al
ri athlon
rat Ä±p
Ġkas ma
Ġkas Ä±yor
Ġkas asÄ±nda
Ġkas iyere
Ġkam il
ĠvirÃ¼s lÃ¼
ĠSaÄŁ lam
Ä°n dirim
Ä°n novia
Ä°n dex
Ä°n sanlarÄ±
Ġ23 5
ĠdÃ¶nem in
Ġbede lim
Ġsigort ayÄ±
Ġsigort asÄ±nÄ±
ĠyaÄŁ dÄ±ÄŁÄ±nda
Ġalak a
ĠKan yon
Ġmik seri
Ġaran arak
ĠÃ¶den en
ĠÃ¶den ecek
ĠÃ¶den mesini
ĠÃ¶den eÄŁ
ĠÃ¶den memiÅŁ
ĠÃ¶den diÄŁi
ĠRes imde
ĠakÅŁam da
ĠakÅŁam dan
ĠdoÄŁru dan
ĠdoÄŁru lama
Ġkurulum um
fi e
od onta
ĠBay inin
ĠBay iye
ĠbulaÅŁÄ±k larÄ±
ĠbulaÅŁÄ±k larÄ±n
ĠbulaÅŁÄ±k larÄ±mÄ±
ĠDef orme
Ġreklam da
ĠFil tresi
ĠdeÄŁer indeki
ĠOy n
ĠgÃ¶rÃ¼ÅŁt Ã¼k
ĠÃ§alÄ±ÅŁmÄ±yor du
Ġsebeb ini
Ġmevcut ta
Ġmevcut tu
per a
per ware
erb all
erb ox
ĠAs malÄ±
ĠAs istan
ĠMakin em
ĠMakin esinin
ĠÅŀimdi den
ĠAldÄ±ÄŁÄ±m dan
ĠsÃ¶ylÃ¼yor sunuz
Ġoyun larda
Ġsayf a
Ġsayf asÄ±
Ġsabah Ä±
Ay lÄ±k
Ay nÄ±
Ay dÄ±n
Ay ÅŁe
Ay temiz
TÃ¼rk sit
lo ader
ĠseÃ§ tim
ĠseÃ§ imi
Ġkom ÅŁ
Ġolay dÄ±k
Ġder bi
Ġder si
ĠAv m
ĠAv ans
ĠAv ÅŁar
ĠMerkez inde
ĠGÃ¼ven de
ĠGÃ¼ven im
Ġgelecek lerini
Ġ22 72
madÄ±k larÄ±
Ġkalk Ä±ÅŁlÄ±
ĠgÃ¶rÃ¼ÅŁ Ã¼n
ĠgÃ¶rÃ¼ÅŁ erek
ĠgÃ¶rÃ¼ÅŁ mem
ĠAlt Ä±nÄ±
ĠyakÄ±ÅŁ mayacak
Ġsebep ler
Ġsebep lerden
Ġrezervasyon u
Ġrezervasyon un
ĠbÃ¶lÃ¼m Ã¼nden
ĠbÃ¶lÃ¼m Ã¼nÃ¼
Ġdikkat imi
25 6
SÃ¼r ekli
Ġsil mek
Ġsil iyorlar
ĠGir mesi
ĠGir iÅŁim
ĠGir ememe
ĠGir esun
ĠPersonel ler
ĠanlaÅŁ mÄ±ÅŁ
ĠanlaÅŁ mamÄ±z
ĠanlaÅŁ tÄ±ÄŁÄ±mÄ±z
ĠÃ¶nem semiyor
ĠKart Ä±n
ĠKart uÅŁ
ĠkapalÄ± ydÄ±
ĠkapalÄ± yken
Ġort amda
ĠyaÅŁa dÄ±ÄŁÄ±mÄ±z
Ġ08 88
ĠÃ§Ã¶zÃ¼l medi
ĠÃ§Ã¶zÃ¼l mesi
ĠÃ§Ã¶zÃ¼l dÃ¼
ĠÃ§Ã¶zÃ¼l mÃ¼ÅŁ
ĠÃ§Ã¶zÃ¼l mezse
Ġkaynak lanan
Ġkaynak landÄ±ÄŁÄ±nÄ±
14 5
Ġdep oya
Ġdep osun
Ġdep olarÄ±nda
Ġnumara ma
ĠHas tal
Ġkargol anacak
ĠOr ta
ĠOr asÄ±
ĠOr aya
ĠOr han
ĠOr tak
ĠOt urum
ĠOt eli
Ġgidiyor lar
Ġgidiyor uz
Ġincel eyim
Ġincel emeye
Ġincel emesi
Ġolmaz sa
Ġmakine den
Ä±lÄ±ÄŁ Ä±mÄ±
ĠMemnun iyeti
mÃ¼ÅŁ ler
Ġw in
Ġw at
Ġw ww
Ġgere ÄŁince
Ġvide oya
Ġvide omuzda
ĠSit eniz
ĠSit enin
ĠSit edeki
ĠSit elerinde
ĠSÃ¼pÃ¼r gesi
Ġail eme
Ġail ece
Ġail emi
Ġail eyiz
Ġail emin
ĠKol on
ĠKol tu
ĠKol eston
Ġmen teÅŁ
Ġmen Ã¼yÃ¼
ĠÅŁeklinde ki
ĠÅŁeklinde dir
ĠYÄ±k andÄ±ktan
ĠYayÄ±n larÄ±
ĠYayÄ±n ev
ĠYayÄ±n cÄ±lÄ±k
ĠGetir miyorlar
Ġgelir di
Ġ29 0
ĠÃ¼rÃ¼nleri me
Ã¼mÃ¼z deki
ĠÃĩek ti
ĠÃĩek miyor
ĠÃĩek emiyorum
Ġedilmedi ÄŁi
Ġtaksit i
Ġtaksit imi
ĠhatasÄ± dÄ±r
ĠBozuk luÄŁu
VakÄ±f bank
sem re
ÄŁl isi
Ġpersonel ler
Ġpersonel ine
Ġpersonel leri
Ġpersonel inize
ĠHav ale
ĠHav alim
ĠHav apark
ĠYÄ±l lardÄ±r
ĠYÃ¼k leyemiyorum
ĠÃ¶z g
ĠFiyat Ä±na
ĠFiyat larÄ±
ĠFiyat landÄ±rma
ĠkaldÄ±r dÄ±m
ĠkaldÄ±r dÄ±k
ĠkaldÄ±r Ä±p
ĠkaldÄ±r Ä±ldÄ±
ĠkaldÄ±r dÄ±lar
ĠkaldÄ±r Ä±lmasÄ±
Ġprog rama
Ġhesap la
Ġoyn ay
Ġoyn uyor
Ġoyn amadÄ±m
Ġoyn ayan
Ġoyn uyorsunuz
Ġoyn anÄ±lmaz
Ġoyn atmÄ±yor
gan ize
erm ark
Ġsi cil
ĠtÃ¼k en
ĠtÃ¼k eniyor
Ġhay ret
Ġhay van
ĠÃ§ev resi
ĠTaraf Ä±mÄ±n
ĠTaraf Ä±nÄ±za
ĠKas tamonu
ĠMedi kal
ĠMedi sana
ĠYar asÄ±
ĠYar amÄ±yor
ĠYar gÄ±
ĠYar arlan
ĠGerek Ã§e
ĠGÃ¶z lÃ¼ÄŁ
ĠGÃ¶r medim
ĠGÃ¶r dÃ¼
ĠGÃ¶r dÃ¼ÄŁÃ¼m
Ġayr Ä±lmÄ±ÅŁ
Ġrapor unu
Ġrapor lu
Ġrapor una
Ġann eler
ĠhalÄ± dan
ĠhalÄ± larÄ±n
ĠhalÄ± larÄ±m
ĠhalÄ± larÄ±mÄ±
ĠhalÄ± larÄ±mÄ±zÄ±
ĠyazÄ±l dÄ±m
ĠyazÄ±l Ä±p
Ġelem anÄ±n
Ġaktar Ä±yor
Ġaktar Ä±ldÄ±
Ġuyar Ä±nca
Ġdevlet ten
Ġkutu da
Ġkutu ya
Ġbahan eler
Ġaboneli ÄŁin
75 20
Ev y
Ev et
Ev imde
Ev kur
Kar en
Kar tal
Kar tÄ±m
Kar ali
Medi kal
SipariÅŁ imi
bil et
bil mek
bil eceÄŁimi
cal ibur
Ġap aratÄ±
Ġgecik tir
Ġgecik meyi
Ġgecik menin
Ġyay Ä±nÄ±n
Ġyay gÄ±n
Ġolmak la
Ġolmak sÄ±zÄ±n
Ġdil ine
Ġdil ekÃ§e
ĠfÄ±r Ä±l
ĠfÄ±r Ä±ndan
ĠpaylaÅŁ mak
ĠpaylaÅŁ Ä±mÄ±
ĠpaylaÅŁ Ä±lmÄ±ÅŁtÄ±
ĠHaf tanÄ±n
ĠaracÄ± yla
ahh Ã¼t
talar dan
ĠÃ¶nc ekil
ĠÃ¶nc esine
Ġsorumsuz ca
Ġsorumsuz luÄŁu
ĠtakÄ±m Ä±nda
ĠtakÄ±m larda
Ġmuh taÃ§
ĠdÃ¼zen lendi
ĠdÃ¼zen lemiÅŁ
ĠdÃ¼zen lemesi
Ġistedik lerini
ĠMaÄŁduriyet im
ĠMaÄŁduriyet imi
ĠsoÄŁuk tan
45 9
Ġber gamot
Ġkop uyor
Ġkop malar
ĠYaÅŁ attÄ±
Ġ27 0
Ġmah vet
Ġmah vetti
Ġmah kemeye
Ġmah keme
Ġisteme me
Ġisteme dim
Ġ300 8
ĠkullanÄ±cÄ± larda
ĠgeÃ§ir di
ĠgeÃ§ir mek
ĠCihaz a
ĠCihaz Ä±n
ĠCihaz Ä±mÄ±
Ġciddi yet
ĠgÃ¶nderil memiÅŁ
ĠyapÄ±lan dÄ±rma
ĠAlÄ±n masÄ±
ĠiletiÅŁim den
ĠDeÄŁil im
ĠDeÄŁil iz
Ġkahv alt
66 87
Ġbat Ä±yor
Ġbat Ä±rÄ±yor
Ġbat taniye
ĠbeÄŁen mediÄŁim
alk Ã¶y
Ġser tif
ĠsÃ¼t lÃ¼
ĠÃ§iz gi
ĠKo du
ĠKo sifler
ĠAcil deki
Ġmotor unun
Ġpis lik
Ġpuan lar
Ġpuan Ä±mÄ±
ĠÅŁiÅŁ en
ĠÅŁiÅŁ esi
ĠmaaÅŁ Ä±m
ĠmaaÅŁ tan
Ġarab ayÄ±
ĠaraÅŁtÄ±r dÄ±ÄŁÄ±m
Ġart Ä±ÅŁÄ±
ĠkullanÄ±m lÄ±k
ĠÃĩaÄŁ Ä±r
Ġonun la
Ġonun ki
ĠgÃ¶zlÃ¼ÄŁ Ã¼m
Ġlastik te
Ġlastik lerini
Ġlastik Ã§iye
ĠMaÄŁaz asÄ±ndan
ĠMaÄŁaz adan
Ġkalitesiz lik
Ġertel edi
Ġertel ene
Ġertel endi
ĠmÃ¼ÅŁter inin
ĠTarih li
Av r
Av on
Av ivasa
GeÃ§ tiÄŁimiz
Ġmet ro
Ġmet rek
Ġmet abol
ĠâĢ ĵ
ĠâĢ Ŀ
anÄ±z la
Ġset leri
Ġset inin
Ġset imde
ĠkÄ±l Ä±n
ĠkÄ±l cal
Ġdemek tir
Ġdemek ten
ĠBey lerbeyi
Ġbiraz dan
ĠKok uyor
Ġpark ta
Ġpark eleri
ulan dÄ±
Ä°ÅŁ ler
Ä°ÅŁ bir
Ġnak de
ĠMar ul
ĠMar din
ĠMar garin
ĠMar aton
ĠYol un
ĠYol culuk
ĠYak tÄ±
ĠYak Ä±nda
ĠYak laÅŁ
ĠYak Ä±t
ĠEdiyor lar
Ġgide miyorum
Ġ48 0
ĠÃ§alÄ±ÅŁÄ±yor du
Ġgittik ten
Ġekst re
ĠÃ§ekim leri
ĠaracÄ±m la
Ġbekliyor dum
ĠsaÃ§malÄ±k tÄ±r
ĠyÃ¶nlendir diler
ĠyÃ¶nlendir meden
ĠyÃ¶nlendir ildim
ĠAraÃ§ ta
ĠBakan lÄ±ÄŁÄ±na
ĠFilm ler
99 23
99 31
Ak k
Ak sa
Ak tif
gÄ± Ã§
ost ro
ost amÄ±
Ä±lama mÄ±ÅŁtÄ±r
ort is
ort umu
ĠsÄ± Ã§
Ġsun ulan
Ġsun ulmuyor
ĠgiÅŁ ede
ĠgiÅŁ eye
ĠgiÅŁ edeki
ĠgiÅŁ elerde
ĠSes ler
ĠSes li
ĠSep aÅŁ
Ġalama maktayÄ±m
amil y
Ġders in
Ġders ini
Ġaidat larÄ±
ĠKay dÄ±rÄ±cÄ±
Ġyapmam Ä±
Ġyapmam Ä±z
ĠMÃ¼ hendi
ĠayakkabÄ± yÄ±
ĠDoktor u
ĠDoktor unun
Ġetme leri
Ġetme yin
Ġaram alarÄ±
Ġaram alarÄ±nda
ĠaralÄ±k sÄ±z
Ġocak ta
ĠbaÅŁlat acaÄŁÄ±z
ebilir iz
Ġgeldik leri
Ġengel liyorlar
ĠsuÃ§ u
ĠsuÃ§ lu
ĠsuÃ§ umuz
ĠkarÅŁÄ±lÄ±ÄŁ Ä±nÄ±
ĠkÃ¼f lÃ¼
ĠkÃ¼f lendiÄŁini
ĠgÃ¼ncelle meye
Fac tive
Ġam ortis
Ġlik ir
Ġbebe ÄŁimin
Ġkaf asÄ±na
lamÄ±yor sunuz
ĠSite den
ĠaldÄ±ÄŁ Ä±na
ĠTav acÄ±
ĠTav siye
Ġman z
Ġmon te
Ġmon itÃ¶r
ĠpeÅŁ ine
Ġney miÅŁ
ĠMak as
ĠMak simum
ĠMak arn
ĠYer de
ĠYer li
Ġayak lar
Ġayak ta
Ġayak lÄ±
Ġayak larÄ±
Ġkarar ma
ĠyazÄ± yÄ±
ĠÃ§alÄ±ÅŁtÄ±r Ä±n
ĠÃ§alÄ±ÅŁtÄ±r Ä±r
ĠÃ§alÄ±ÅŁtÄ±r mak
ĠaÃ§Ä±lmÄ±yor du
Ġhepsi JET
Ġizleye cek
Ġizleye medim
Ġdondur a
ĠgÃ¶revli ye
Ġbuzdolab Ä±m
Ġbuzdolab Ä±mÄ±n
Ġeleman larÄ±na
Fi at
Ġdetay larÄ±nÄ±
ĠSÃ¼t aÅŁ
ĠSÃ¼t lÃ¼
ĠalÄ±yor du
ĠalÄ±yor dum
ĠBit ir
ĠBit ince
ĠBit ezhan
ĠBul gur
ĠBab alar
ĠTat s
ĠTop lu
ĠKul la
Ġvermek ten
ĠFark sÄ±z
ĠÃľrÃ¼nÃ¼m Ã¼n
ĠRez idan
ĠRez aleti
Ġyeter li
ĠarÄ±zalÄ± ydÄ±
ĠaÅŁa masÄ±na
ĠaÅŁa masÄ±ndan
ĠhazÄ±rlan mÄ±ÅŁ
ĠhazÄ±rlan Ä±p
ĠhazÄ±rlan dÄ±ÄŁÄ±nÄ±
Ġburada ki
ĠKendi sine
Ġimz alÄ±
Ġimz ala
ĠyaÄŁmur una
Ġekstra dan
73 9
73 04
Kon ut
Kon yalÄ±
neler de
Ġboya dan
Ġsur etiyle
Ġsur vey
ĠsÄ±z dÄ±
ĠsÄ±z Ä±ntÄ±sÄ±
Ġsert leÅŁ
Ġsert leÅŁti
Ġstok larÄ±nda
Ġkit leniyor
ĠkÄ±ÅŁ Ä±n
ĠkÄ±ÅŁ lÄ±k
Ġkav uÅŁtur
Ġkav anoz
Ġkav uÅŁmadÄ±
Ġgr ip
Ġgr ubu
Ġgaz Ä±
Ġtor ba
Ġtor pid
ĠteÅŁ h
ĠdÃ¼ÅŁt Ã¼m
ĠdÃ¼ÅŁt Ã¼ÄŁÃ¼nde
ĠdÃ¶k Ã¼l
Ġmar in
Ġmar ta
Ġmar garin
ĠpoliÃ§ esi
ĠpoliÃ§ eyi
Ġem zik
Ġeden e
Ġilgisiz lik
ĠPas lanma
Ġdiz inin
Ġdiz Ã¼stÃ¼
ĠÃ¶lÃ§ er
ĠÃ¶lÃ§ Ã¼m
ĠÃ¶lÃ§ Ã¼s
ĠFazla dan
ĠÃ§Ä±kart Ä±lÄ±p
ĠSorumsuz luk
Ġekmek ten
Ġtekli fi
ĠLas tiÄŁi
ĠsaÄŁlan mÄ±ÅŁ
ĠsaÄŁlan madÄ±
ĠsaÄŁlan sÄ±n
ĠgÃ¶zlÃ¼k te
Ġkoltu ÄŁun
Ġkoltu ÄŁa
ĠalÄ±nmÄ±ÅŁ tÄ±
ĠYanÄ±lt masÄ±
ĠgÃ¶rÃ¼ntÃ¼ lÃ¼
ĠÃĩalÄ±ÅŁan lara
Ġyasak lar
Ġyasak tÄ±r
Ġkampany aya
Ġkampany asÄ±nda
Ġkampany asÄ±na
ĠhÄ±zlÄ± ca
ĠHesab Ä±m
ĠHesab Ä±mda
Ġtehdit kar
ĠDiyarbak ir
Telefon u
Telefon uma
Telefon umu
mar is
mar iti
Ġmek ik
Ġsol ma
ĠgÃ¶n Ã¼l
Ġtoz larÄ±
Ġolun ur
Ġolmas a
Ġolmas Ä±ndan
Ġolmas Ä±nÄ±n
ĠAÄŁ da
Ġpeynir leÅŁmiÅŁ
Ġpiyas aya
ĠÅŁart larda
Ġyapacak lar
ĠYas a
ĠYas alara
ĠGenel de
ĠGenel likle
ĠÄ°k isi
ĠDr y
ĠDol ayÄ±
ĠDur duk
Ġrandevu ya
ĠaradÄ±k larÄ±nda
ĠÃ¼ret miyorlar
ĠÃ¼ret ilmedi
cafe e
Ġsoru lar
Ġsoru larÄ±
Ġsiteniz de
Ġkendim i
Ġkendim iz
Ġkendim ize
ĠbakÄ±m Ä±nÄ±
Ġcep h
Ġcep te
eÅŁit li
Ġkesinti ye
Ġtutar Ä±nÄ±
Ġuygula manÄ±n
Ġdavran Ä±n
Ġdavran masÄ±
ĠtaÅŁÄ±n alÄ±
ĠDevlet imiz
Ġapart manÄ±n
Ġaktif leÅŁtir
St ilevs
St radivarius
kas tr
sey di
sey din
yat aÄŁÄ±
Ġsar Ä±yor
Ġkara canÄ±n
Ġkara biber
Ġkara ciÄŁer
ĠyavaÅŁ ladÄ±
Ġtu haf
ĠtÄ±k la
ĠtÄ±k ladÄ±ÄŁÄ±mda
ĠtuÅŁ u
larÄ±nÄ±z dan
ĠSistem de
ĠBaÄŁ Ä±ÅŁ
ĠBah arat
ĠTor nedo
ĠKÃ¼ ba
ĠKir ik
ĠKir eÃ§
ĠKir alama
ĠKÄ±z Ä±mÄ±n
ĠKÄ±z Ä±lay
ĠAb one
ĠAc aba
ulu ÄŁu
ĠMal iye
ĠYÃ¼z yÄ±l
ĠGarant isinin
ĠGazi emir
ĠÄ°h las
Ġayar lar
Ġayar larÄ±nÄ±
ĠDon dur
Ġhalk Ä±
Ġhalk Ä±nÄ±
ĠbaÅŁÄ± boÅŁ
ĠÃĩekil miÅŁ
ĠaÃ§tÄ±ÄŁÄ±m Ä±z
ĠÅŀif resi
Ġevrak lar
Ġ65 9
ĠSonr aki
Ġuzat ma
Ġresim ler
ĠaÅŁaÄŁÄ± da
ĠaÅŁaÄŁÄ± dan
ĠIn fa
ĠÃ¶ÄŁrenc imiz
ĠÃ¶ÄŁrenc iyim
ĠÃ¶ÄŁrenc ilerden
ĠaÄŁÄ±r lÄ±ÄŁÄ±
ĠaÄŁÄ±r lÄ±ÄŁ
ĠgÃ¼ncelleme de
ĠDeÄŁiÅŁtir in
ĠDeÄŁiÅŁtir me
ĠgÃ¶revl ileri
ĠgÃ¶revl isine
Ġdosy ayÄ±
Ġkargolan mamÄ±ÅŁ
ĠKoltuk lar
ĠyazÄ±lÄ±m la
ĠyazÄ±lÄ±m larÄ±
ĠBuzdol ab
ĠBulun an
ĠBulun maz
ĠBulun duÄŁum
ĠmayÄ±s Ä±n
34 2
54 1
54 2
sat Ä±n
yap tÄ±lar
Ġsak layÄ±p
Ġsak lÄ±yorum
Ġsuy umuzu
Ġhel e
Ġhel va
ĠSe a
ĠSe at
ĠSe ans
ĠSh ock
ĠSaÃ§ larÄ±m
Ġalabil dim
ĠÃ§erÃ§ev esi
ĠÃ§erÃ§ev ede
ĠÃ§erÃ§ev esinin
ĠTv box
Ġdin ledim
Ġdin leyin
Ġdin ozor
ĠdÃ¼ÄŁ mesine
Ġfaiz le
Ġpan eli
Ġyapabil eceÄŁini
Ġyapabil eceÄŁim
Ġyapabil eceÄŁimi
ĠÄ°s imli
ĠayÄ±p lÄ±
tiv asyon
Ġbula madÄ±
Ġbula madÄ±k
Ġverecek ler
ĠgeliÅŁ en
ĠgeliÅŁ me
ĠDer nek
ĠDer neÄŁi
ĠElim iz
ĠsipariÅŁler imiz
ĠsipariÅŁler imde
ĠÃĩÃ¶z Ã¼mÃ¼
ĠkapÄ± yÄ±
ĠÃ¶deye medim
ĠÃ¶deye mediÄŁim
Ġfirmalar da
ĠÅŀarj Ä±
ĠÅŀarj lÄ±
ĠdÃ¼ÅŁÃ¼r ecek
ĠdÃ¼ÅŁÃ¼r dÃ¼
ĠdÃ¼ÅŁÃ¼r mÃ¼ÅŁ
Ġtemin at
ektron iÄŁi
Ġkabl osuz
ĠdoÄŁr usunu
Ġism ini
Ġism iniz
ĠBelir li
ĠBelir sizliÄŁi
ĠaÄŁz Ä±nda
ĠaÄŁz Ä±nÄ±
ÃľrÃ¼n Ã¼m
ÃľrÃ¼n Ã¼mÃ¼
Ãĸz sÃ¼t
Ãĸz artemis
ĠMarket ler
ĠSalon unda
ĠdeÄŁerlendir mesi
ĠdeÄŁerlendir iliyor
Ġoyuncak larÄ±n
ĠyaÅŁadÄ±ÄŁÄ±m Ä±
Ġkilit li
ĠÃ§ikolat ada
ĠÃ§ikolat anÄ±n
ĠÃ§ikolat alarÄ±
Ġzarar lÄ±
Ġunut muÅŁlar
33 2
89 7
95 75
Bil gisayar
Bil gim
BaÅŁ v
cÃ¼ ler
Ġbisiklet im
Ġbisiklet imi
Ġsos lu
Ġsav ma
ĠyÄ±rt Ä±lma
mey elim
mey danÄ±
Ġvaz iyette
ĠSi ena
ĠSab ah
ĠSoÄŁ anlÄ±k
ĠÃ§Ã¶k mÃ¼ÅŁ
ĠTut umu
ĠaÄŁr Ä±yor
ĠKazan lÄ±
ĠMil leti
ĠMil ano
ĠMil attan
duÄŁ unu
ĠEx per
Ġetmedi ÄŁimi
Ġuc unu
Ġistasyon una
ĠbaÅŁk asÄ±na
Ġ35 00
ĠNumar asÄ±
ĠKargol ama
ĠgÃ¶rdÃ¼k leri
ozit olu
ĠAlÄ±ÅŁveriÅŁ i
ĠhatÄ±r lat
Ġkesildi ÄŁi
ĠyaÅŁama mÄ±ÅŁtÄ±m
ĠZor unlu
ĠÃ¼stÃ¼nde ki
ĠyÃ¶netim inden
ĠArac Ä±mda
ĠArac Ä±mÄ±n
ĠKontrol sÃ¼z
Ġoku madan
Ġoku duÄŁum
Ġokuma maya
Ġsahib ine
Ġseans Ä±ndan
ĠKanal sÄ±z
ĠOyun larÄ±
ĠGiriÅŁ i
ĠÄ±sÄ±t ma
ĠÄ±sÄ±t tÄ±k
ĠtÃ¼ket mek
ĠtÃ¼ket iyorum
ĠÃ§izik leri
Ġmalzeme ler
ĠkÄ±yaf eti
68 0
68 75
Ara Ã§
DÃ¼n ya
DoÄŁ anay
Mer cedes
Sor men
biy al
fer ans
ril la
Ġj elat
Ġj imnas
Ġle h
Ġle vh
Ġbab ama
Ġsine masÄ±na
Ġsaf ra
ĠkÄ± y
ĠkÄ± tÄ±r
ĠkaÅŁ Ä±k
ĠkaÅŁ Ä±ÄŁÄ±
Ġkre diniz
Ġkre dimi
ĠkoÅŁ tur
Ġkronik miÅŁ
Ġgar den
Ġtic ari
Ġolabil ecek
ĠSiz den
ĠTamam Ä±
ĠTamam Ä±nÄ±
Ġduv arda
ĠKad jar
ĠKÃ¼f lendi
ĠAm sterdam
ĠAda tÄ±p
ĠÅŁef tal
ĠÅŁef inin
ĠÅŁef faf
ĠÅŁof ben
Ġnok t
Ġyapama dÄ±k
ĠHar em
ĠHar cama
ĠPoliÃ§ esi
ĠPaket in
ĠkarÄ±ÅŁ Ä±yor
ĠOf fice
ĠÃĩocuk lar
ĠÃ§Ä±kÄ±ÅŁ lÄ±
ĠÃ§Ä±kmÄ±ÅŁ tÄ±
Ġ43 2
Ġ400 1
Ġbeklen diÄŁi
ĠÅŀiÅŁ esinde
ĠolmadÄ±ÄŁ Ä±n
ĠUzun kÃ¶prÃ¼
ĠÃĸÄŁr etmen
ĠÃĸÄŁr enciyim
ĠkiÅŁiler le
ĠkiÅŁiler den
ĠhemÅŁir eler
Ġkabar madÄ±
ĠÃĩÄ±kar mÄ±yor
Ġuzak laÅŁtÄ±r
ĠKapak larÄ±
ĠÃ§ekildi ÄŁini
Ġbilgilendir mek
Ġbilgilendir ilmesi
Ġkamer anÄ±n
ĠTakip Ã§i
ĠgÃ¶rÃ¼ÅŁme ler
ĠgÃ¶rÃ¼ÅŁme lerde
ĠuyarÄ±sÄ± yla
Ġmekan izmasÄ±
Ek er
Ek im
lon lar
omet rik
ĠbÃ¼y Ã¼yen
Ġbant tan
Ġbardak larÄ±mÄ±
ĠsÃ¶k Ã¼m
ĠsÃ¶k Ã¼cÃ¼
Ġkask atÄ±
ill alarÄ±
Ġyara madÄ±
Ġyara maz
Ã¶rÃ¼n Ã¼
Ġters ledi
Ġvak ti
Ġvak tim
ĠSos lu
ĠBun larÄ±n
ĠÃ§ift leri
ĠAp arat
Ġmut f
Ġmut suz
Ġmut laka
Ġpip eti
ĠMode l
ĠMode light
Ġez bere
Ġdayan arak
Ġbulama z
ĠDÃ¼ÅŁ mesi
ĠEÅŁ yalar
ĠÃ¼t Ã¼nÃ¼n
ĠetmiÅŁ tik
Ġdiy et
Ġdiy elim
ĠarÄ±yorlar dÄ±
ĠÃľÃ§ Ã¼ncÃ¼
ĠÃľÃ§ gen
ĠÃľÃ§ yol
Ġanlama z
Ġanlama dÄ±ÄŁÄ±m
ĠÃ¶r neÄŁi
ĠÃ¶r neÄŁin
Ġof isi
Ġof isine
Ġof fice
Ġoper atÃ¶re
ĠOda ya
ĠgeÃ§tik Ã§e
ĠÃ§alÄ±ÅŁtÄ±ÄŁÄ±m Ä±zda
ĠsatÄ±cÄ± ya
Ġbulan Ä±k
Ġbulan tÄ±sÄ±
Ġbulunuyor um
Ġbulunuyor lar
ĠLek eli
ĠAydÄ±n latma
Ġkenar Ä±na
Ġkenar Ä±ndaki
Ġhassas iyet
Ġhassas iyeti
Ġyenil emek
ĠTemsil cileri
ĠÃ§arp ma
Ġmikro p
ĠHesap ta
ĠYetkil isi
ĠYetkil ilerin
ĠYetkil ilerden
Ġprogram da
ĠpiÅŁir dik
ĠArkadaÅŁ Ä±ma
Ġfabrik ayÄ±
Ġfabrik ada
Ġfabrik asyon
ĠoÄŁlum la
ĠMÃ¼dÃ¼r Ã¼
ĠMÃ¼dÃ¼r Ã¼nÃ¼n
ĠbebeÄŁimiz i
Ġsoyul maya
Ġpazar lÄ±k
ĠvazgeÃ§ iyorum
ĠvazgeÃ§ miÅŁiz
ĠvatandaÅŁ Ä±n
Bay lan
Bay mak
Bay ramdan
Tur uncu
rum p
ĠÃ¼n lem
Ġca iz
Ġsigor tanÄ±n
Ġsinir lendim
Ġkumanda ya
Ġkumanda sÄ±
Ġyum uk
ĠyÃ¼r Ã¼
ĠyÃ¼r Ã¼yen
ĠyÃ¼r Ã¼yerek
Ġtitr iyor
Ġtitr eme
Ġtitr eÅŁim
Ġip ek
Ġip lik
Ġhad di
ĠdÃ¼k kanÄ±
ĠdÃ¼k kana
Ġmin eral
Ġfot olarÄ±
Ġfot okopi
Ġpol isi
Ġpol iklini
ĠyapÄ±ÅŁ kan
ĠiÃ§ecek ler
ĠYurt lar
ĠGr ip
ĠGr ubu
ĠGar den
Ġverir ler
Ġverir sem
ĠgelmemiÅŁ tir
ĠDik iÅŁ
ĠÃ¼lk ede
ĠPol isi
Ġmahall esindeki
Ġaramam Ä±
Ġaramam da
ĠCar dif
ĠgÃ¶rsel de
ĠdÃ¶ner ler
Ġteker leri
Ġorganizasyon u
Ġverilecek ti
Ġverilecek tir
Ġkendiniz e
ĠyaÅŁan Ä±yor
ĠyaÅŁan dÄ±ÄŁÄ±nÄ±
ĠyaÅŁan dÄ±ÄŁÄ±nda
ĠateÅŁ ini
ĠkÃ¶p Ã¼rmÃ¼yor
ĠkÄ±sÄ±m larÄ±
ĠÄ°ndirim den
ĠbaÅŁvurum un
Ġask Ä±larÄ±
ĠAtak ule
ĠistediÄŁimiz i
ĠdÃ¼ÅŁÃ¼ndÃ¼ÄŁÃ¼m den
Ġmakinem izde
Ġokuy an
Ġokuy up
Ġokuy unca
ĠKapan Ä±ÅŁ
Ġmasraf Ä±
ĠyÄ±kan mak
ĠyÄ±kan masÄ±
ĠyÄ±kan Ä±p
Ġihtim ali
ĠEsk isi
ĠEsen ler
ĠUygulama dan
ĠAltÄ±n baÅŁ
ĠÃ¶zen siz
ĠGÃ¶rev li
ĠGÃ¶rev lisi
ĠGÃ¶rev lilere
ĠMakine yi
Ġteklif inde
Ġameliyat Ä±m
ĠkÄ±yafet ler
ĠasansÃ¶r de
ĠasansÃ¶r lerde
ĠasansÃ¶r cÃ¼ler
72 50
GÃ¼n lerdir
GÃ¼n seven
Ko Ã§ak
Ko tex
Mi ele
Mi crosoft
Yat ak
zz pos
Ġur unun
Ã¼tÃ¼ yor
Ġsh op
Ġsh optan
Ġkusur unu
Ġgec esi
Ġtencer esi
Ġtencer enin
Ġiddi asÄ±
laÃ§ tÄ±
Ġalacak tÄ±m
ĠBoÅŁ nak
ĠÃ§ap Ä±nda
Ġdk t
Ġdarb eye
Ġplak a
Ġyapma dÄ±nÄ±z
ĠMik ser
ĠGi dip
ĠPer de
Ġistey ip
ĠÃ¶nÃ¼nde ki
ĠOk uma
Ġ36 0
Ġkullanan larÄ±n
Ġsoruml usu
ĠCon trol
Ġ53 2
ĠBuhar lÄ±
Ġcar men
Ġedilemedi ÄŁi
ĠRapor u
ĠaklÄ± yla
Ġkesil ecek
Ġotopark Ä±
Ġotopark ta
Ġotopark Ä±na
Ġkurye ye
ĠsaÄŁlay amÄ±yorum
ĠHalk alÄ±
ĠgÃ¶tÃ¼rdÃ¼ÄŁÃ¼m Ã¼zde
ĠaÅŁk Ä±na
ĠyÃ¶net melikte
ĠIs lak
Ġhastal an
Ġhastal Ä±ÄŁÄ±m
ĠEngel li
ĠEngel lendim
Ġkord on
Ġkiralama ktan
Ġduyur ulur
ĠkulÃ¼b Ã¼n
ĠkulÃ¼b Ã¼ne
Ġyenilen di
ĠÃľyeli ÄŁim
ĠÃľyeli ÄŁi
ĠÃľyeli ÄŁimi
Ġtahl ili
ĠDeÄŁiÅŁik lik
ĠanlayÄ±ÅŁ sÄ±z
ĠÃ¶nemse meyen
Ġmilyon larca
ĠKarÅŁÄ± daki
ĠKargolan mayan
ĠTemsilc ilerine
Ġumurs amaz
Ġumurs ayan
Ġumurs amadan
Bey kent
Bey likdÃ¼zÃ¼
Es senso
Mar din
Or al
Uzun gil
Ver diÄŁim
kon ut
ĠQ uant
Ġum urumda
Ġum utlandÄ±r
ĠbÃ¶cek leri
ore al
Ġkr ampon
Ġgiy dirme
Ġyor umu
Ġyor gan
ĠyukarÄ± da
ĠtÃ¼ketic iyi
ĠSS I
ĠSÄ±r f
ĠBat taniye
Ġbirim lere
Ġplan da
Ġniyet li
ĠyapÄ±ÅŁtÄ±r Ä±p
ĠHey etine
ĠÄ°tiraz Ä±m
Ġileri de
ĠDA F
ĠDuy arsÄ±z
ĠPil ot
ĠPat os
Ġetk in
Ġdisk ten
ĠÃ¶m Ã¼r
Ġistes eniz
ĠVen ezia
ĠVirÃ¼s Ã¼
Ġ38 0
ĠgeÃ§tiÄŁim de
rop ay
Ġhizmetler iyle
Ġhizmetler inize
ĠgÃ¶ndermiÅŁ siniz
ĠyansÄ±t Ä±ldÄ±
ĠyansÄ±t Ä±lmÄ±ÅŁ
ĠyansÄ±t Ä±lan
ĠolmamÄ±ÅŁ tÄ±
Ġdenil mesine
Ġsiteler inden
Ġsiteler indeki
ĠakÄ±t masÄ±
ĠÃĸden en
ĠÃĸden eÄŁi
Ġuydu yu
Ġzorlan dÄ±k
Ġzorlan Ä±yoruz
Ġmesa iye
ĠyÃ¼zÃ¼k ler
Ġtemas sÄ±zlÄ±k
Ġkims eyi
ĠAtat epe
Ġmemnuniyet ine
Ġmemnuniyet ini
ĠaÃ§Ä±lmÄ±ÅŁ tÄ±
Ġharca dÄ±ÄŁÄ±m
ĠErtel eme
ĠErtel enen
ĠparamÄ±z Ä±n
ĠtavÄ±r la
Ġkamyon u
ĠBorc umu
ĠaboneliÄŁi me
Ġgecikme yle
ĠgÃ¶nderilecek ti
ĠgÃ¶nderilecek tir
ĠaramÄ±ÅŁ tÄ±m
ĠBilgilendir il
ĠBilgilendir mesi
ĠBahÃ§ eÅŁehir
ĠKÃ¼Ã§Ã¼k bakk
Ġgarip lik
Ġahlak Ä±
Ġahlak sÄ±zlÄ±k
ĠApart man
ĠApart manÄ±n
ĠMeydan Ä±
ĠpoÅŁet e
Ac er
Ac cell
Cor elli
Dr y
Def acto
Dev amlÄ±
Gr eyder
Hak sÄ±z
Hak mar
Hayat Ä±mda
Hayat Ä±mÄ±zÄ±n
Ok sijen
Pro fesyonel
Pron to
oot loader
ĠâĤº '
ĠbasÄ±l Ä±
ĠsÄ±n Ä±rÄ±
Ġsep ette
Ġyedi ÄŁim
ĠtÃ¼p lerinin
ĠiÄŁ ne
ĠhÃ¼s rana
Ġhediy eler
Ġdem lerken
ĠSin yal
ĠSin ekler
ĠSol otica
ĠSine maya
Ġaldat maca
ĠBal o
ĠBas mÄ±yor
ĠBoy unca
ĠBÃ¶l Ã¼m
ĠBÃ¶l ge
ĠBÃ¶l Ã¼mÃ¼
ĠKu va
ĠKu ga
ĠKat ta
ĠKop tu
ĠAir pod
ĠAfyon karahisar
ĠmÃ¼r ekkep
Ġpu ana
Ġpu anÄ±
ĠÅŁÃ¼p he
Ġgelmez di
ĠDemir can
ĠDemir Ã¶ren
ĠPos itive
ĠPetrol leri
Ġbilgisay ara
mesey di
Ġanket lere
Ġanket lerinizi
Ġisters en
ĠbaÅŁlay alÄ±
ĠbaÅŁlay Ä±nca
ĠOtur an
ĠÃĩiz ik
ĠÃĩiz ildi
ĠÃĩev ir
ĠÃĩev rem
utma maya
ĠgÃ¶rÃ¼yor lar
teÅŁ em
ĠulaÅŁabil dim
Ġtesis lerinde
Ġyans Ä±yor
Ġekte dir
ĠArab ayÄ±
ĠLam b
Ġhaftalar dÄ±r
ĠoranÄ± yla
ĠAyak lÄ±
ĠkÃ¶ÅŁ esinde
Ġuyan Ä±yoruz
Ġmuame leyi
Ġbeklemek teyim
Ġbayat lamÄ±ÅŁ
Ġmide mi
ĠtanÄ±m Ä±yorlar
Ġlaf Ä±
Ġlav aÅŁ
Ġlav ab
Ġlav asÄ±n
Ġoyalama yÄ±n
Ġrestor an
Ġrestor anÄ±
Ġaltyap Ä±sÄ±
ĠÃ¶zellik leri
Ġuygulamalar dan
Ġharc Ä±yor
Ġharc Ä±mÄ±
ĠKendil eri
ĠsÄ±rada sÄ±nÄ±z
Ġkatk Ä±
******** **
Ġsabit lemek
ĠsonuÃ§lan mÄ±yor
Ġtavuk tan
amayacaÄŁ Ä±mÄ±
Ġkaybol uyor
Ġinceledi ÄŁimizde
ĠGÃ¶zÃ¼k mÃ¼yor
ĠmÃ¼ÅŁteriler inize
ĠkardeÅŁ ime
Ġesnaf lar
Ġsurat Ä±ma
Ġemniyet e
ĠAdres e
AltÄ±n saray
ĠSebeb iyle
ĠDair e
ĠÃĸÄŁren ci
Ġulus al
ĠMesaj lar
79 34
Kap an
KÄ±r mÄ±zÄ±
Mon di
Mon ster
Sin oz
Sin bo
Spor ts
Spor tsp
Tr epaÅŁ
siy er
Ã¼ler liÄŁine
Ġblu etooth
Ġsp rey
Ġsel fie
Ġsim sar
Ġsey ret
Ġsey rede
ĠsayÄ± da
Ġkem eri
ĠkalÄ± bÄ±nÄ±
ilecek ti
Ġtap u
Ġtap unuzu
Ġhiss et
izli dere
ĠSek tÃ¶rÃ¼nde
ĠSev k
ĠSÃ¶k e
ĠSÃ¶k Ã¼p
Ġalabilir ler
ĠalÄ±nacak tÄ±r
ĠBT U
ĠBÄ±k tÄ±m
ĠBÄ±k tÄ±k
ĠbirleÅŁ im
ĠÃ§ak mak
ĠTw ist
ĠTw itter
ĠTeÅŁ ekkÃ¼r
Ġade ti
ĠKoy muÅŁlar
ĠKÃ¶p Ã¼rmÃ¼yor
ĠAh u
ĠAsansÃ¶r leri
ĠniÅŁan Ä±m
ĠyapÄ±lama maktadÄ±r
ĠMo ov
ĠMo mentus
Ġex pert
ĠHoc alar
ĠdaÄŁ Ä±lmÄ±ÅŁ
ĠYen ileme
ĠYoÄŁ unluk
ĠDak ikalarca
ĠDep ozitolu
ĠEg em
ĠEg zoz
ĠEle man
ĠEti mesgut
Ġrandev usuz
Ġarayacak larÄ±nÄ±
ĠFan ta
ĠÃĩikol ata
ediyor lar
ĠinÅŁ aat
ĠCr ystal
Ġtesad Ã¼f
ĠyansÄ± yan
ĠedilmemiÅŁ tir
Ġtekn oloji
Ġtekn isyen
ĠAnlay Ä±ÅŁÄ±
Ġcez v
Ġkurab iy
Ġkurab iye
Ġmesaf esi
Ġmesaf ede
Ġistemek teyiz
Ġbitim ine
Ġedebilir im
Ġedebilir siniz
Ġpromosyon lu
ĠEkst ra
Ġkayn at
ĠyÃ¼zÃ¼nÃ¼z e
ĠyÃ¼zÃ¼nÃ¼z den
ĠbaÄŁÄ±r Ä±p
Ġmedya da
ĠsÄ±kÄ±ntÄ±m Ä±z
ĠÄ°Ã§eri de
Ġgetirecek siniz
ĠIsÄ± tÄ±
Ġtaban casÄ±nÄ±
Ġsevin miÅŁtim
Ġtuttur mam
antol oma
Ġbankac Ä±lÄ±ÄŁÄ±mÄ±
Ãľn iversite
ĠkonuÅŁmalar Ä±ndan
Ġduyuru sunda
ĠSayaÃ§ larÄ±
ĠdeÄŁerlendirme de
ĠDÃ¼nya da
ĠAltÄ±nda ÄŁ
Ġdepart man
Ġkutusun a
Ġkutusun dan
ĠdilekÃ§ emi
ĠÃ§aydan lÄ±k
ĠÃ§aydan lÄ±ÄŁÄ±n
Ġbatar yasÄ±
Ġbatar yanÄ±n
ĠsÄ±zdÄ±r dÄ±
ĠÃ¶lÃ§Ã¼ de
Ġredde dil
ĠgeÃ§iÅŁtir iyorlar
ĠBaÅŁvuru sunda
ĠyaÅŁamak ta
Arac Ä±mÄ±
ĠkoÅŁul suz
Ġduvar Ä±nÄ±
ĠeÅŁyalar Ä±mÄ±
Ġmacun unda
ĠDeterj anÄ±
ĠTehdit leri
Ġmusluk tan
Ġperforman sÄ±
906 0
Ada burnu
Bor tÃ¼rk
BeÅŁ ler
El ektrik
Eur eko
Go odyear
Hes ap
Haz ine
Haz iran
KÃ¼ tahya
May lo
Oz an
Oz mo
Ra id
Ra unt
Sw azer
Sen elerdir
SarÄ± germe
TR T
Tes lim
Top rak
Un ited
aut y
usun un
devlet ten
ÄŁda y
Ġsa unayÄ±
Ġsig ar
Ġsig ara
ĠsÃ¼p ermark
Ġkli masÄ±
ĠkÃ¶y Ã¼
Ġkade hli
Ġkus maya
ĠgÃ¼l Ã¼nÃ§
ĠtanÄ±n mÄ±ÅŁ
Ġolama dÄ±ÄŁÄ±nÄ±
ĠdemiÅŁler di
Ġdekon tu
uri ce
ĠSA W
ĠSt ilevs
ĠSar ot
ĠSil ver
ĠSte am
ĠSarÄ± yer
ĠSilik on
ĠSens odyne
lev ini
ĠTÃ¼n eli
Ġdu ya
Ġdiler iz
ĠdÃ¶v Ã¼ÅŁ
ĠKuÅŁ adasÄ±
ĠKurt kÃ¶y
ĠAla plÄ±
ĠAlan ya
ĠAcÄ± badem
ĠmÃ¼c ade
ĠmÃ¼c bir
Ġmulti medya
ĠfÄ±ndÄ±k lÄ±
ĠpÃ¼s kÃ¼r
ĠpÃ¼s kÃ¼l
Ġpizz aya
ĠÅŁim dik
ĠÅŁÄ±k Ä±r
Ä°Ã§ im
Ġnab Ä±z
Ġnab Ä±zda
ĠyaptÄ±ÄŁ Ä±ndan
ĠyaptÄ±ÄŁ Ä±yla
ĠMeg ane
ĠMurat paÅŁa
Ġep il
Ġecz an
ĠYunu s
ĠYunu semre
ĠYÄ±rt Ä±yor
ĠYÄ±rt Ä±ldÄ±
ĠYeÅŁil Ã§am
ĠGÃ¶l mar
ĠGreen wich
Ġayakkab Ä±mÄ±
Ġgelmeyecek miÅŁ
ĠDama cana
ĠDama canayÄ±
ĠDuÅŁ akab
ĠÃ¼l ke
Ġru j
Ġrad y
ĠrandÄ±m anlÄ±
ĠPet las
ĠPip et
ĠPip eti
ĠParan Ä±n
ĠParan Ä±z
ĠPow er
ĠPow erball
ĠPlatin um
ĠsonlandÄ±r dÄ±m
Ġmaz ot
Ġmaz gal
Ġusan dÄ±r
ĠÃ¶b ek
ĠÃ¶b Ã¼r
Ġnez aket
Ġod alarda
Ġop siyon
ĠVere meme
Ġzan nederek
ĠFiz ik
ĠbaÅŁlan gÄ±cÄ±
ĠOsman gazi
ĠÃĩor lu
ĠÃĩor uh
ĠÃĩat lamasÄ±
ĠÃĩeki ci
ĠÃĩiÃ§ek Ã§i
ĠNak il
Ġcerrah i
Ġcerrah isi
ĠÃ§alÄ±ÅŁtÄ±ÄŁ Ä±ndan
ĠÅŀirk eti
ĠÅŀirk etler
ĠÅŀeker pÄ±nar
Ġekip man
ĠsatÄ±c Ä±nÄ±n
ĠAlman ya
Ġdeney in
Ġevlen sin
oyun cak
ĠReh in
ĠReh abilitasyon
Ġlis esinin
Ġotog ar
Ġotog arÄ±ndan
Ġceb imden
Ġkurt ul
ĠgÃ¶zÃ¼m le
Ġprofesyonel lik
Ġprovizyon um
Ġtedbir leri
ĠmeÄŁer se
ĠsÄ±kÄ±ÅŁ tÄ±
Ġlasti ÄŁin
ĠYansÄ±t Ä±ldÄ±
Ġhazn eyi
ĠmaÄŁduriyeti me
Ġdurdur un
Ġgetirt eceklerini
ĠyÃ¶nt em
ĠyÃ¶nt emi
ĠEtmeme leri
Ġseviy esi
Ġkoru mak
ĠKapor amÄ±
ĠkuruluÅŁ lar
ĠMaaÅŁ Ä±m
ĠbastÄ±r a
ĠyÄ±kat tÄ±ÄŁÄ±m
Ġkirli ydi
Ġkahven in
Ġkahven izi
ĠkÄ±zar maya
ograf i
ĠAsk Ä±da
Ġkomb iyi
Ġmilyar lÄ±k
Ġedecekler miÅŁ
Ġertelen miÅŁ
ĠÅŀifr eli
Ġlamb alarÄ±nÄ±n
ĠTaleb im
Ġfayda sÄ±
Ġdokun matik
ĠYaÄŁmur da
Ġkonaklama m
ĠaÅŁkÄ±n dÄ±r
Ġforma t
ĠKarac abey
Ġbahset tiÄŁim
ĠbroÅŁÃ¼r Ã¼nde
ĠhanÄ±me fendi
ĠhanÄ±me fendinin
ĠCiddiyet siz
ĠCiddiyet sizliÄŁi
Next star
ĠHospital s
746 2
Ab on
Bi obell
Col gate
Cap py
Cas io
Del ta
Dek ar
EÅŁ imin
Ele ctr
Ener jisa
GÃ¼ laÃ§tÄ±
Ho over
Hat tuÅŁa
Ham idiye
Kur yenet
Kaz em
Kullan makta
Kuv eyt
Ma urice
Mo mentus
Mal um
Mak bul
Mark etten
Muh teÅŁem
Miss fit
Premi er
RÄ° Åŀ
Siz den
SaÄŁ lÄ±k
SÃ¶z de
Salg Ä±n
Tu i
Ve ito
Vit ra
Wat sons
Yan lÄ±ÅŁ
dd Ã¼tsÃ¼z
lili ÄŁim
numar alÄ±
nav utkÃ¶y
oob le
arlÄ± dere
Ġbl oga
Ġbo ard
Ġbon us
Ġbec er
Ġbid on
ĠboÄŁaz Ä±na
Ġbany olar
ĠbiskÃ¼v inin
ĠsÃ¼z meme
Ġstaj yer
ĠkuÅŁ baÅŁÄ±
Ġklim alarÄ±
ĠkÃ¼l tÃ¼rÃ¼
Ġkuzen imle
ĠyayÄ±m landÄ±
ĠyalÄ±tÄ±m Ä±
Ġyavr ulayan
Ġtom ografi
Ġid rar
Ġicr alÄ±k
Ġho gi
Ġhusu sunda
Ġhamil eyim
ĠolaÄŁan Ã¼stÃ¼
ĠSa una
ĠSÄ± vÄ±
ĠSÄ±n Ä±rÄ±
ĠSerdi van
Ġaldan dÄ±k
ĠBar oya
ĠBer aber
ĠBÃ¼r o
ĠBlu etooth
ĠBasÄ±l Ä±
ĠBib eron
ĠBron zer
ĠÃ§am urluk
ĠTun ing
ĠTencer enin
Ġag rÄ±
ĠKer amika
ĠKÃ¶y Ã¼
ĠmÃ¼z ik
Ġmot orum
Ġfen er
Ġpoz isyon
Ġpop Ã¼lerliÄŁine
Ġpantol on
ĠpÄ±rlan ta
ĠÅŁid det
ĠÅŁans Ä±m
Ġnef ret
ĠnÃ¶bet Ã§i
ĠHol iday
ĠHill town
ĠGol f
ĠGur me
Ġgelme mesinden
Ġgelebil eceÄŁini
Ġilac Ä±n
ĠDes teÄŁi
ĠDÃ¼ÄŁ Ã¼nden
ĠEtik et
ĠPomp asÄ±
Ġetraf Ä±
Ġutan madan
ĠÃľlk emizin
ĠÃ¶v erek
Ġistis nasÄ±z
Ġistika met
ĠbaÅŁlÄ±ÄŁ Ä±nÄ±n
ĠÃĩil esi
ĠÃĩob an
ĠsÃ¼rÃ¼n tÃ¼sÃ¼
Ġinat la
ĠCine fora
Ġkapas it
Ġch eck
Ġcu maya
ĠyapÄ±lmaz sa
ĠÅŀekil de
ĠdolmamÄ±ÅŁ ken
Ġekon ominin
ĠekÅŁim iÅŁ
oman tik
Ġtakib ini
ĠRaf ting
Ġortalar Ä±nda
ĠUl trason
Ġkestir dim
Ġlist esinden
Ġyolc um
Ġyoll uyorlar
ĠkÃ¶f te
ĠyakÄ± tÄ±m
Ġmakarn alar
ĠÄ°ndir imi
ĠÄ°ncel eme
Ġedebil mem
ĠHalle y
ĠmaÄŁazanÄ±z dan
ĠSonu cunda
Ġkoya cak
Ġhazir ana
ĠAtlant is
ĠWil ly
Ġhastaneniz e
Ġteles ekreter
Ãĸde me
Ġduygu lar
ĠtaÅŁÄ±na caÄŁÄ±m
ĠdesteÄŁ e
Ġdonan Ä±m
Ġodak lÄ±
Ġturist lere
ĠgerÃ§ekleÅŁmedi ÄŁi
Ġsens Ã¶rÃ¼
ĠÅŁifrem in
ĠyakÄ±ÅŁtÄ±r amadÄ±m
ĠYÃ¶netic iler
Ġvideolar Ä±nÄ±n
ĠÃĩekirde k
Ġkilomet re
ĠGÃ¶rsel lerde
Evlen eceÄŁiz
ĠfÄ±rs ata
ĠmÃ¼dÃ¼rlÃ¼ÄŁ Ã¼ne
ĠKims eyi
ĠKaybet tiler
ĠDenet Ã§iliÄŁi
ĠRezil liÄŁi
ĠGÃ¼ncelle meden
ĠÄ°kit elli
Ġhavaalan Ä±
Ġkarac ayÄ±
ĠTutarsÄ±z lÄ±ÄŁÄ±
Ġsafh ada
Ġmecburiyet ten
Ġkargon uzu
Ġoperasyon el
Ġkeyif li
Ġyiyecek lerin
Ġvurdumduymaz lÄ±k
Orhan lÄ±
Ġdamla cÄ±k
Demird Ã¶kÃ¼m
ĠkarÄ±nc alar
Ġhissediyor um
ĠyÃ¼kselt ip
ĠKemal paÅŁa
ĠMekan larda
KardeÅŁ ler
ĠvasÄ±tasÄ± yla
ĠrÃ¼zg ar
ĠUmurs amaz
105 0
426 966
AG T
Ah bap
Ax ess
AcÄ± badem
AÄŁust osun
Afyon karahisar
Betf ica
Bebe ÄŁim
Bod r
Cig na
Cinem arine
DR D
Diz ayn
Doy uyo
Fen erium
Fair y
Frit olay
Gal lery
Gago z
Gust o
Group ama
Hir emco
Hit it
HÃ¼p pe
Hepsi jet
Hane dan
IN C
KÃ¼r esel
Kam u
KuÅŁ adasÄ±
Lambi ance
Me dilife
Mik ro
Mod alife
Ni met
Nal lÄ±han
Nor se
Nak it
Nab Ä±z
Pey man
Pub gm
PaÃ§ i
Perm olit
Ru ff
Rem ington
Rix os
Sc otch
Sn opy
Sut esis
Sing er
Sens odyne
Syos s
Th y
Tor oslar
Tuk aÅŁ
Tup perware
Uy gulama
Ura w
Ulus oy
Zeh ra
bas tar
cl one
ciy es
fort line
jit eri
nit Ã¼r
nhe iser
oCh ic
tas iye
viy eli
erru cci
Ġbag aj
Ġband rol
ĠbÄ±Ã§ aÄŁÄ±
orhip o
Ġsip erlik
Ġsiler ken
Ġkalar ak
ĠgÃ¼c Ã¼nÃ¼
Ġyiy elim
olos luk
eterin erlik
imark a
Ġtik sin
Ġtere ddÃ¼tsÃ¼z
Ġtrans feri
ĠtÃ¶v be
ayev leri
atÃ¼r re
atkaca gi
Ġheye can
onota dan
Ġdedir tti
Ġdeco der
ĠdehÅŁ et
ĠSez on
ĠSub ayevleri
ĠSurt aÅŁ
ĠSmil es
ĠSvad ba
ĠBiy ometrik
ĠBÃ¶re ÄŁi
ĠBrown s
ĠÃ§uv al
ĠTÄ±r aÅŁ
ĠTro y
ĠTurk ey
ĠTow ers
ĠTÃ¼ketic iyi
ĠTherm al
ĠKus uru
ĠKÃ¼l tÃ¼r
ĠKoÅŁ uyolu
ĠKOS GEB
ĠAst arÄ±
ĠAmi go
Ġmuy uz
itany um
Ġful l
Ġferm uar
Ġfinc anÄ±
Ġpank art
Ġpozit if
Ġneti celen
Ġnetic esinde
ĠMini bÃ¼s
ĠMÃ¼c bir
ĠMed ya
staf a
ĠHab eri
ĠHiperm arket
ĠGala xy
ĠGÃ¼le Ã§
ĠDra gos
ĠDos yasÄ±
ĠDigit al
ĠDia dermine
ĠDij ital
ĠDedik leri
ĠEMU I
ĠEdrem it
Ġrus Ã§a
ĠPah alÄ±
ĠPsik iyatri
ĠPamp ers
ĠPaten t
ĠPala ce
ĠkarÄ±ÅŁÄ±k lÄ±k
Ġetmes e
Ġarom alÄ±
ĠVez nede
ĠVac ation
ĠFos sil
ĠFeder asyonu
ĠOtop ark
ĠOetk er
Ġdahili ye
Ġsorgul at
epozit o
ĠNaut ilus
ĠNapolit en
ĠCom fortline
ĠCha i
ĠCebil on
ĠCerrah i
ĠCosmeti cs
ĠChro me
ĠCoun try
ĠaÃ§acaÄŁ Ä±mÄ±zÄ±
Ġparlat Ä±lma
ĠgÃ¶rÃ¼le ceÄŁi
Ġeliniz d
Ġteslima ta
ĠyanÄ±lmÄ±ÅŁ Ä±m
Ġgitgi de
ĠÅŀart larÄ±
ĠÅŀeh it
ĠÅŀalg am
Ġeklenen ler
ĠLacr oix
ĠaktarÄ± lacaÄŁÄ±
ĠkarÅŁÄ±lan masÄ±nÄ±
obert s
ĠParib as
Ġbeklemez dim
ĠyÃ¼zÃ¼ÄŁÃ¼m Ã¼
Ġmebla ÄŁda
Ġoyna dÄ±ÄŁÄ±
vedilik le
ĠWaik iki
ĠyÃ¶nergel ere
ĠIMA X
ĠIME I
Ġhastalar la
ĠEnerj isa
Anky ra
ĠBaÅŁÄ±b oÅŁ
ĠHercul es
ĠProdÃ¼k siyon
Ãĩocu ÄŁum
3096 232
Alfem o
2468 390
ĠboÅŁaltÄ±r ken
ÃĸSY M
ĠMahmut bey
Birarab am
ĠÄ°stinye Park
odonta x
ĠAsistan lÄ±k
ĠHavalim anÄ±
Ġsertif ik
Ġmetabol izma
ĠMÃ¼hendi s
ĠBulgur lu
Ġkavanoz unun
ĠInfa ce
Ġpoliklini ÄŁi
ĠQuant um
ĠKÃ¼Ã§Ã¼kbakk alkÃ¶y
ĠAirpod s
Sportsp ark
ĠDuÅŁakab in
Biobell inda
Electr olux
426966 49
Pubgm obile
Ruff les
Sutesis atkacagi
! .
! !,
" !,"
' ,
) ."
) âĢĻ
* '
+ +
- -
. '
. !,
. **
. ''
/ "
1 20
1 10
2 50
2 11
2 30
2 18
2 17
2 16
2 196
3 20
3 05
3 10
3 50
3 04
3 18
3 40
3 44
3 25
3 75
3 66
3 89
3 84
3 242
3 739
3 9575
4 50
4 19
4 14
4 27
4 75
4 35
4 86
4 89
4 95
4 37
4 84
4 2002
5 2
5 20
5 12
5 15
5 000
5 18
5 44
5 26
5 86
5 232
5 179
6 50
6 04
6 17
6 25
6 27
6 73
6 34
6 46
6 70
6 96
6 400
6 200
6 131
7 04
7 30
7 15
7 000
7 23
7 17
7 25
7 29
7 21
7 27
7 99
7 35
7 73
7 86
7 65
7 89
7 400
7 134
8 05
8 02
8 23
8 22
8 25
8 66
8 09
8 55
8 54
8 500
8 200
8 38
8 048
8 135
8 514
8 897
9 1
9 2
9 00
9 05
9 50
9 03
9 08
9 29
9 28
9 21
9 89
9 300
9 108
9 131
9 342
9 7934
: (
? !
? .
A D
A F
A I
A M
A N
A i
A z
A de
A ma
A Ã§
A il
A dÄ±
A la
A st
A lan
A let
A sat
A pt
A ÄŁa
A TM
A sansÃ¶r
A SKÄ°
A ilecek
A udi
A Ã§Ä±k
A DSL
A cemi
A danÄ±n
A tiker
A fili
A ura
A egon
A RÄ°Åŀ
B B
B L
B T
B n
B p
B r
B er
B in
B al
B el
B ek
B Ä±k
B it
B ul
B aÄŁ
B ye
B ab
B ra
B ca
B Ã¶yle
B ez
B ig
B oz
B eni
B oÅŁ
B ebek
B Ã¼tÃ¼n
B ize
B oya
B aba
B ron
B ell
B izi
B izde
B azÄ±
B io
B lender
B osp
B upa
B rit
B lack
B NP
B Ä°M
B algat
B ootloader
C A
C in
C on
C le
C am
C aÄŁ
C ih
C ev
C ihaz
C rat
C orona
C old
C ayma
C ag
C osta
C ity
C afe
C RÄ°
C vs
C epa
D F
D H
D a
D o
D Ã¶n
D iy
D om
D eme
D ede
D oktor
D erm
D alk
D oÄŁu
D estek
D uÅŁa
D Ã¼ÄŁÃ¼nÃ¼
D aik
D Ã¶ner
D umankaya
D urup
D arÄ±ca
D ivan
D ooble
D AF
E J
E g
E t
E z
E ce
E st
E ra
E ca
E zel
E fe
E TT
E pt
E lime
E cz
E hli
E CA
F C
F D
F F
F N
F W
F ar
F or
F il
F iz
F ark
F atur
F av
F ile
F ant
F otoÄŁraf
F aber
F alÄ±m
F abr
F ly
F ox
F ms
F lorence
F anta
F atsa
F errucci
G O
G V
G Y
G a
G ar
G er
G il
G en
G Ã¼r
G em
G ama
G erek
G ez
G ece
G Ã¶k
G las
G ayet
G ag
G Ã¼mÃ¼ÅŁ
G ym
G ebze
G dz
G elen
G ulf
G eyikli
G igbi
H M
H i
H y
H il
H ek
H um
H Ã¼r
H ep
H av
H ukuk
H ediye
H ert
H ala
H enÃ¼z
H avaÅŁ
H izmeti
H GS
H ijyen
H erkes
H SB
H edef
H onda
H jc
H RS
H AN
I M
I P
I s
I st
I NG
I ps
J B
J R
J T
J TV
J uki
J ust
J enny
K B
K P
K u
K er
K en
K ir
K ol
K um
K iÅŁ
K ul
K ok
K aÅŁ
K ey
K Ä±s
K ama
K ad
K arak
K eÅŁ
K ampan
K estel
K oca
K obil
K atÄ±
K PS
K uru
K ronik
K arab
K ang
K Ã¶f
K uzey
K esin
K ombi
K arabaÄŁlar
K adÄ±kÃ¶y
K VK
K Ã¶prÃ¼
K uzeyden
K norr
K rc
K elebek
K eÃ§iÃ¶ren
K osla
K KB
L B
L E
L P
L a
L i
L et
L ev
L av
L Ã¼t
L iv
L An
L ia
L ens
L enov
L Ã¼le
L ag
L ED
L azza
L ux
L event
L AV
L eggo
L oreal
M I
M P
M Q
M V
M n
M y
M ir
M as
M Ã¼r
M it
M is
M eri
M ama
M Ã¼ÅŁt
M uÅŁ
M ac
M ev
M ers
M eÅŁ
M ed
M Ã¼f
M aret
M alat
M asa
M oto
M ehmet
M igren
M epa
M ogan
M cafee
M orhipo
N N
N o
N il
N ir
N as
N az
N ef
N ere
N atur
N asÄ±l
N ov
N erede
N ormal
N eden
N uh
N isa
N kol
N okian
N issan
N artest
N towers
N arlÄ±dere
O D
O Y
O a
O p
O s
O lay
O tel
O pp
O ÄŁl
O tok
O sman
O dalar
O dak
O ÄŁlu
P U
P i
P t
P il
P ir
P la
P is
P ara
P az
P ine
P lan
P ad
P os
P eg
P ars
P ide
P andemi
P algaz
P izza
P era
P alet
P NR
P iazza
P FK
P latin
P UBG
P eÅŁin
P DK
P apaÄŁan
P ostamÄ±
R E
R P
R T
R it
R op
R ize
R eklam
R io
R KS
R eal
R emax
R oberts
S U
S Z
S er
S ma
S il
S el
S et
S Ä±k
S it
S is
S Ä±r
S ab
S ez
S ev
S os
S aya
S istem
S Ã¶k
S enin
S oda
S onu
S usur
S her
S incan
S aray
S ky
S adÄ±k
S edaÅŁ
S ebebi
S usuz
S oob
S encard
S Ã¼vari
S afran
S choll
S icili
S oChic
T E
T L
T ir
T el
T at
T ok
T ah
T ut
T eme
T Ä±p
T oz
T araf
T eÅŁ
T anÄ±
T amam
T ic
T arÄ±m
T Ã¼ketici
T encere
T ell
T uru
T Ã¼b
T our
T ele
T rop
T EB
T YT
T enda
T ree
T NET
T ulipa
T eba
T uborg
T riathlon
T rump
T ARÄ°Åŀ
U m
U r
U z
U cu
U ÅŁk
V C
V T
V b
V o
V en
V is
V ale
V ant
V ia
V izyon
V ic
V irÃ¼s
V iss
V tech
V ys
V ivobook
W o
W in
W el
W et
W ell
W hatsApp
W ww
W etten
W esse
X O
X uma
X box
X AL
Y o
Y er
Y Ã¶n
Y oÄŁ
Y oy
Y Ã¶r
Y edek
Y DS
Y erli
Y apÄ±
Y etk
Y umuÅŁ
Y amaha
Y enilen
Y epita
Y alÄ±kavak
Y oyuncak
Y LP
Z or
Z en
Z ev
Z aten
Z eki
Z yXEL
Z uri
Z SY
Z onguldak
Z AL
Z oom
Z Ã¼mrÃ¼t
Z SU
a a
a in
a dil
a dÄ±ÄŁÄ±m
a dÄ±r
a id
a masÄ±nda
a oÄŁlu
a aca
a Ã¼stÃ¼
a Derm
b E
b d
b g
b j
b or
b ol
b ak
b ek
b le
b inde
b ara
b aÄŁ
b eri
b ih
b Ã¼k
b eti
b inin
b isi
b aj
b unun
b aha
b olu
b Ã¶l
b imde
b ru
b ing
b ebe
b erj
b uzda
b azÄ±
b rek
b Ã¼se
b aÄŁlar
b Ã¶rek
b lock
b vh
b lebi
b unlarÄ±n
b iyatÄ±
c n
c x
c or
c en
c on
c ap
c as
c is
c az
c Ä±nÄ±
c ah
c Ã¼k
c alÄ±
c isi
c lu
c Ä±mÄ±
c eli
c aya
c Ä±nÄ±n
c eler
c amÄ±
c umu
c uyu
c Ä±lÄ±ÄŁ
c ilerin
c Ä±lÄ±ÄŁÄ±
c iyi
c iydi
c isini
c esiyle
c lon
c ita
c alardan
c uza
d b
d f
d x
d or
d Ã¼n
d un
d inde
d ini
d ra
d Ä±nda
d Ä±nÄ±
d unu
d alÄ±
d yon
d rÄ±
d unda
d Ã¼ÄŁ
d det
d Ã¼nde
d Ã¼zel
d ding
d ullu
d denin
d alga
e an
e dim
e ep
e us
e ÄŁini
e arl
e DÃ¼nya
f c
f s
f u
f an
f al
f ir
f et
f ek
f Ä±r
f ta
f atur
f ot
f ran
f imiz
f Ä±sÄ±
f azla
f undan
f ert
f Ã¼mÃ¼
f onu
f alt
f Ã¼rmÃ¼yor
f etleri
f ps
f iyatÄ±
g j
g n
g r
g t
g y
g ay
g on
g as
g ara
g eri
g ine
g unu
g larÄ±
g Ã¶z
g inin
g art
g man
g Ã¼t
g aranti
g eler
g raf
g erÃ§ek
g amadÄ±m
g Ã¶l
g ant
g eyi
g eleri
g esini
g enel
g ort
g ramÄ±
g enÃ§
g ena
g mail
g fk
g erÃ§ekten
h n
h in
h or
h en
h ek
h es
h Ã¼r
h am
h ul
h iÃ§
h ad
h ep
h ot
h op
h eli
h lama
h akk
h oÅŁ
h ist
h oc
h ite
h epsi
h umlu
h bet
h onors
h Ä±zlÄ±
h emen
i et
i ade
i asÄ±
i uma
i com
i era
i express
i masyon
j o
j y
j z
j er
j ek
j ik
j ans
j inal
j uru
j iyo
k Ä±
k Ã¶
k im
k um
k un
k lar
k Ä±z
k ini
k Ä±nÄ±
k Ã¼m
k asÄ±
k Ä±na
k ez
k ere
k ut
k inin
k oz
k aran
k oy
k op
k adaÅŁ
k azan
k uyu
k siyon
k Ã¶tÃ¼
k ala
k amil
k lamÄ±yor
k aray
k imden
k iÅŁi
k Ã¶f
k Ä±ÅŁlÄ±
k lor
k uzen
k Ä±lÄ±Ã§
k jet
k irli
k Ã¶fte
k rc
k ikan
l z
l ma
l el
l is
l dir
l inin
l Ä±mÄ±
l aya
l Ä±nÄ±n
l ekli
l Ä±mÄ±z
l Ä±yoruz
l Ä±yorsunuz
l osu
l Ã¼ne
l ona
l ke
l esini
l Ä±lÄ±k
l ora
l Ä±lÄ±ÄŁ
l umun
l Ã¼nÃ¼n
l ink
l alÄ±ÄŁÄ±
l Ä±sÄ±yÄ±m
l olarÄ±
l Ä±mla
l Ä±mÄ±zda
l gesi
l illeri
l gari
l ira
l clone
m g
m Ã¼
m lar
m Ä±z
m iy
m Ä±na
m iniz
m uy
m ot
m iyet
m ode
m oda
m od
m lardan
m utfak
m alara
m ond
m osun
m rÃ¼
m illi
m Ã¼rÃ¼l
m iyo
m arket
m Ä±sÄ±r
m Ä±sÄ±nÄ±z
m Ã¼thiÅŁ
m db
n ce
n ine
n ot
n asÄ±nda
n iye
n isan
n uma
n ormal
n eyi
n deki
n iyeti
n emin
n edik
n edip
o di
o ut
o gu
o din
o daki
o sunda
o ody
p an
p il
p aÅŁ
p uz
p ad
p anÄ±n
p manÄ±n
p ati
p his
p ado
p endik
p Ä±nÄ±yorum
p ang
p ansiyon
p hone
p laka
p fk
p gra
p miÅŁsiniz
p hanede
p fs
q q
r y
r al
r Ä±m
r ap
r Ä±l
r ip
r eti
r aman
r elik
r eni
r Ã¼y
r ib
r imin
r tesi
r ibi
r uluk
r ulmuÅŁ
r ayan
r Ä±ntÄ±lÄ±
r isin
r Ã¼mÃ¼n
r ms
r Ã¼sÃ¼
s o
s v
s or
s Ã¶
s im
s Ã¼r
s is
s Ã¶y
s ki
s ef
s esi
s lÄ±
s aat
s alar
s Ä±ndan
s aÃ§
s os
s av
s us
s iler
s eni
s Ã¼p
s arÄ±
s amÄ±
s Ã¼l
s ist
s amsung
s Ã¼pÃ¼r
s atÄ±
s ly
s alarÄ±n
s ulan
s sey
s sÃ¼z
s aydÄ±m
s isinde
s ym
s arÄ±kÄ±z
s aydÄ±nÄ±z
s Ä±ra
s ihirli
t b
t d
t w
t ma
t Ä±n
t Ä±yor
t inde
t tÄ±
t ab
t Ä±nÄ±
t tÄ±m
t larÄ±
t elefon
t te
t tÃ¼
t mesi
t aÄŁÄ±
t asÄ±nda
t ist
t esine
t mÄ±yorlar
t unuz
t ileri
t fe
t tum
t isine
t ess
t inizde
t uyorlar
t ilmez
t eci
t meleri
t uzlu
t eyle
t ladÄ±ÄŁÄ±m
t apark
t emis
t oman
t eriy
t tiklerini
t ropay
t gart
u d
u larÄ±
u anÄ±n
u larÄ±n
u mama
u anÄ±
u ch
u duÄŁum
u ess
u ise
u gaz
u tiye
u cumu
v c
v d
v m
v o
v de
v me
v im
v ay
v uz
v asÄ±
v ama
v iÃ§
v ec
v ana
v isi
v eli
v iv
v alÄ±k
v asÄ±nÄ±
v Ä±c
v ari
v allah
v idi
v yenin
v eÅŁli
w h
w in
w ell
w ork
w ser
w df
x o
x pora
y k
y y
y un
y ur
y Ä±k
y am
y du
y aÅŁ
y lan
y dim
y miÅŁ
y ana
y iniz
y dÄ±k
y aman
y dum
y san
y om
y man
y eni
y aÄŁÄ±
y alan
y asÄ±nda
y esinde
y asyon
y aklaÅŁÄ±k
y sek
y aki
y eleri
y esini
y sanÄ±z
y ola
y alt
y per
y nÄ±n
y mÃ¼ÅŁ
y etimi
y sem
y alarÄ±n
y umur
y umlu
y olar
y aÄŁÄ±nÄ±
y urdu
y miÅŁiz
y lclone
y rÄ±l
z i
z y
z il
z at
z em
z af
z ada
z aten
z og
z sem
z Ä±ÄŁ
z ular
z Ã¼bey
z irme
z baha
» bu
Ã ®
Ġ _
Ġ q
Ġ ~
Ġ Ä±n
Ġ lar
Ġ Ã¼ÅŁ
Ġ esi
Ġ lÄ±
Ġ Ä±na
Ġ dÄ±r
Ġ !,
Ġ aman
Ġ Ä±p
Ġ unda
Ġ larÄ±nÄ±
Ġ Ã¼ne
Ġ 000
Ġ we
Ġ ****
Ġ Ä±lÄ±k
Ġ âĤ
Ġ ÂłÂł
Ġ cafe
Ġ qu
Ġ land
Ġ erime
Ġ *.
Ġ Ä·
Ġ Äı
Ġ ðŁ
Ġ Ä±ldÄ±r
Ġ eridi
Ĥ lÃ¢
Į ,
ĳ Į,
ĺ ı
Ä± y
Ä± lar
Ä± tÄ±
Ä± yÄ±m
Ä± tÄ±ÄŁÄ±
Ä± ÈĻ
Ä± jz
Ä± vana
ar Ä±z
ar Ä±r
ar ta
ar esi
ar mÄ±yor
ar masÄ±
ar tÄ±k
ar us
ar aya
ar yen
ar iye
ar lÄ±ÄŁÄ±
ar ov
ar ru
ar yasÄ±
ar larÄ±nda
ar Ä±sÄ±z
ar esini
ar lardan
ar ayla
ar osa
ar tÄ±cÄ±
ar yayÄ±
ar yolar
Ã¼ Ã§
Ã¼ el
Ã¼ den
Ã¼ met
Ã¼ cret
Ã¼ ve
Ã¼ dÃ¼
Ã¼ fe
Ã¼ vet
Ã¼ dÃ¼nde
ÅŁ a
ÅŁ en
ÅŁ Ä±n
ÅŁ ak
ÅŁ iyor
ÅŁ em
ÅŁ af
ÅŁ ub
ÅŁ eli
ÅŁ iv
ÅŁ tur
ÅŁ sÄ±zlÄ±k
ÅŁ ova
ÅŁ iÅŁi
ÅŁ idi
ÅŁ ahÄ±
ÅŁ irket
er p
er den
er esi
er der
er ana
er isi
er re
er gah
er atif
er ikan
er itsiz
er gy
an c
an an
an ak
an am
an Ä±nda
an Ä±na
an mÄ±yor
an ep
an os
an eler
an bul
an eye
an lara
an dar
an esini
an Ä±lan
an ger
an adolu
an taj
an esiyle
an nem
an lÄ±ÄŁa
an neme
an nÄ±m
an layamadÄ±m
Ġb c
Ġb p
Ġb Ã¼
Ġb an
Ġb Ã¼n
Ġb ik
Ġb inde
Ġb is
Ġb ara
Ġb asÄ±
Ġb erek
Ġb len
Ġb ot
Ġb ran
Ġb eÄŁ
Ġb acak
Ġb one
Ġb unca
Ġb alt
Ġb atÄ±
Ġb oÄŁu
Ġb acaÄŁÄ±
Ġb alat
Ġb pa
Ġb aca
Ġb acasÄ±
Ġb andÄ±
Ġb araj
Ġb ihaber
Ġb Ã¼klÃ¼m
Ġb acaÄŁÄ±na
de dil
de dim
de ÄŁer
de miyorum
de yiz
de sinde
de kileri
in m
in me
in el
in es
in inde
in ti
in lan
in gil
in san
in ter
in mesi
in likle
in ch
in ant
in esini
in omi
in asÄ±z
in tisi
in ova
in canÄ±n
in yum
ÄŁ en
ÄŁ Ä±m
ÄŁ le
ÄŁ ul
ÄŁ unda
ÄŁ unun
ÄŁ Ä±mda
ÄŁ unuzu
ÄŁ undaki
ÄŁ Ä±ndadÄ±r
al m
al Ã§
al ok
al dÄ±m
al dÄ±ÄŁÄ±m
al dÄ±k
al lem
al dÄ±ÄŁÄ±
al mam
al lara
al Ä±ntÄ±
al Ä±mda
al abÄ±
al leme
al etim
al eyi
al fi
al larÄ±na
al acaÄŁÄ±nÄ±
al Ä±sÄ±nÄ±
al iliÄŁi
al dÄ±z
al ayarak
al dÄ±ÄŁÄ±ma
al ayamÄ±yorum
ma d
ma Ã§
ma dÄ±r
ma te
ma dik
ma masÄ±nÄ±
ma alesef
ma dÄ±ÄŁÄ±nÄ±z
ma hall
ma halle
ma vi
ma casÄ±
ma ÅŁsÄ±zlÄ±k
or n
or an
or is
or asÄ±
or aya
or ite
or mayÄ±
or isinden
or uyucu
or pan
or armasÄ±
Ġs b
Ġs c
Ġs m
Ġs ek
Ġs ik
Ġs am
Ġs ipar
Ġs ade
Ġs Ã¼m
Ġs Ã¼k
Ġs ub
Ġs ut
Ġs iniz
Ġs lim
Ġs ter
Ġs us
Ġs ank
Ġs eni
Ġs aÄŁÄ±
Ġs iv
Ġs Ä±f
Ġs Ã¼l
Ġs esinde
Ġs eye
Ġs tor
Ġs aha
Ġs imdi
Ġs olu
Ġs eris
Ġs ch
Ġs eg
Ġs etim
Ġs enin
Ġs ilmiÅŁ
Ġs arÄ±m
Ġs can
Ġs ola
Ġs erb
Ġs avaÅŁ
Ġs ube
Ġs ag
Ġs ise
Ġs ultan
Ġs co
Ġs tresi
Ġs amandÄ±ra
Ġs erisini
Ġs hirt
Ġs spor
Ġs aracak
Ġs ihirli
Ġs vc
Ġk t
Ġk Ä±n
Ġk eri
Ġk esi
Ġk ayÄ±
Ġk Ä±p
Ġk oz
Ġk isi
Ġk uy
Ġk ot
Ġk Ã¼t
Ġk ayÄ±s
Ġk ob
Ġk Ä±lÄ±
Ġk eki
Ġk rat
Ġk uv
Ġk emi
Ġk umlu
Ġk isinin
Ġk Ã¢
Ġk ea
Ġk uzey
Ġk aka
Ġk ayÄ±sÄ±
Ġk uzeyden
Ġk lip
Ġk eten
Ġk isilik
Ġk eÃ§e
Ġk wh
Ã§ Ä±n
Ã§ Ä±m
Ã§ la
Ã§ ap
Ã§ Ä±l
Ã§ inde
Ã§ aÄŁ
Ã§ alÄ±
Ã§ larÄ±
Ã§ isi
Ã§ Ä±sÄ±
Ã§ eye
Ã§ ayÄ±n
Ã§ enin
Ã§ amaÅŁÄ±r
Ã§ Ä±lÄ±k
Ã§ Ä±ya
Ã§ asÄ±nÄ±n
Ã§ emiz
Ã§ Ã¼ÄŁÃ¼
Ã§ Ä±ÄŁ
Ã§ ova
Ã§ isiyim
Ã§ Ã¼ler
Ã§ elievler
Ã§ ular
Ã§ arÅŁ
Ã§ eÅŁme
Ã§ hul
il k
il an
il et
il Ä±k
il met
il edi
il erek
il iyorum
il lerini
il ekli
il meye
il eler
il mesine
il gilen
il lerde
il ite
il eleri
il mekte
il medik
il eceÄŁi
il mektedir
il meyecek
il emeyen
il yum
il mesiydi
il eÅŁtir
il budur
Ġg n
Ġg Ä±
Ġg ol
Ġg un
Ġg am
Ġg Ä±na
Ġg Ã¼z
Ġg lik
Ġg aran
Ġg alan
Ġg ocu
Ġg ram
Ġg of
Ġg azi
Ġg iydi
Ġg erdi
Ġg arab
Ġg Ã¼ldÃ¼
Ġg ofret
Ġg aming
Ġg Ã¼zar
Ġg room
Ġg low
Ġg ramaj
Ġg aleri
Ġg aloÅŁ
Ġg oody
en iÅŁ
en az
en den
en tal
en ci
en siz
en tel
en iyorlar
en dy
en sin
en ger
en ha
en memize
en gin
en ni
en gen
en nem
en kul
en dor
en pil
ir en
ir az
ir dim
ir miyor
ir inin
ir ilmiÅŁ
ir eceÄŁim
ir sem
ir ni
ir Ã¼se
ir baz
ir inc
ir lenip
ir tmeleri
Ġy o
Ġy u
Ġy Ã¼
Ġy ek
Ġy Ã¼n
Ġy ah
Ġy iyorum
Ġy av
Ġy Ä±p
Ġy Ä±la
Ġy iyorsunuz
Ġy emi
Ġy eÄŁen
Ġy alama
Ġy emin
Ġy urti
Ġy ahu
Ġy itir
Ġy edeÄŁi
Ġy usuf
Ġy amayacaÄŁÄ±mÄ±
Ġy inel
Ġy aldÄ±z
di o
di ÄŁinde
di gim
Ä±n s
Ä±n Ã§
Ä±n dÄ±
Ä±n Ä±k
Ä±n Ä±yor
Ä±n alÄ±
Ä±n dÄ±r
Ä±n arak
Ä±n maya
Ä±n dÄ±ÄŁÄ±
Ä±n Ä±mÄ±n
Ä±n era
Ä±n dÄ±rÄ±cÄ±
Ä±n calardan
me x
me le
me miyor
me mez
me yim
me lerinden
me mektedir
me cik
yor uz
dÄ± Rio
dÄ± ÅŁÄ±n
Ã¶ ÄŁ
Ã¶ ken
Ã¶ ten
Ã¶ lÃ¼k
Ã¶ tesi
Ã¶ mÃ¼r
da sÄ±
da sÄ±n
da yÄ±z
da tÄ±cÄ±
ol or
ol et
ol ab
ol arak
ol anÄ±n
ol acak
ol maz
ol arÄ±m
ol asÄ±z
ol yo
ol amÄ±ÅŁ
ol kswagen
ol uydu
el ek
el ini
el ey
el uÅŁ
el ecek
el iyim
el ale
el sin
el eden
el ebi
el Ã§uk
el iÅŁk
el ance
el sef
et al
et tiler
et imin
et lerin
et lerden
et ink
et tin
et mesiyle
et pro
et Ã§ap
im o
im iÅŁ
im ler
im dir
im inin
im iyet
im imize
im lerimizi
im ano
im beyli
im pia
Ġt i
Ġt m
Ġt n
Ġt x
Ġt Ã¼
Ġt un
Ġt iÅŁ
Ġt ok
Ġt elef
Ġt ev
Ġt urum
Ġt Ä±p
Ġt eli
Ġt amÄ±
Ġt iye
Ġt amp
Ġt enc
Ġt ru
Ġt ram
Ġt Ã¼keti
Ġt resi
Ġt onu
Ġt rak
Ġt ort
Ġt ril
Ġt amama
Ġt Ã¶ren
Ġt uzu
Ġt Ã¼lÃ¼
Ġt iki
Ġt otal
Ġt etk
Ġt ezgah
Ġt ampon
Ġt itiz
Ġt ransit
Ġt iyatrol
Ġt Ã¶rpÃ¼sÃ¼
Ġt itanyum
Ġt yana
ay l
ay ar
ay im
ay Ã¼z
ay lÄ±k
ay dÄ±k
ay can
ay alÄ±m
ay acaÄŁÄ±z
ay amadÄ±
ay lon
ay inim
at ma
at ya
at ih
at tÄ±m
at lÄ±k
at os
at Ã¼s
at asÄ±ndan
at adan
at uv
at Ä±c
at tÄ±ÄŁÄ±nÄ±z
at ali
at ifi
Ġi si
Ġi ka
Ġi yim
Ġi vedilikle
Ġi Pad
ak e
ak ma
ak il
ak ip
ak ra
ak asÄ±
ak larÄ±
ak ter
ak oy
ak iler
ak lama
ak sÄ±z
ak lÄ±ÄŁ
ak Ã§e
ak sÄ±nÄ±z
ak Ã¶ÅŁ
Ġv ek
Ġv ip
Ġv ah
Ġv uk
Ġv eli
Ġv if
Ġv ale
Ġv aki
Ġv ic
Ġv adi
Ġv inÃ§
Ġv iÅŁne
Ġv ostro
Ġv illalarÄ±
Ġv eterinerlik
Ġv mg
Ġv odin
Ġh i
Ġh k
Ġh ip
Ġh aÅŁ
Ġh Ã¼k
Ġh ikay
Ġh om
Ġh us
Ġh eme
Ġh ene
Ġh orm
Ġh Ä±zÄ±
Ġh ile
Ġh Ä±za
Ġh oroz
Ġh ms
Ġh ilev
Ġh ende
Ġh jc
Ġh iyer
Ġh ediyenin
Ġh eba
Ġh ortumu
Ġh honors
Ġh ileleri
Ġh Ã¶ken
ek or
ek Ã¶y
ek kÃ¼
ek likte
ek ent
ek ÅŁe
ek ai
ek tro
Ã¼n ya
Ã¼n ef
Ã¼n dÃ¼
Ã¼n Ã¼yorum
Ã¼n sÃ¼p
um du
um den
um bi
um su
um berj
um inyum
un iz
un du
un maya
un amÄ±
un dar
un duÄŁum
un iyeti
un lardan
un ny
un lulu
un luluk
un anistan
on or
on el
on dan
on ti
on eri
on ica
on uzda
on for
on atlÄ±
on gj
Ä±m Ä±yor
Ä±m ca
Ä±m Ä±na
Ä±m larÄ±
Ä±m cÄ±
Ä±m lama
Ä±m larÄ±nÄ±z
es b
es e
es ik
es ta
es ec
es to
es aret
es ila
es naf
es eydik
Ġol ar
Ġol aÄŁ
Ġol ana
Ġol acaÄŁ
Ġol gu
Ġol ayÄ±n
Ġol sanÄ±z
Ġol maktadÄ±r
Ġol acaÄŁÄ±mÄ±
Ġol unuyor
Ġol manÄ±z
Ġol amadan
Ġol amayan
Ġol manÄ±za
Ġol mu
Ġol malarÄ±na
Ġol muy
Ġol impia
la maya
la man
la va
la dÄ±ktan
la caÄŁÄ±nÄ±
la masÄ±ndan
la masÄ±nÄ±n
la masÄ±z
la sÄ±nlar
la madÄ±klarÄ±
la valÄ±k
la zÄ±ÄŁ
ap u
ap ist
ap acaÄŁÄ±m
ap araya
iz im
iz ik
iz ler
iz liÄŁi
iz mir
iz eyi
iz min
iz lerimizi
iz ami
iÅŁ er
iÅŁ inde
iÅŁ ini
iÅŁ lerde
iÅŁ emiyorum
iÅŁ miÅŁti
iÅŁ ancÄ±
iÅŁ tiÄŁini
iÅŁ igÃ¼zel
Ġde d
Ġde s
Ġde t
Ġde da
Ġde li
Ġde dil
Ġde meye
Ġde mi
Ġde mez
Ġde miyorum
Ġde meme
Ġde meli
Ġde sem
Ġde tayÄ±m
Ġde miÅŁti
Ġde meyecek
Ġde tayÄ±
Ġde meyeceÄŁim
Ġde zen
Ġde meleri
Ġde meyin
Ġde lin
Ġde seydi
Ġde bisi
Ġde ldir
ur o
ur da
ur la
ur is
ur san
ur us
ur op
ur muÅŁ
ur duÄŁum
ur kiye
ur na
ur yasÄ±
ur sanÄ±z
ur malÄ±
ur uyorlar
ur ach
ur eus
ur Ã§la
lar dÄ±m
lar sanÄ±z
as u
as am
as ul
as aÄŁ
as ip
as lÄ±
as Ä±nÄ±z
as ehir
as ebe
as eyit
as io
as ho
as hq
as sist
as tladÄ±ÄŁÄ±m
ĠS W
ĠS n
ĠS ma
ĠS im
ĠS ap
ĠS is
ĠS ip
ĠS em
ĠS eri
ĠS ih
ĠS Ã¶y
ĠS unu
ĠS Ã¼z
ĠS af
ĠS ana
ĠS lim
ĠS av
ĠS tÃ¼
ĠS op
ĠS igor
ĠS Ã¼p
ĠS ene
ĠS iv
ĠS if
ĠS ayÄ±n
ĠS alg
ĠS oya
ĠS oda
ĠS of
ĠS inir
ĠS aklÄ±k
ĠS kan
ĠS izde
ĠS elim
ĠS ari
ĠS Ã¼le
ĠS ag
ĠS ulu
ĠS oma
ĠS aray
ĠS ilme
ĠS ipa
ĠS asa
ĠS arÄ±k
ĠS Ã¼tÃ¼
ĠS urat
ĠS tand
ĠS PG
ĠS adÄ±k
ĠS ms
ĠS ym
ĠS Ä±Ã§
ĠS usuz
ĠS ela
ĠS ayÄ±sÄ±
ĠS ifon
ĠS tÃ¼dyo
ĠS EG
ĠS GK
ĠS choll
ĠS icili
ĠS oChic
ĠS IP
ĠS elÃ§uk
ĠS unny
Ġal in
Ġal im
Ġal Ä±k
Ġal aÅŁ
Ġal Ä±nda
Ġal asÄ±
Ġal lÄ±k
Ġal masÄ±
Ġal san
Ġal acaÄŁ
Ġal may
Ġal amÄ±
Ġal dÄ±ÄŁÄ±nÄ±
Ġal amam
Ġal mayan
Ġal manÄ±n
Ġal sanÄ±z
Ġal alÄ±m
Ġal lah
Ġal Ä±rÄ±m
Ġal Ä±c
Ġal mayÄ±n
Ġal amadÄ±
Ġal dÄ±n
Ġal Ä±ÅŁÄ±k
Ġal gÄ±
Ġal ici
Ġal layÄ±p
Ġal sak
Ġal ena
Ġal etten
Ġal amayacaÄŁ
Ġal mÄ±yorum
Ġal malarÄ±nÄ±
Ġal madÄ±klarÄ±nÄ±
Ġal Äı
Ġal afran
Ġal malarÄ±na
Ġal iexpress
Ġal kÄ±ÅŁlÄ±
Ġal saydÄ±m
Ġal uminyum
ik e
ik ar
ik er
ik im
ik leri
ik te
ik ada
ik aten
ik irde
ik alÄ±ÄŁÄ±
ik lin
ik erin
ik amÄ±zÄ±n
ik veÅŁli
ik izler
ĠB et
ĠB inde
ĠB ara
ĠB ine
ĠB ec
ĠB ro
ĠB os
ĠB Ã¶r
ĠB Ã¼y
ĠB ist
ĠB eye
ĠB alÄ±k
ĠB id
ĠB ri
ĠB arda
ĠB lo
ĠB arb
ĠB Ã¼f
ĠB ari
ĠB ina
ĠB attÄ±
ĠB azÄ±
ĠB io
ĠB pa
ĠB lender
ĠB Ä°MER
ĠB iskÃ¼
ĠB Ã¶yl
ĠB andÄ±
ĠB iskÃ¼v
ĠB embeyaz
ĠB lock
ĠB NP
ĠB Ä°M
ĠB ihaber
ĠB Ã¼klÃ¼m
ĠB algat
ĠB ootloader
ĠB DH
ĠB Ã¶lÃ¼k
Ġbir a
Ġbir eb
Ġbir iniz
Ġbir iyle
Ġbir liÄŁi
Ġbir imin
Ġbir eyim
Ġbir lerce
Ġbir isini
Ġbir imizin
Ġbir leÅŁtir
Ġbir ilerine
Ġbir leÅŁme
Ġbir ÅŁe
Ä±k ra
Ä±k lÄ±
Ä±k Ã§a
Ä±k ent
Ä±k mÄ±ÅŁtÄ±m
Ä±k kÃ¶y
ĠÃ§ e
ĠÃ§ Ä±r
ĠÃ§ iÃ§
ĠÃ§ Ä±p
ĠÃ§ eÅŁ
ĠÃ§ iv
ĠÃ§ Ä±ldÄ±
ĠÃ§ mama
ĠÃ§ ayÄ±n
ĠÃ§ irk
ĠÃ§ ile
ĠÃ§ Ä±t
ĠÃ§ aba
ĠÃ§ amaÅŁ
ĠÃ§ alk
ĠÃ§ iÃ§ek
ĠÃ§ ubu
ĠÃ§ arkÄ±
ĠÃ§ oluk
ĠÃ§ eliÄŁinde
ĠÃ§ anta
ĠÃ§ Ã¼rÃ¼me
ĠÃ§ ifte
ĠÃ§ adÄ±r
ĠÃ§ anak
ĠÃ§ ilekli
ĠÃ§ eliÅŁk
le ÄŁim
le medi
le ÄŁi
le ÄŁini
le meyen
le mez
le diÄŁimiz
le ÄŁiz
le diÄŁi
le ÄŁine
le dikten
le memize
le dikleri
le diÄŁini
le gal
le win
le ÄŁen
Ã¼r ler
Ã¼r ih
Ã¼r Ã¼m
Ã¼r Ã¼t
Ã¼r dÃ¼m
Ã¼r lÃ¼k
Ã¼r sel
Ã¼r acaat
Ã¼r dÃ¼nÃ¼z
Ä±yor du
Ä±yor dum
Ä±yor duk
am ar
am ur
am is
am ul
am ark
am Ä±na
am met
am masÄ±
am Ä±zÄ±
am Ä±zda
am ent
am alarÄ±nÄ±
am ulmasÄ±
am uÄŁu
am arine
ĠT C
ĠT M
ĠT b
ĠT az
ĠT uÅŁ
ĠT elef
ĠT om
ĠT ime
ĠT raf
ĠT enc
ĠT Ãľ
ĠT ert
ĠT rendy
ĠT amaÅŁ
ĠT erb
ĠT itre
ĠT itr
ĠT aciz
ĠT rim
ĠT enek
ĠT uÅŁa
ĠT iki
ĠT ett
ĠT onda
ĠT ampon
ĠT uÅŁu
ĠT elefunken
ĠT ebrik
ĠT ree
ĠT raya
ĠT ulipa
ĠT uborg
ĠT ransit
ĠT iyatrol
ĠT Ã¶rpÃ¼sÃ¼
ĠT riathlon
ĠT rump
ĠT itanyum
ĠT TNET
ĠT ayinim
ĠT oneri
ĠT apu
ĠT ikveÅŁli
Ġd c
Ġd g
Ġd h
Ġd o
Ġd w
Ġd Ã¼
Ġd un
Ġd Ã¼m
Ġd oy
Ġd ans
Ġd Ã¼ne
Ġd Ã¼ÄŁÃ¼m
Ġd omino
Ġd umanda
Ġd fix
Ġd uÅŁa
Ġd Ci
Ġd omuz
Ġd vd
Ġd Ä±nera
Ġd umdu
ler dik
ler inize
ler imizin
Ġa dan
Ġa ab
Ġa ca
Ġa ef
Ġa dimi
Ġa aa
Ġa ureus
ĠK O
ĠK ek
ĠK um
ĠK az
ĠK ade
ĠK ef
ĠK ere
ĠK imi
ĠK av
ĠK asÄ±l
ĠK re
ĠK Ã¶r
ĠK orm
ĠK Ä±la
ĠK amp
ĠK id
ĠK abÄ±
ĠK ov
ĠK Ã¶k
ĠK orum
ĠK Ä±ya
ĠK ata
ĠK uv
ĠK atÄ±
ĠK ork
ĠK ula
ĠK amil
ĠK uzu
ĠK uzey
ĠK umaÅŁ
ĠK ett
ĠK elime
ĠK VK
ĠK dz
ĠK avak
ĠK ilidi
ĠK redim
ĠK uzeyden
ĠK GN
ĠK lip
ĠK norr
ĠK oron
ĠK elebek
ĠK isilik
ĠK eÃ§iÃ¶ren
ĠK osla
ĠK BB
ĠK MV
ĠK ral
ĠK oruyucu
ĠK Ã¶mÃ¼r
ĠK etÃ§ap
ĠK Ã¼nef
ĠK undu
ĠA it
ĠA dÄ±m
ĠA li
ĠA ya
ĠA len
ĠA Åŀ
ĠA lim
ĠA cel
ĠA Ãĸ
ĠA meli
ĠA sit
ĠA lamadÄ±m
ĠA dÄ±n
ĠA ÄŁust
ĠA TS
ĠA BD
ĠA qu
ĠA ilecek
ĠA lacak
ĠA TR
ĠA wox
ĠA DSL
ĠA SP
ĠA fili
ĠA gra
ĠA deti
ĠA ura
ĠA lamamak
ĠA egon
ĠA gt
ĠA jans
ĠA uris
Ä±l d
Ä±l dÄ±ÄŁÄ±m
Ä±l Ä±yorum
Ä±l Ä±yoruz
Ä±l lara
Ä±l daÅŁ
Ä±l dÄ±ÄŁÄ±mÄ±z
Ä±l maktadÄ±r
Ä±l dÄ±rma
Ä±l masÄ±nda
Ä±l dÄ±ÄŁÄ±na
Ä±l mayacaÄŁÄ±nÄ±
Ä±l cah
Ġm k
Ġm m
Ġm or
Ġm uk
Ġm Ã¼t
Ġm ant
Ġm od
Ġm ens
Ġm oto
Ġm Ã¼lk
Ġm Ã¼thiÅŁ
Ġm umcu
Ġm uÅŁum
Ġm antoloma
Ġm nce
Ġm olanÄ±n
Ġm undar
Ġm urÃ§la
Ġve de
Ġve bal
Ġve gas
it er
it ol
it ak
it ler
it ini
it ra
it esiz
it bet
it tÄ±ktan
it ech
it urkiye
inde yiz
is ar
is ler
is ta
is tim
is eden
is min
is tiÄŁi
is mini
is tica
Ġf t
Ġf un
Ġf ra
Ġf laÅŁ
Ġf os
Ġf lu
Ġf ran
Ġf re
Ġf ite
Ġf otoÄŁ
Ġf eg
Ġf ert
Ġf ish
Ġf ort
Ġf onun
Ġf ena
Ġf uar
Ġf inans
Ġf iyask
Ġf akÃ¼l
Ġf iÅŁten
Ġf amily
Ġf lora
Ġf reni
Ġf wdf
Ġf Ä±tÄ±ÄŁÄ±
Ġf incanÄ±n
Ġf alÃ§
Ġf olyo
Ġf aksÄ±nÄ±z
Ġf izik
Ġf asul
Ġf ikirde
Ä±ÅŁ an
Ä±ÅŁ lar
Ä±ÅŁ Ä±r
Ä±ÅŁ tÄ±
Ä±ÅŁ ta
Ä±ÅŁ Ä±na
Ä±ÅŁ ehir
Ä±ÅŁ masÄ±z
Ġp c
Ġp i
Ġp ay
Ġp ul
Ġp uk
Ġp edi
Ġp ot
Ġp Ã¼t
Ġp lay
Ġp ans
Ġp ide
Ġp egasus
Ġp Ä±rt
Ġp isik
Ġp ow
Ġp las
Ġp epe
Ġp eron
Ġp alet
Ġp aÅŁa
Ġp amuk
Ġp ix
Ġp illi
Ġp rim
Ġp eÃ§et
Ġp aÃ§a
Ġp fk
Ġp rin
Ġp apaÄŁan
Ġp andem
Ġp ostamÄ±
Ġp ain
Ġp hot
Ġp rimin
Ġp alabÄ±
Ġp eluÅŁ
Ġp amuÄŁu
ara Ã§
ara cÄ±
ara maz
ara mamÄ±ÅŁlar
ul sun
ul maya
ul iye
ul mayan
ul unca
ul mamasÄ±
ul urken
ul makla
ul manÄ±
ul ayarak
ul umuzun
ul iet
iyor sun
iyor sanÄ±z
Ä±z dan
Ä±z asÄ±
Ä±z Ä±rt
ok ar
ok ma
ok ta
ok op
ok rin
ok umden
ĠÅŁ a
ĠÅŁ e
ĠÅŁ i
ĠÅŁ ak
ĠÅŁ ek
ĠÅŁ eri
ĠÅŁ Ã¼k
ĠÅŁ ez
ĠÅŁ ikay
ĠÅŁ amp
ĠÅŁ urt
ĠÅŁ alt
ĠÅŁ Ã¶f
ĠÅŁ ilt
ĠÅŁ ansÄ±
ĠÅŁ air
ĠÅŁ urubu
ĠÅŁ eritsiz
ĠÅŁ iraz
ĠÅŁ unlardan
Ä±r dÄ±
Ä±r Ä±z
Ä±r dan
Ä±r den
Ä±r larÄ±
Ä±r lat
Ä±r Ä±nca
Ä±r sak
Ä±r ova
Ä±r Ä±lmadÄ±
Ä±r mamÄ±n
Ä±r Ä·
20 00
20 05
20 50
20 08
20 69
20 717
20 97934
aÄŁ aÃ§
aÄŁ Ä±nÄ±n
aÄŁ Ä±ldÄ±
aÄŁ Ä±mda
aÄŁ Ä±mÄ±n
aÄŁ Ä±ndaki
aÄŁ Ä±mÄ±zda
aÄŁ Ä±nÄ±zÄ±n
Ã¶n Ã¼
Ã¶n den
Ã¶n ceden
az z
az lar
az larÄ±
az alar
az Ä±da
az geÃ§
Ä° ade
Ä° daÅŁ
Ä° top
Ä° sem
Ä° kamet
Ä° GS
Ä° ademi
Ä° ÄŁrenÃ§
Ä° ett
Ä° mm
Ä° deal
Ä° RE
Ä° block
Ġn a
Ġn g
Ġn i
Ġn Ã¼n
Ġn ine
Ġn Ã¶r
Ġn orm
Ġn uma
Ġn olu
Ġn eleri
Ġn esini
Ġn Ã¼f
Ġn umur
Ġn eyiz
Ġn itr
Ġn uh
Ġn ane
Ġn atura
Ġn Ã¼fus
Ġn ld
Ġn uri
Ġn iÃ§in
Ġn hq
Ġn ikah
Ġn avigasyon
Ġn vme
Ġn Ã¼ve
Ġn eresi
Ġn aylon
Ġn apacaÄŁÄ±m
Ġn iÅŁancÄ±
Ġn ursan
Ġn asip
Ġn amÄ±na
Ġyap ac
Ġyap Ä±mda
Ġyap amam
Ġyap abilir
Ġyap ayÄ±m
Ġyap mayÄ±
Ġyap madÄ±m
Ġyap Ä±da
Ġyap madÄ±ÄŁÄ±
Ġyap maktadÄ±r
Ġyap malarÄ±
Ġyap Ä±sÄ±nÄ±
Ġyap amayacak
Ġyap malarÄ±nÄ±
Ġyap amayacaÄŁÄ±m
Ġyap manÄ±za
Ġyap abiliriz
Ġyap madÄ±klarÄ±nÄ±
Ġyap tÄ±n
Ġyap Ä±mcÄ±
ip st
ip leri
ip lerine
ip manÄ±n
ce h
ce za
ce ÄŁinin
ce pt
ye ceÄŁi
ye ceÄŁiz
ye bilmek
Ġ1 12
ĠM F
ĠM X
ĠM Z
ĠM h
ĠM t
ĠM uz
ĠM alÄ±
ĠM ec
ĠM eb
ĠM us
ĠM elik
ĠM ot
ĠM op
ĠM aya
ĠM eÅŁ
ĠM ob
ĠM ia
ĠM ars
ĠM ide
ĠM alesef
ĠM oda
ĠM ola
ĠM asko
ĠM aret
ĠM Ã¼mkÃ¼n
ĠM Ev
ĠM ess
ĠM iss
ĠM eci
ĠM gb
ĠM ody
ĠM ore
ĠM etlife
ĠM ulti
ĠM OOV
ĠM LK
ĠM anisa
ĠM Ã¼kemmel
ĠM adame
ĠM opaÅŁ
ĠM Ã¼thiÅŁ
ĠM obile
ĠM erdiven
ĠM GK
ĠM umcu
ĠM eridi
ĠM eÄŁer
ĠM ogan
ĠM cafee
ĠM antoloma
ĠM orhipo
ĠM DF
ĠM HRS
ĠM fc
ĠM orarmasÄ±
ĠM olasÄ±z
ĠM elek
ĠM etal
ĠM Ã¼racaat
ĠM amul
ĠM azÄ±da
st o
st u
st Ä±
st ur
st eh
st ri
st ech
st alarÄ±nÄ±n
st ore
st Ä±ÄŁÄ±m
st esto
ĠÃ ĤlÃ¢
du f
du sak
du ÄŁun
du dd
dan oz
dan sÄ±z
dan uÃ§
dan lÄ±ÄŁÄ±n
dan ette
Ġe f
Ġe cu
Ġe daÅŁ
Ġe mir
Ġe bebek
Ġe for
Ġe co
Ġe hli
Ġe ÄŁlen
Ġe diy
Ġe meÄŁi
Ġe bru
Ġe memiyor
Ġe uro
ĠiÃ§ ler
ĠiÃ§ li
ĠiÃ§ miÅŁ
ĠiÃ§ tim
ĠiÃ§ tik
ĠiÃ§ meden
ĠiÃ§ ilmiÅŁ
ĠiÃ§ lerinden
ĠiÃ§ emiyoruz
ĠiÃ§ tikten
ĠiÃ§ tiÄŁimiz
ĠiÃ§ meyeceÄŁim
ĠiÃ§ ilmez
ĠiÃ§ memek
ĠiÃ§ iyordu
ĠiÃ§ emedik
ĠiÃ§ kinin
ĠiÃ§ ilmeyecek
ĠiÃ§ irdim
ĠH I
ĠH c
ĠH ac
ĠH ers
ĠH Ã¼s
ĠH Ã¼l
ĠH oÅŁ
ĠH ij
ĠH ediyesi
ĠH ard
ĠH GS
ĠH ele
ĠH opi
ĠH Ã¢lÃ¢
ĠH uzur
ĠH eu
ĠH int
ĠH onda
ĠH jc
ĠH ack
ĠH onors
ĠH Ä±zlÄ±
ĠH ediyenin
ĠH Akk
ĠH ortumu
ĠH Ala
ĠH yper
ĠH ileler
ĠH onor
Ġda in
Ġda ki
ĠY alÄ±
ĠY av
ĠY om
ĠY eme
ĠY oz
ĠY arÄ±
ĠY iye
ĠY emedi
ĠY Ã¼zÃ¼
ĠY ks
ĠY amuk
ĠY ukarÄ±
ĠY ves
ĠY Ä±rtÄ±k
ĠY umuÅŁ
ĠY epita
ĠY edeÄŁi
ĠY alÄ±kavak
ĠY usuf
ĠY oyuncak
ĠY unanistan
ĠY Ã¼rÃ¼t
ĠY amulmasÄ±
aÅŁ an
aÅŁ tÄ±
aÅŁ Ä±mÄ±z
aÅŁ akÃ¶ÅŁ
ĠG s
ĠG iy
ĠG re
ĠG Ã¼l
ĠG id
ĠG Ã¼c
ĠG ars
ĠG Ãľ
ĠG ram
ĠG ros
ĠG aza
ĠG Ã¼cÃ¼
ĠG ame
ĠG iÅŁe
ĠG FK
ĠG Ã¼ler
ĠG Ã¼len
ĠG Ã¼mÃ¼ÅŁ
ĠG ym
ĠG alatasaray
ĠG roup
ĠG erisini
ĠG low
ĠG haz
ĠG aleri
ĠG aloÅŁ
ĠG ulf
ĠG eyikli
ĠG igbi
ĠG erÃ§i
ĠG uess
ĠG eniÅŁ
ĠÄ° K
ĠÄ° S
ĠÄ° ce
ĠÄ° lan
ĠÄ° ad
ĠÄ° se
ĠÄ° os
ĠÄ° ran
ĠÄ° dar
ĠÄ° daÅŁ
ĠÄ° talya
ĠÄ° sk
ĠÄ° kamet
ĠÄ° GS
ĠÄ° ÄŁrenÃ§
ĠÄ° ett
ĠÄ° ÈĻ
ĠÄ° deal
ĠÄ° vedilikle
ĠÄ° ETT
ĠÄ° ZSU
ĠÄ° mex
Ġay in
Ġay ara
Ġay Ä±nÄ±
Ġay ki
Ġay larÄ±
Ġay eti
Ġay Ä±ma
Ġay lÄ±ÄŁÄ±
Ġay lara
Ġay Ä±mda
Ġay na
Ġay Ä±t
Ġay arÄ±m
Ġay ri
Ġay arda
Ġay larca
Ġay gaz
Ġay Ä±rmaya
Ġay yÄ±ldÄ±z
Ġay Ã§iÃ§ek
Ġay aÄŁÄ±mÄ±zÄ±
Ġay etlerin
Ġay aÄŁÄ±nÄ±zÄ±n
em os
em iyorlar
em lerken
em iyo
ti me
ti ÄŁiniz
ti ÄŁinde
ti ÄŁin
ti ÄŁe
ti mate
li a
li y
li di
li ÄŁiniz
li fe
li ÄŁimde
li ÄŁinin
li ÄŁimin
li ÄŁinize
li ament
dÄ±ÄŁ Ä±n
Ġbu g
Ġbu laÅŁ
Ġbu ÄŁu
Ġbu sin
Ġbu ha
Ġbu larak
Ġbu dak
Ġbu ji
Ġbu yruk
Ġbu lamÄ±yorsunuz
Ġbu ÄŁday
Ġbu jiteri
Ġbu yur
Ġver im
Ġver iniz
Ġver inin
Ġver gis
Ġver mi
Ġver nik
Ġver iÅŁim
Ġver sek
Ġver sin
Ġver eyim
Ġver memesi
Ġver eceÄŁini
Ġver mektedir
Ġver memi
Ġver memize
Ġver emeyen
Ġver med
Ġver menizi
Ġver meyip
Ġver gisi
Ġver memeli
Ġver memesine
Ġver iyo
Ġver mesin
Ġver emediÄŁim
Ġver meyeceklerini
Ġver meseydim
Ġver meyecekseniz
Ġver emeyeceklerini
Ġver medikleri
Ġver seydin
Ġver meyelim
Ġver ginin
Ġver mond
Ġver iÅŁlerde
Ġver emiyo
Ġgel m
Ġgel iyorum
Ġgel eme
Ġgel ece
Ġgel mesine
Ġgel meme
Ġgel mediler
Ġgel mekte
Ġgel diniz
Ġgel eceÄŁim
Ġgel elim
Ġgel miÅŁtim
Ġgel mey
Ġgel emez
Ġgel meyeceÄŁim
Ġgel mesinden
Ġgel meyin
Ġgel memeye
Ġgel emeyeceÄŁini
Ġgel emeyeceklerini
Ġgel meseydi
tÄ± s
tÄ± lacak
tÄ± lamaz
eri hisar
ya j
ya bet
ya mayÄ±nca
den iz
den iyor
den Bir
Ġil in
Ġil eti
Ġil inin
Ġil av
Ġil han
Ġil etir
Ġil lak
Ġil iÅŁmiÅŁti
Ġil legal
ab i
ab Ä±nda
ab uk
ab Ä±na
ab Ä±ma
ab beti
ine cek
ine vim
ĠD B
ĠD P
ĠD ine
ĠD ah
ĠD ec
ĠD ere
ĠD urum
ĠD elik
ĠD ers
ĠD ili
ĠD iyet
ĠD ayat
ĠD Ã¼nde
ĠD olu
ĠD ibi
ĠD erb
ĠD arb
ĠD ent
ĠD ayan
ĠD umanda
ĠD emiÅŁ
ĠD Ã¶rt
ĠD ilek
ĠD Ã¶ÅŁ
ĠD emli
ĠD erime
ĠD ahi
ĠD Ã¼ÅŁtÃ¼
ĠD ecathlon
ĠD ream
ĠD icle
ĠD omates
ĠD Ci
ĠD umankaya
ĠD omuz
ĠD arÄ±ca
ĠD ivan
ĠD alga
ĠD ooble
ĠD JTV
ĠD OD
ĠD bak
ĠD arlÄ±ÄŁÄ±
ĠD Ã¼den
ĠD ekor
ĠD amar
ĠD aÄŁÄ±ldÄ±
ĠD emlerken
Ã¼ÅŁ Ã¼
Ã¼ÅŁ me
Ã¼ÅŁ Ã¼mÃ¼
," *
," ""
," ''
lan a
lan Ä±n
lan arak
lan dÄ±k
lan Ä±p
lan masÄ±nÄ±
lan mamÄ±ÅŁ
lan malÄ±
lan maktadÄ±r
lan mÄ±ÅŁtÄ±r
lan dÄ±ÄŁÄ±nda
lan lanan
lan mal
lan gÄ±Ã§
lan ayim
uz un
uz han
uz kÃ¶y
ĠgÃ¼n ey
ĠgÃ¼n lerini
ĠgÃ¼n dÃ¼
ĠgÃ¼n lerinde
ĠgÃ¼n Ã¼nden
ĠgÃ¼n Ã¼mÃ¼
ĠgÃ¼n Ã¼nÃ¼
ĠgÃ¼n tek
ĠgÃ¼n Ã¼mÃ¼zÃ¼
ĠE F
ĠE ra
ĠE cu
ĠE re
ĠE zel
ĠE sil
ĠE daÅŁ
ĠE sta
ĠE ÄŁit
ĠE fes
ĠE ee
ĠE SB
ĠE hli
ĠE yÃ¼p
ĠE verest
ĠE EG
ĠE SP
ĠE PDK
ĠE lazÄ±ÄŁ
ĠÃ¼ cr
ĠÃ¼ yen
ĠÃ¼ yenin
ĠÃ¼ fÃ¼rmÃ¼yor
Ġr a
Ġr v
Ġr ay
Ġr ey
Ġr ah
Ġr ep
Ġr oz
Ġr eÅŁ
Ġr amaz
Ġr aki
Ġr ic
Ġr ing
Ġr oma
Ġr uh
Ġr Ã¼cu
Ġr ose
Ġr ulopak
Ġr ossa
Ġr imex
Ġr omantik
Ġr oberts
Ġr astladÄ±ÄŁÄ±m
ark i
ark adaÅŁ
ĠiÃ§in miÅŁ
ĠP ek
ĠP es
ĠP ine
ĠP edi
ĠP us
ĠP astan
ĠP Ã¼s
ĠP oÅŁ
ĠP lak
ĠP ert
ĠP ing
ĠP encere
ĠP algaz
ĠP isik
ĠP eron
ĠP anz
ĠP ersoneli
ĠP Ä±nar
ĠP uzzle
ĠP ereja
ĠP amukkale
ĠP orland
ĠP Ä±rlan
ĠP eugeot
ĠP ack
ĠP eriy
ĠP landa
ĠP andem
ĠP RP
ĠP VC
ĠP earl
ĠP odi
ĠP alm
ĠP endor
ĠP irinc
ĠP aÅŁakÃ¶ÅŁ
ĠP lanlanan
mas i
mas ak
mas am
mas ev
mas amda
Ġkar lar
Ġkar alanmÄ±ÅŁ
Ġkar nÄ±m
Ġkar puz
Ġkar yola
Ġkar dasÄ±n
Ġkar akoy
Ġoldu lar
dil ir
dil iyor
dil miÅŁ
dil mesini
dil meyen
dil ata
dil lerinden
ra Ã§
ra cak
ra caÄŁÄ±m
Ġbil di
Ġbil ip
Ġbil ye
Ġbil dim
Ġbil mek
Ġbil eli
Ġbil iyorlar
Ġbil iÅŁim
Ġbil diÄŁi
Ġbil sem
Ġbil ici
Ġbil miyoruz
Ġbil emez
Ġbil meniz
Ġbil seydim
Ġbil miy
iy el
iy esi
iy miÅŁ
iy ken
iy enin
iy ane
iy esizlik
Ä±nda ÄŁ
Ä±nda kilerin
Ġ2 19
Ġ2 22
Ġet m
Ġet in
Ġet ek
Ġet ine
Ġet ki
Ġet mesini
Ġet mesine
Ġet sek
Ġet lerim
Ġet mediÄŁim
Ġet miÅŁtir
Ġet memesi
Ġet miÅŁti
Ġet lerimi
Ġet leriniz
Ġet memiz
Ġet memize
Ġet mesinden
Ġet meseydim
Ġet seydi
Ġet tinizde
ey in
ey en
ey ir
ey inde
ey ya
ey den
ey ken
ey na
ey diniz
ey rek
ih li
ih niyeti
ih isar
Ġson un
Ġson ic
Ġson unuz
Ġson larÄ±na
ĠgÃ¶ t
ĠgÃ¶ Ã§Ã¼k
ĠgÃ¶ bek
ĠgÃ¶ lgesi
ĠgÃ¶ Ã§Ã¼ÄŁÃ¼
Ġdi st
Ġdi yo
Ġdi yal
Ġdi oksit
Ġdi ferans
Ġdi binde
Ġdi yabet
ta caÄŁÄ±
ta caÄŁÄ±nÄ±
ta gram
ta villa
ta vm
Ġma tÄ±
Ġma ya
Ġma masÄ±
Ġma ter
Ġma ka
Ġma madan
Ġma masÄ±nÄ±
Ġma hal
Ġma manÄ±n
Ġma yo
Ġma zer
Ġma tin
Ġma ddenin
Ġma gn
Ġma visi
Ġma stech
Ġu k
Ġu s
Ġu ca
Ġu stan
Ġu sm
Ġu sulsÃ¼z
Ġu pgra
laÅŁ maya
laÅŁ Ä±yorlar
Ġara d
Ġara mak
Ġara masÄ±
Ġara mayan
Ġara mayÄ±
Ġara madÄ±lar
Ġara dÄ±ktan
Ġara maktayÄ±m
Ġara masÄ±n
Ġara mayÄ±nca
ki d
ĠÃ¼r eti
ĠÃ¼r oloji
ĠÃ¼r etime
Ġar dÄ±
Ġar ayÄ±
Ġar asÄ±nÄ±
Ġar asÄ±na
Ġar arken
Ġar amÄ±yor
Ġar asay
Ġar maÄŁan
Ġar tÄ±sÄ±
Ġar dÄ±na
Ġar ÅŁiv
Ġar Ä±ndÄ±rÄ±cÄ±
Ġar asam
Ġar tacaÄŁÄ±
Ä±s Ä±n
Ä±s am
mes an
mes ek
mes em
mes sos
ah is
ah vec
ca ada
ca cÄ±k
ĠÃ¼rÃ¼n l
ĠÃ¼rÃ¼n ken
ĠÃ¼rÃ¼n dÃ¼r
ĠÃ¼rÃ¼n dÃ¼
ĠÃ¼rÃ¼n Ã¼mÃ¼z
Ã¼m an
Ã¼m se
Ã¼m cek
Ã¼m Ã¼nÃ¼
Ã¼m ser
ĠÃľ ret
ĠÃľ skÃ¼dar
ĠÃľ tÃ¼m
ĠÃľ ÅŁen
ef iz
ef endi
ef faf
ĠsipariÅŁ inde
ĠsipariÅŁ leri
ĠsipariÅŁ inin
ĠsipariÅŁ lerini
ĠsipariÅŁ lerin
ĠsipariÅŁ lere
ĠsipariÅŁ lerinde
ĠsipariÅŁ inizi
ĠsipariÅŁ teki
eÃ§ ek
eÃ§ leri
Ġan d
Ġan dÄ±r
Ġan Ä±mÄ±z
Ġan larÄ±m
Ġan talya
Ġan layÄ±p
Ġan iden
Ġan apara
Ġan ason
Ġan sÄ±zÄ±n
Ġan aliz
Ġan kastr
Ġan imasyon
Ġan jiyo
Ġan laya
Ġan aparaya
asÄ± da
lÄ± lar
lÄ± gÄ±
ĠÃ¶ tel
ĠÃ¶ tesi
ĠÃ¶ lÃ¼m
ĠÃ¶ kÃ¼z
ĠÃ¶ tmeye
ĠÃ¶ dÃ¼lÃ¼
Ġne w
Ġne de
Ġne di
Ġne vi
tal ara
tal ep
tal ia
tal arda
tal anmak
Ġist i
Ġist op
Ġist if
Ġist iyorsunuz
Ġist ifi
Ġist anbul
Ġist inasÄ±z
uk suz
uk ahvec
Ã¼k te
Ã¼k Ã¼yor
Ã¼k oÄŁlu
der leri
der se
der ili
mÄ±ÅŁ ken
Ġo ut
Ġo dy
Ġo muz
Ġo sman
Ġo caÄŁÄ±n
Ġo xi
Ġo cean
Ġo bj
Ġo xo
Ġo ÄŁul
ama k
ama masÄ±
ama maya
ama dik
ama yÄ±z
ama dÄ±ÄŁÄ±nÄ±z
ama mÄ±ÅŁtÄ±m
ama maktayÄ±m
ama masÄ±ndan
ama dÄ±ÄŁÄ±ndan
ĠV M
ĠV N
ĠV n
ĠV eri
ĠV if
ĠV ale
ĠV izyon
ĠV arken
ĠV ic
ĠV eysel
ĠV ita
ĠV urdum
ĠV aliz
ĠV illa
ĠV asat
ĠV aillant
ĠV ys
ĠV iÅŁne
ĠV ivobook
ĠV ostro
ĠV illalarÄ±
ĠV eterinerlik
ĠV ogu
ĠV alfi
ĠV irÃ¼se
ĠV olkswagen
ĠV akasÄ±
ĠV esik
ĠV itra
ĠV azgeÃ§
Ġtar tÄ±m
Ġtar ayÄ±cÄ±
Ġtar layÄ±
Ġtar atÄ±lmÄ±ÅŁ
Ġtar ayÄ±cÄ±sÄ±
Ġtar aklarÄ±
Ġtar tÄ±lamaz
Ġtar lanÄ±n
Ġhal d
Ġhal Ä±m
Ġhal ine
Ġhal iÃ§
Ġhal inin
Ġhal Ä±mÄ±
Ġhal Ä±ma
Ġhal ka
Ġhal Ä±yla
Ġhal Ä±da
Ġhal atÄ±
Ġhal sizlik
Ġhal buki
Ġhal ilÄ±k
Ġz a
Ġz o
Ġz Ä±rt
Ġz ati
Ġz book
Ġz inc
Ġz ilim
Ġz irv
Ġz ahir
Ġz oom
Ġz ero
Ġz ira
Ġz ebra
Ġz atÃ¼rre
Ġz Ä±vana
Ġz erre
Ġz engin
Ġz ekai
Ġz urna
Ġz ihniyeti
men ize
men tum
iÃ§ e
iÃ§ me
ĠF C
ĠF c
ĠF ine
ĠF ev
ĠF ro
ĠF alan
ĠF iÅŁim
ĠF ren
ĠF otoÄŁ
ĠF ert
ĠF est
ĠF inal
ĠF incan
ĠF ond
ĠF ame
ĠF iÅŁi
ĠF uzu
ĠF ms
ĠF Ä±ndÄ±k
ĠF aks
ĠF erah
ĠF ree
ĠF lormar
ĠF Ä±stÄ±ÄŁÄ±
ĠF atsa
ĠF amily
ĠF errucci
ĠF FW
ĠF JR
ĠF elsef
ĠF atih
ĠF lava
ĠF uryasÄ±
ĠF Ä±kra
ĠF azlar
ad Ä±nÄ±
ad lÄ±
ad ro
ad inin
ad Ä±nÄ±n
medi si
medi ÄŁinde
medi ÄŁinden
medi ÄŁin
cak ta
cak tÄ±r
ĠolduÄŁ unuzu
ĠolduÄŁ uydu
Ä±na dan
Ġtarih l
Ġtarih le
Ġtarih iniz
Ġtarih imi
Ġtarih iyle
Ġtarih imde
Ġtarih lerinden
Ġtarih imizin
Ġtarih lerinin
mek t
mek sizin
ĠdeÄŁ en
ĠdeÄŁ iyor
ĠdeÄŁ eri
ĠdeÄŁ se
ĠdeÄŁ ecek
ĠdeÄŁ meyecek
ĠdeÄŁ mesinden
ĠdeÄŁ mediÄŁini
ĠdeÄŁ diÄŁinde
Ġyok tum
Ġyok uÅŁa
Ġyok tunuz
ĠÃ¶n Ã¼
ĠÃ¶n de
ĠÃ¶n lÃ¼
ĠÃ¶n cek
ĠÃ¶n lerine
ĠÃ¶n lere
ĠÃ¶n lÃ¼ÄŁ
ĠÃ¶n Ã¼nÃ¼z
ĠÃ¶n lÃ¼ÄŁÃ¼
ĠÃ¶n Ã¼mÃ¼ze
ĠÃ¶n gÃ¶r
ĠÃ¶n celeri
ĠÃ¶n Ã¼mde
ĠÃ¶n Ã¼mÃ¼zdeki
ĠbaÅŁ Ä±m
ĠbaÅŁ lar
ĠbaÅŁ Ä±nÄ±
ĠbaÅŁ mak
ĠbaÅŁ lama
ĠbaÅŁ Ä±mÄ±z
ĠbaÅŁ Ä±ndaki
ĠbaÅŁ larÄ±nda
ĠbaÅŁ larÄ±ndan
ĠbaÅŁ layÄ±p
ĠbaÅŁ Ä±nÄ±za
ĠbaÅŁ lÄ±yorum
ĠbaÅŁ lÄ±ca
ĠbaÅŁ lardaki
ĠbaÅŁ landÄ±ÄŁÄ±
ĠbaÅŁ lamadan
ĠbaÅŁ larken
ĠbaÅŁ aramamÄ±ÅŁlar
alÄ± ÄŁÄ±na
aat le
mak tÄ±r
mak sÄ±zÄ±n
ĠO la
ĠO lim
ĠO ran
ĠO lay
ĠO ne
ĠO caÄŁÄ±
ĠO kan
ĠO lup
ĠO lacak
ĠO mron
ĠO lacaÄŁÄ±
ĠO laÄŁ
ĠO cean
ĠO LAn
ĠO dun
Ġgi d
Ġgi biy
dÄ±r Ä±m
dÄ±r dÄ±ÄŁÄ±m
dÄ±r mÄ±yor
dÄ±r io
dÄ±r gamadÄ±m
dÄ±r tmÄ±yorlar
Ġ3 3
Ġ3 03
Ġ3 06
Ġ3 30
Ġ3 15
Ġ3 19
Ġ3 24
Ġ3 40
Ġ3 99
Ġ3 35
Ġ3 55
Ġ3 65
Ġ3 70
Ġ3 31
Ġ3 39
Ġ3 47
Ġ3 459
Ġ3 680
met s
met in
met re
met ech
dir mek
dir mesi
dir imde
dir ilmiÅŁ
dir gin
dir ilmeyen
dir ins
dir ebiliriz
Ġkullan Ä±n
Ġkullan mÄ±ÅŁ
Ġkullan masÄ±na
Ġkullan madan
Ġkullan Ä±yorlar
Ġkullan sam
Ġkullan abilir
Ġkullan Ä±nca
Ġkullan dÄ±lar
Ġkullan ayÄ±m
Ġkullan acaÄŁÄ±z
Ġkullan Ä±lÄ±yor
Ġkullan Ä±lmÄ±yor
Ġkullan mada
Ġkullan Ä±lma
Ġkullan mamÄ±za
Ġkullan Ä±ldÄ±ÄŁÄ±
Ġkullan Ä±lÄ±r
Ġkullan amadan
Ġkullan Ä±lacak
Ġkullan dÄ±ra
Ġkullan Ä±ÅŁlÄ±
Ġkullan dÄ±klarÄ±
Ġkullan mÄ±ÅŁÄ±m
Ġkullan Ä±ldÄ±ÄŁÄ±nÄ±
Ġkullan Ä±rsÄ±nÄ±z
Ġkullan mÄ±yordum
Ġkullan Ä±lamadÄ±
Ġkullan amayacaÄŁÄ±mÄ±
Ġkullan drÄ±
Ġkullan dÄ±ÄŁÄ±n
Ġkullan dÄ±rtmÄ±yorlar
ĠÃĩ in
ĠÃĩ ip
ĠÃĩ eÅŁ
ĠÃĩ iv
ĠÃĩ ayÄ±n
ĠÃĩ eyiz
ĠÃĩ ift
ĠÃĩ arkÄ±
ĠÃĩ ubuk
ĠÃĩ ilem
ĠÃĩ Ã¼rÃ¼k
ĠÃĩ eliÄŁinde
ĠÃĩ eÅŁme
ĠÃĩ Ã¼rÃ¼me
ĠÃĩ ankÄ±rÄ±
ĠÃĩ erkezkÃ¶y
ĠÃĩ ifte
ĠÃĩ erÃ§i
ĠÃĩ eÅŁitli
ĠÃĩ alÄ±ntÄ±
ĠÃĩ etink
ĠÃĩ Ä±ldÄ±rma
ĠÃĩ abuk
ĠÃĩ eyrek
edi ÄŁimde
tÄ±m da
uÅŁ ma
uÅŁ larÄ±
uÅŁ tu
uÅŁ malar
uÅŁ malÄ±
uÅŁ tuÄŁum
madÄ± ysam
erv e
Ġama cÄ±m
Ġama cÄ±mÄ±z
Ġama cÄ±nÄ±
rÃ¼n Ã¼n
Ã¼z it
alar c
alar la
alar Ä±mÄ±
alar Ä±ma
alar Ä±mÄ±zÄ±
alar Ä±nÄ±zda
ĠgeÃ§ m
ĠgeÃ§ iyorum
ĠgeÃ§ te
ĠgeÃ§ ers
ĠgeÃ§ meye
ĠgeÃ§ ildi
ĠgeÃ§ iyoruz
ĠgeÃ§ sek
ĠgeÃ§ emiyorum
ĠgeÃ§ sin
ĠgeÃ§ mediler
ĠgeÃ§ emiyor
ĠgeÃ§ eceÄŁiz
ĠgeÃ§ mektedir
ĠgeÃ§ ilmiyor
ĠgeÃ§ emedim
ĠgeÃ§ memiz
ĠgeÃ§ memize
ĠgeÃ§ emez
ĠgeÃ§ tiÄŁimiz
ĠgeÃ§ ilmez
ĠgeÃ§ mesinden
ĠgeÃ§ menizi
ĠgeÃ§ eceÄŁimiz
ĠgeÃ§ tiniz
ĠgeÃ§ memesine
ĠgeÃ§ mediniz
ĠgeÃ§ meyince
ĠgeÃ§ medikleri
mÄ±yor du
2020 2
2020 30
2020 0000
eti cede
tan at
tan siy
tan iyeler
ĠsÃ¼r er
ĠsÃ¼r Ã¼m
ĠsÃ¼r erek
ĠsÃ¼r eme
ĠsÃ¼r eli
ĠsÃ¼r Ã¼l
ĠsÃ¼r esinden
ĠsÃ¼r mez
ĠsÃ¼r Ã¼mÃ¼
ĠsÃ¼r dÃ¼ÄŁÃ¼m
ĠsÃ¼r medik
ĠsÃ¼r Ã¼yorum
ĠsÃ¼r eceÄŁi
ĠsÃ¼r emin
ĠsÃ¼r dÃ¼ÄŁÃ¼
ĠsÃ¼r tme
ĠsÃ¼r elerini
ĠsÃ¼r Ã¼lmedi
ĠsÃ¼r dÃ¼kten
ĠsÃ¼r tmeye
ĠsÃ¼r tÃ¼yor
ĠsÃ¼r ecekti
ĠsÃ¼r elerinin
ĠsÃ¼r tmesi
ĠsÃ¼r Ã¼ÅŁÃ¼mÃ¼
00 5
00 100
00 32
00 424
00 466
Ġben ch
Ġben miÅŁim
Ġben gay
ÄŁi me
Ġvar madÄ±
Ġvar mÄ±yor
Ġvar dÄ±k
Ġvar Ä±p
Ġvar madÄ±m
Ġvar sÄ±n
Ġvar amÄ±yoruz
Ġvar diy
Ġvar lÄ±ÄŁÄ±m
Ġvar yasyon
Ġvar ÅŁova
ĠÃ§Ä±k Ä±yorum
ĠÃ§Ä±k arak
ĠÃ§Ä±k abil
ĠÃ§Ä±k Ä±yorlar
ĠÃ§Ä±k acaÄŁÄ±m
ĠÃ§Ä±k abilir
ĠÃ§Ä±k mayan
ĠÃ§Ä±k sÄ±n
ĠÃ§Ä±k tÄ±ÄŁÄ±mda
ĠÃ§Ä±k Ä±lmasÄ±
ĠÃ§Ä±k maktadÄ±r
ĠÃ§Ä±k acaÄŁÄ±mÄ±
ĠÃ§Ä±k tÄ±ktan
ĠÃ§Ä±k acaÄŁÄ±
ĠÃ§Ä±k abilirsiniz
ĠÃ§Ä±k amama
ĠÃ§Ä±k arab
ĠÃ§Ä±k Ä±lmÄ±ÅŁtÄ±r
ĠÃ§Ä±k amayan
ĠÃ§Ä±k amadÄ±ÄŁÄ±m
ĠÃ§Ä±k tÄ±ÄŁÄ±nda
ĠÃ§Ä±k tÄ±ÄŁÄ±nÄ±zda
ĠÃ§Ä±k mamÄ±n
ĠÃ§Ä±k aracak
ĠÃ§Ä±k aramaz
erek ti
sun a
sun un
Ġin k
Ġin en
Ġin iÅŁ
Ġin ik
Ġin iyor
Ġin ip
Ġin miÅŁ
Ġin ver
Ġin tel
Ġin meden
Ġin ince
Ġin lo
Ġin memi
Ġin celik
Ġin iÅŁi
Ġin tern
Ġin iÅŁli
Ġin cir
Ġin celer
Ġin fert
Ġin salarÄ±n
Ġin adÄ±nÄ±
Ġsor a
Ġsor ma
Ġsor arak
Ġsor masÄ±
Ġsor uyor
Ġsor san
Ġsor dur
Ġsor up
Ġsor uma
Ġsor sam
Ġsor acaÄŁÄ±m
Ġsor uyla
Ġsor acaÄŁÄ±z
Ġsor uyoruz
Ġsor uÅŁtur
Ġsor caz
ep t
ep ti
ep ark
ep tik
ez de
ez iz
ez aket
ez yumlu
ervis iturkiye
ĠhiÃ§ te
oÄŁ unu
oÄŁ una
oÄŁ undan
diler e
diler inden
** .
** @
** âĢĻ
cr Ã¼bey
ĠN a
ĠN c
ĠN ut
ĠN ev
ĠN olu
ĠN eyi
ĠN est
ĠN ata
ĠN umun
ĠN TS
ĠN iÄŁ
ĠN uh
ĠN isa
ĠN Ã¼fus
ĠN ikel
ĠN ld
ĠN ano
ĠN irv
ĠN ivea
ĠN ikah
ĠN issan
ĠN abÄ±zda
ĠN avigasyon
ĠN artest
ĠN towers
ĠN arlÄ±dere
ĠN vidi
ĠN inova
ĠN izami
ĠN ike
ĠN okta
ĠN eticede
ĠN ezaket
ec in
ec eli
Ġkal e
Ġkal mak
Ġkal bi
Ġkal maya
Ġkal aya
Ġkal mam
Ġkal madan
Ġkal dÄ±ÄŁÄ±nÄ±
Ġkal Ä±ntÄ±
Ġkal anÄ±
Ġkal Ä±yorsunuz
Ġkal dÄ±lar
Ġkal sÄ±n
Ġkal dÄ±ÄŁÄ±mÄ±z
Ġkal amÄ±yoruz
Ġkal madÄ±ÄŁÄ±
Ġkal Ä±rÄ±m
Ġkal Ä±ntÄ±sÄ±
Ġkal mayacak
Ġkal dÄ±ÄŁÄ±nda
Ġkal mamÄ±ÅŁtÄ±r
Ġkal masÄ±n
Ġkal dÄ±ÄŁÄ±nÄ±zda
Ġkal amadÄ±k
Ġkal mayÄ±nca
Ġkal Ä±rsÄ±n
Ġkal mayÄ±ÅŁÄ±
Ġkal bimde
eb ildi
eb bÃ¼s
eb lebi
ĠC C
ĠC K
ĠC V
ĠC a
ĠC i
ĠC m
ĠC ay
ĠC Ä°
ĠC af
ĠC ro
ĠC oÅŁ
ĠC eh
ĠC id
ĠC omp
ĠC ook
ĠC osta
ĠC umartesi
ĠC hlo
ĠC illit
ĠC LK
ĠC umhur
ĠC olor
ĠC asio
ĠC ipst
ĠKar e
ĠKar s
ĠKar esi
ĠKar art
ĠKar anÄ±
ĠKar ant
ĠKar gÄ±
ĠKar anlÄ±k
ĠKar ayolu
ĠKar cher
ĠKar gon
ĠKar anlÄ±ÄŁa
ĠKar Ä±ncalardan
ĠKar akter
ĠaÃ§ m
ĠaÃ§ am
ĠaÃ§ ark
ĠaÃ§ mÄ±ÅŁ
ĠaÃ§ arak
ĠaÃ§ tÄ±r
ĠaÃ§ maya
ĠaÃ§ amÄ±yorum
ĠaÃ§ masÄ±na
ĠaÃ§ abil
ĠaÃ§ acak
ĠaÃ§ amadÄ±m
ĠaÃ§ maz
ĠaÃ§ Ä±yorsunuz
ĠaÃ§ ayÄ±m
ĠaÃ§ madÄ±m
ĠaÃ§ madÄ±lar
ĠaÃ§ acaÄŁÄ±z
ĠaÃ§ tÄ±ÄŁÄ±
ĠaÃ§ Ä±lamÄ±yor
ĠaÃ§ tÄ±lar
ĠaÃ§ madÄ±k
ĠaÃ§ madÄ±ÄŁÄ±m
ĠaÃ§ malarÄ±
ĠaÃ§ acaÄŁÄ±mÄ±
ĠaÃ§ Ä±lama
ĠaÃ§ mamÄ±z
ĠaÃ§ abilirim
ĠaÃ§ tÄ±rdÄ±m
ĠaÃ§ amazsÄ±nÄ±z
ĠaÃ§ amayan
ĠaÃ§ tÄ±ÄŁÄ±nda
ĠaÃ§ abiliriz
ĠaÃ§ Ä±dan
ĠaÃ§ arlar
Ġpar ol
Ġpar as
Ġpar ti
Ġpar ig
Ġpar anÄ±
Ġpar lak
Ġpar alarÄ±nÄ±
Ġpar ayla
Ġpar alarda
Ġpar layan
Ġpar don
Ġpar fÃ¼mÃ¼
Ġpar mesan
af on
af tan
af isi
af Ã¶r
af iyet
af larÄ±mÄ±z
ub et
ub unu
ub una
ub uyum
ub lewin
Ġkad ara
Ġkad eri
Ġkad Ä±na
Ġkad Ä±nÄ±n
Ġkad arki
lÄ±k lar
lÄ±k larÄ±n
lÄ±k sÄ±n
ac t
ac Ä±nÄ±n
ac aba
ac ell
ac Ä±lÄ±ÄŁÄ±
ac ost
ac Ä±sÄ±nÄ±
ac ele
ac qu
ac Ä±sÄ±nÄ±n
tim um
tim ize
ere mesini
ere meyen
ere meyip
ere mediÄŁini
ere ÄŁlisi
uyor dum
Ġkap a
Ġkap tÄ±
Ġkap tan
Ġkap Ä±nÄ±n
Ġkap ladÄ±
Ġkap Ä±lÄ±
Ġkap kara
Ġkap ri
Ġkap Ä±sÄ±ndan
Ġkap layan
Ġkap lanmÄ±ÅŁ
Ġkap lamalar
Ġkap tam
Ġkap aÄŁÄ±nda
Ġkap lÄ±ca
Ġkap aÄŁÄ±na
Ġkap Ä±sÄ±nÄ±n
Ġkap tanÄ±
Ġkap anÄ±nca
Ġkap karan
Ġkap aÄŁÄ±ndaki
ĠÃ§ok ta
ĠÃ§ok Ã§a
ĠÃ§ok luÄŁ
Ġkargo su
Ġkargo cunun
Ġkargo sunun
Ġkadar Ä±na
Ġkadar lÄ±k
se v
se ur
se ye
se diliyor
ut arak
ut uldu
ut paÅŁ
ut tgart
lik a
lik leri
lik eye
lik asyonu
Ġ4 10
Ġ4 03
Ġ4 30
Ġ4 24
Ġ4 17
Ġ4 16
Ġ4 22
Ġ4 25
Ġ4 29
Ġ4 28
Ġ4 26
Ġ4 35
Ġ4 73
Ġ4 70
Ġ4 220
Ġ4 7250
ĠiÅŁ im
ĠiÅŁ ler
ĠiÅŁ ine
ĠiÅŁ inden
ĠiÅŁ len
ĠiÅŁ iniz
ĠiÅŁ bir
ĠiÅŁ inin
ĠiÅŁ lerini
ĠiÅŁ imiz
ĠiÅŁ Ã§i
ĠiÅŁ imizi
ĠiÅŁ lerimi
ĠiÅŁ lek
ĠiÅŁ yer
ĠiÅŁ lerimizi
ĠiÅŁ tah
ĠiÅŁ lerimin
ĠiÅŁ gÃ¼zar
ĠiÅŁ kembe
ĠiÅŁ ittim
ĠiÅŁ levini
ĠiÅŁ ittÄ±ktan
Ġiade s
Ġiade leri
Ġiade lerini
Ġiade lerim
Ġiade lerinin
Ġiade sinde
ĠgÃ¶r Ã¼
ĠgÃ¶r en
ĠgÃ¶r eme
ĠgÃ¶r ecek
ĠgÃ¶r ece
ĠgÃ¶r Ã¼l
ĠgÃ¶r meden
ĠgÃ¶r emiyor
ĠgÃ¶r mÃ¼ÅŁ
ĠgÃ¶r seniz
ĠgÃ¶r emedim
ĠgÃ¶r Ã¼ldÃ¼
ĠgÃ¶r Ã¼len
ĠgÃ¶r mediniz
ĠgÃ¶r ebilirsiniz
ĠgÃ¶r seydim
ĠgÃ¶r Ã¼lmedi
ĠgÃ¶r memiÅŁtim
ĠgÃ¶r dÃ¼ÄŁ
ĠgÃ¶r mekt
Ġ5 9
Ġ5 11
Ġ5 02
Ġ5 06
Ġ5 24
Ġ5 13
Ġ5 16
Ġ5 40
Ġ5 75
Ġ5 45
Ġ5 66
Ġ5 31
Ġ5 63
Ġ5 42
Ġ5 800
Ġ5 93
Ġ5 7250
ev e
ev inden
ev elli
ĠBu yaka
ĠBu lamadÄ±
ĠBu yruk
ĠBu derus
ĠBu lamamak
ĠBu ÄŁday
ĠBu jiteri
Ġc ode
Ġc eki
Ġc all
Ġc lo
Ġc anda
Ġc oÄŁu
Ġc ook
Ġc ildim
Ġc lum
Ġc ore
Ġc kana
Ġc ildimi
Ġc lock
Ġc orr
Ġc onta
Ġc vs
Ġc oron
Ġc eketi
Ġc umhur
Ġc ylclone
Ġc enaz
Ġc elebi
Ġc esaret
Ġc ismin
Ġc Ä±zÄ±rt
Ġc eremesini
Ã¶z Ã¼len
Ġher zog
tir ip
tir meden
tir mekten
tir emediÄŁim
Ġyaz a
Ġyaz madÄ±
Ġyaz lÄ±k
Ġyaz Ä±mÄ±
Ġyaz abil
Ġyaz mam
Ġyaz Ä±yoruz
Ġyaz acak
Ġyaz Ä±yorlar
Ġyaz dÄ±ÄŁÄ±nÄ±
Ġyaz dÄ±lar
Ġyaz makta
Ġyaz mÄ±yorlar
Ġyaz madÄ±m
Ġyaz amÄ±yor
Ġyaz Ä±lan
Ġyaz Ä±yla
Ġyaz madÄ±ÄŁÄ±
Ġyaz Ä±ya
Ġyaz mayÄ±n
Ġyaz Ä±lÄ±yor
Ġyaz Ä±lmÄ±yor
Ġyaz dÄ±n
Ġyaz acaÄŁÄ±nÄ±
Ġyaz acaÄŁÄ±mÄ±
Ġyaz mayacak
Ġyaz mamÄ±za
Ġyaz dÄ±ÄŁÄ±nÄ±zda
Ġyaz manÄ±za
[...]
