{
  "version": "1.0",
  "truncation": null,
  "padding": null,
  "added_tokens": [
    {
      "id": 0,
      "content": "<|endoftext|>",
      "single_word": false,
      "lstrip": false,
      "rstrip": false,
      "normalized": true,
      "special": true
    }
  ],
  "normalizer": null,
  "pre_tokenizer": {
    "type": "ByteLevel",
    "add_prefix_space": false,
    "trim_offsets": true,
    "use_regex": true
  },
  "post_processor": {
    "type": "ByteLevel",
    "add_prefix_space": true,
    "trim_offsets": false,
    "use_regex": true
  },
  "decoder": {
    "type": "ByteLevel",
    "add_prefix_space": true,
    "trim_offsets": true,
    "use_regex": true
  },
  "model": {
    "type": "BPE",
    "dropout": null,
    "unk_token": null,
    "continuing_subword_prefix": "",
    "end_of_word_suffix": "",
    "fuse_unk": false,
    "byte_fallback": false,
    "ignore_merges": false,
    "vocab": {
      "<|endoftext|>": 0,
      "!": 1,
      "\"": 2,
      "#": 3,
      "$": 4,
      "%": 5,
      "&": 6,
      "'": 7,
      "(": 8,
      ")": 9,
      "*": 10,
      "+": 11,
      ",": 12,
      "-": 13,
      ".": 14,
      "/": 15,
      "0": 16,
      "1": 17,
      "2": 18,
      "3": 19,
      "4": 20,
      "5": 21,
      "6": 22,
      "7": 23,
      "8": 24,
      "9": 25,
      ":": 26,
      ";": 27,
      "<": 28,
      "=": 29,
      ">": 30,
      "?": 31,
      "@": 32,
      "A": 33,
      "B": 34,
      "C": 35,
      "D": 36,
      "E": 37,
      "F": 38,
      "G": 39,
      "H": 40,
      "I": 41,
      "J": 42,
      "K": 43,
      "L": 44,
      "M": 45,
      "N": 46,
      "O": 47,
      "P": 48,
      "Q": 49,
      "R": 50,
      "S": 51,
      "T": 52,
      "U": 53,
      "V": 54,
      "W": 55,
      "X": 56,
      "Y": 57,
      "Z": 58,
      "[": 59,
      "\\": 60,
      "]": 61,
      "^": 62,
      "_": 63,
      "`": 64,
      "a": 65,
      "b": 66,
      "c": 67,
      "d": 68,
      "e": 69,
      "f": 70,
      "g": 71,
      "h": 72,
      "i": 73,
      "j": 74,
      "k": 75,
      "l": 76,
      "m": 77,
      "n": 78,
      "o": 79,
      "p": 80,
      "q": 81,
      "r": 82,
      "s": 83,
      "t": 84,
      "u": 85,
      "v": 86,
      "w": 87,
      "x": 88,
      "y": 89,
      "z": 90,
      "{": 91,
      "|": 92,
      "}": 93,
      "~": 94,
      "¡": 95,
      "¢": 96,
      "£": 97,
      "¤": 98,
      "¥": 99,
      "¦": 100,
      "§": 101,
      "¨": 102,
      "©": 103,
      "ª": 104,
      "«": 105,
      "¬": 106,
      "®": 107,
      "¯": 108,
      "°": 109,
      "±": 110,
      "²": 111,
      "³": 112,
      "´": 113,
      "µ": 114,
      "¶": 115,
      "·": 116,
      "¸": 117,
      "¹": 118,
      "º": 119,
      "»": 120,
      "¼": 121,
      "½": 122,
      "¾": 123,
      "¿": 124,
      "À": 125,
      "Á": 126,
      "Â": 127,
      "Ã": 128,
      "Ä": 129,
      "Å": 130,
      "Æ": 131,
      "Ç": 132,
      "È": 133,
      "É": 134,
      "Ê": 135,
      "Ë": 136,
      "Ì": 137,
      "Í": 138,
      "Î": 139,
      "Ï": 140,
      "Ð": 141,
      "Ñ": 142,
      "Ò": 143,
      "Ó": 144,
      "Ô": 145,
      "Õ": 146,
      "Ö": 147,
      "×": 148,
      "Ø": 149,
      "Ù": 150,
      "Ú": 151,
      "Û": 152,
      "Ü": 153,
      "Ý": 154,
      "Þ": 155,
      "ß": 156,
      "à": 157,
      "á": 158,
      "â": 159,
      "ã": 160,
      "ä": 161,
      "å": 162,
      "æ": 163,
      "ç": 164,
      "è": 165,
      "é": 166,
      "ê": 167,
      "ë": 168,
      "ì": 169,
      "í": 170,
      "î": 171,
      "ï": 172,
      "ð": 173,
      "ñ": 174,
      "ò": 175,
      "ó": 176,
      "ô": 177,
      "õ": 178,
      "ö": 179,
      "÷": 180,
      "ø": 181,
      "ù": 182,
      "ú": 183,
      "û": 184,
      "ü": 185,
      "ý": 186,
      "þ": 187,
      "ÿ": 188,
      "Ā": 189,
      "ā": 190,
      "Ă": 191,
      "ă": 192,
      "Ą": 193,
      "ą": 194,
      "Ć": 195,
      "ć": 196,
      "Ĉ": 197,
      "ĉ": 198,
      "Ċ": 199,
      "ċ": 200,
      "Č": 201,
      "č": 202,
      "Ď": 203,
      "ď": 204,
      "Đ": 205,
      "đ": 206,
      "Ē": 207,
      "ē": 208,
      "Ĕ": 209,
      "ĕ": 210,
      "Ė": 211,
      "ė": 212,
      "Ę": 213,
      "ę": 214,
      "Ě": 215,
      "ě": 216,
      "Ĝ": 217,
      "ĝ": 218,
      "Ğ": 219,
      "ğ": 220,
      "Ġ": 221,
      "ġ": 222,
      "Ģ": 223,
      "ģ": 224,
      "Ĥ": 225,
      "ĥ": 226,
      "Ħ": 227,
      "ħ": 228,
      "Ĩ": 229,
      "ĩ": 230,
      "Ī": 231,
      "ī": 232,
      "Ĭ": 233,
      "ĭ": 234,
      "Į": 235,
      "į": 236,
      "İ": 237,
      "ı": 238,
      "Ĳ": 239,
      "ĳ": 240,
      "Ĵ": 241,
      "ĵ": 242,
      "Ķ": 243,
      "ķ": 244,
      "ĸ": 245,
      "Ĺ": 246,
      "ĺ": 247,
      "Ļ": 248,
      "ļ": 249,
      "Ľ": 250,
      "ľ": 251,
      "Ŀ": 252,
      "ŀ": 253,
      "Ł": 254,
      "ł": 255,
      "Ń": 256,
      "Ä±": 257,
      "ar": 258,
      "Ã¼": 259,
      "ÅŁ": 260,
      "er": 261,
      "an": 262,
      "Ġb": 263,
      "de": 264,
      "in": 265,
      "ÄŁ": 266,
      "al": 267,
      "ma": 268,
      "or": 269,
      "Ġs": 270,
      "Ġk": 271,
      "Ã§": 272,
      "il": 273,
      "Ġg": 274,
      "en": 275,
      "ir": 276,
      "Ġy": 277,
      "di": 278,
      "Ä±n": 279,
      "me": 280,
      "yor": 281,
      "dÄ±": 282,
      "Ã¶": 283,
      "da": 284,
      "ol": 285,
      "el": 286,
      "et": 287,
      "im": 288,
      "Ġt": 289,
      "ay": 290,
      "at": 291,
      "Ġi": 292,
      "ak": 293,
      "Ġv": 294,
      "Ġh": 295,
      "ek": 296,
      "Ã¼n": 297,
      "um": 298,
      "un": 299,
      "on": 300,
      "Ä±m": 301,
      "es": 302,
      "Ġol": 303,
      "la": 304,
      "ap": 305,
      "iz": 306,
      "iÅŁ": 307,
      "Ġde": 308,
      "ur": 309,
      "lar": 310,
      "as": 311,
      "ĠS": 312,
      "Ġal": 313,
      "ik": 314,
      "ĠB": 315,
      "Ġbir": 316,
      "Ä±k": 317,
      "ĠÃ§": 318,
      "le": 319,
      "Ã¼r": 320,
      "Ä±yor": 321,
      "am": 322,
      "ĠT": 323,
      "Ġd": 324,
      "ler": 325,
      "Ġa": 326,
      "ĠK": 327,
      "ĠA": 328,
      "Ä±l": 329,
      "Ġm": 330,
      "Ġve": 331,
      "it": 332,
      "inde": 333,
      "is": 334,
      "Ġf": 335,
      "Ä±ÅŁ": 336,
      "Ġp": 337,
      "ara": 338,
      "ul": 339,
      "iyor": 340,
      "Ä±z": 341,
      "ok": 342,
      "ĠÅŁ": 343,
      "Ä±r": 344,
      "20": 345,
      "aÄŁ": 346,
      "Ã¶n": 347,
      "az": 348,
      "Ä°": 349,
      "Ġn": 350,
      "Ġyap": 351,
      "ip": 352,
      "ce": 353,
      "ye": 354,
      "Ġ1": 355,
      "ĠM": 356,
      "st": 357,
      "ĠÃ": 358,
      "du": 359,
      "dan": 360,
      "Ġe": 361,
      "ĠiÃ§": 362,
      "ĠH": 363,
      "dÄ±m": 364,
      "Ġda": 365,
      "ĠY": 366,
      "aÅŁ": 367,
      "ĠG": 368,
      "ĠÄ°": 369,
      "Ġay": 370,
      "em": 371,
      "ti": 372,
      "li": 373,
      "dÄ±ÄŁ": 374,
      "Ġbu": 375,
      "Ġver": 376,
      "Ġgel": 377,
      "tÄ±": 378,
      "eri": 379,
      "ya": 380,
      "den": 381,
      "Ġil": 382,
      "ab": 383,
      "ine": 384,
      "ini": 385,
      "ĠD": 386,
      "Ã¼ÅŁ": 387,
      ",\"": 388,
      "lan": 389,
      "uz": 390,
      "ĠgÃ¼n": 391,
      "ĠE": 392,
      "ĠÃ¼": 393,
      "Ġr": 394,
      "ark": 395,
      "ĠiÃ§in": 396,
      "ĠP": 397,
      "ÄŁim": 398,
      "ipar": 399,
      "ipariÅŁ": 400,
      "mas": 401,
      "Ġkar": 402,
      "Ġoldu": 403,
      "dil": 404,
      "dim": 405,
      "ra": 406,
      "Ġbil": 407,
      "iy": 408,
      "Ä±nda": 409,
      "Ġ2": 410,
      "Ġet": 411,
      "ey": 412,
      "ih": 413,
      "Ġson": 414,
      "ĠgÃ¶": 415,
      "Ġdi": 416,
      "Ä±nÄ±": 417,
      "Ã¶y": 418,
      "ta": 419,
      "dÄ±ÄŁÄ±m": 420,
      "ade": 421,
      "Ġma": 422,
      "Ġu": 423,
      "laÅŁ": 424,
      "unu": 425,
      "Ġara": 426,
      "ki": 427,
      "ĠÃ¼r": 428,
      "Ġar": 429,
      "Ä±s": 430,
      "go": 431,
      "mes": 432,
      "ah": 433,
      "ca": 434,
      "ĠÃ¼rÃ¼n": 435,
      "Ã¼m": 436,
      "ĠÃľ": 437,
      "ef": 438,
      "ĠsipariÅŁ": 439,
      "esi": 440,
      "eÃ§": 441,
      "Ġan": 442,
      "asÄ±": 443,
      "lÄ±": 444,
      "ĠÃ¶": 445,
      "Ġne": 446,
      "tal": 447,
      "Ġist": 448,
      "uk": 449,
      "Ã¼k": 450,
      "'d": 451,
      "der": 452,
      "mÄ±ÅŁ": 453,
      "Ġo": 454,
      "ama": 455,
      "ĠV": 456,
      "Ġtar": 457,
      "Ġhal": 458,
      "Ġz": 459,
      "Ã¶yle": 460,
      "Ä±yorum": 461,
      "men": 462,
      "iÃ§": 463,
      "ĠF": 464,
      "ad": 465,
      "medi": 466,
      "cak": 467,
      "ullan": 468,
      "ĠolduÄŁ": 469,
      "Ä±na": 470,
      "Ã¼ÅŁt": 471,
      "Ġtarih": 472,
      "mek": 473,
      "ĠdeÄŁ": 474,
      "Ġyok": 475,
      "ĠÃ¶n": 476,
      "miÅŁ": 477,
      "Âł": 478,
      "ĠbaÅŁ": 479,
      "alÄ±": 480,
      "aat": 481,
      "mak": 482,
      "ĠO": 483,
      "Ġgi": 484,
      "dÄ±r": 485,
      "Ġ3": 486,
      "!,": 487,
      "met": 488,
      "dir": 489,
      "Ġkullan": 490,
      "ĠÃĩ": 491,
      "edi": 492,
      "ayÄ±": 493,
      "tÄ±m": 494,
      "uÅŁ": 495,
      "leri": 496,
      "madÄ±": 497,
      "erv": 498,
      "Ġama": 499,
      "rÃ¼n": 500,
      "larÄ±": 501,
      "miyor": 502,
      "Ã¼z": 503,
      "ĠTL": 504,
      "alar": 505,
      "inden": 506,
      "ĠgeÃ§": 507,
      "mÄ±yor": 508,
      "ptal": 509,
      "2020": 510,
      "eti": 511,
      "tan": 512,
      "ĠsÃ¼r": 513,
      "bi": 514,
      "Ã¼ÅŁteri": 515,
      "00": 516,
      "Ġsonra": 517,
      "Ġben": 518,
      "ÄŁi": 519,
      "Ġvar": 520,
      "ĠÃ§Ä±k": 521,
      "erek": 522,
      "Ġdah": 523,
      "Ġile": 524,
      "sun": 525,
      "Ġin": 526,
      "Ġsor": 527,
      "ep": 528,
      "ez": 529,
      "ervis": 530,
      "ĠaldÄ±m": 531,
      "ĠhiÃ§": 532,
      "oÄŁ": 533,
      "diler": 534,
      "**": 535,
      "cr": 536,
      "elef": 537,
      "izmet": 538,
      "ĠN": 539,
      "Ã¶nder": 540,
      "elefon": 541,
      "ec": 542,
      "Ġkal": 543,
      "aÄŁmen": 544,
      "eb": 545,
      "ĠC": 546,
      "ĠKar": 547,
      "ĠaÃ§": 548,
      "ĠraÄŁmen": 549,
      "Ġpar": 550,
      "af": 551,
      "ĠÃ¶nce": 552,
      "ub": 553,
      "Ġkad": 554,
      "lÄ±k": 555,
      "arak": 556,
      "Ġtarihinde": 557,
      "ac": 558,
      "tim": 559,
      "alÄ±ÅŁ": 560,
      "masÄ±": 561,
      "ere": 562,
      "uyor": 563,
      "Ġkap": 564,
      "ĠÃ§ok": 565,
      "Ġkargo": 566,
      "Ġdaha": 567,
      "Ġkadar": 568,
      "se": 569,
      "ut": 570,
      "lik": 571,
      "Ġ4": 572,
      "ĠiÅŁ": 573,
      "Ä±ndan": 574,
      "Ġiade": 575,
      "ĠaldÄ±ÄŁÄ±m": 576,
      "ĠgÃ¶r": 577,
      "Ġ5": 578,
      "ev": 579,
      "ĠBu": 580,
      "Ġc": 581,
      "iyorum": 582,
      "Ã¶z": 583,
      "Ġher": 584,
      "tir": 585,
      "Ġyaz": 586,
      "Ġdiye": 587,
      "!,\"": 588,
      "ro": 589,
      "te": 590,
      "ana": 591,
      "ĠÃľrÃ¼n": 592,
      "len": 593,
      "Ġel": 594,
      "tÄ±r": 595,
      "Ġmark": 596,
      "ĠulaÅŁ": 597,
      "ken": 598,
      "iniz": 599,
      "dÄ±k": 600,
      "gil": 601,
      "Ġgeldi": 602,
      "Ġhizmet": 603,
      "Ġsaat": 604,
      "bir": 605,
      "si": 606,
      "ĠSor": 607,
      "Åŀ": 608,
      "Ġiptal": 609,
      "ekil": 610,
      "maya": 611,
      "ĠgÃ¶nder": 612,
      "atur": 613,
      "aÃ§": 614,
      "ĠÃ§alÄ±ÅŁ": 615,
      "umar": 616,
      "akat": 617,
      "imi": 618,
      "201": 619,
      "ĠÃ¶de": 620,
      "Ġfir": 621,
      "Ġtes": 622,
      "os": 623,
      "tÄ±ÄŁ": 624,
      "Ġyan": 625,
      "ĠyapÄ±l": 626,
      "Ġgibi": 627,
      "ig": 628,
      "lÃ¼": 629,
      "Ġservis": 630,
      "Ġgit": 631,
      "urum": 632,
      "Ġolarak": 633,
      "tr": 634,
      "ada": 635,
      "Ġbek": 636,
      "Ġtelefon": 637,
      "cret": 638,
      "gi": 639,
      "tÄ±k": 640,
      "inin": 641,
      "lim": 642,
      "Ġhala": 643,
      "diÄŁim": 644,
      "ĠdÃ¶n": 645,
      "av": 646,
      "cÄ±": 647,
      "ten": 648,
      "ĠÅŀ": 649,
      "aman": 650,
      "ĠÅŁey": 651,
      "Ġdol": 652,
      "ikay": 653,
      "Ġedil": 654,
      "ĠKargo": 655,
      "Ġkon": 656,
      "Ġolma": 657,
      "dum": 658,
      "tÃ¼": 659,
      "ĠsÃ¶yle": 660,
      "ĠmÃ¼ÅŁteri": 661,
      "Ġek": 662,
      "Ġtek": 663,
      "Ġnumar": 664,
      "nÄ±": 665,
      "san": 666,
      "om": 667,
      "ter": 668,
      "us": 669,
      "ĠyÄ±l": 670,
      "ĠAr": 671,
      "Ġsat": 672,
      "Ġyer": 673,
      "dur": 674,
      "eme": 675,
      "Ä±p": 676,
      "ĠdeÄŁiÅŁ": 677,
      "art": 678,
      "diyor": 679,
      "Ġtak": 680,
      "oz": 681,
      "ĠAl": 682,
      "Ġzaman": 683,
      "net": 684,
      "elik": 685,
      "isi": 686,
      "man": 687,
      "mesi": 688,
      "aran": 689,
      "lem": 690,
      "ĠÅŁekil": 691,
      "ikayet": 692,
      "Ġbul": 693,
      "ĠÃ¼z": 694,
      "ĠSorunu": 695,
      "ĠAn": 696,
      "Ġfakat": 697,
      "ede": 698,
      "lu": 699,
      "Ġden": 700,
      "ĠÅŁekilde": 701,
      "tik": 702,
      "Ġon": 703,
      "Ġev": 704,
      "lerini": 705,
      "Ä±mÄ±": 706,
      "'t": 707,
      "uy": 708,
      "ĠYap": 709,
      "ĠhiÃ§bir": 710,
      "Ġgir": 711,
      "gÃ¼n": 712,
      "ot": 713,
      "ĠL": 714,
      "Ä±nÄ±z": 715,
      "mem": 716,
      "Ġolan": 717,
      "ĠBir": 718,
      "ĠdeÄŁil": 719,
      "ĠaynÄ±": 720,
      "oy": 721,
      "ĠVe": 722,
      "op": 723,
      "ecek": 724,
      "ĠR": 725,
      "dik": 726,
      "eli": 727,
      "araf": 728,
      "ĠmaÄŁ": 729,
      "Ġgerek": 730,
      "yon": 731,
      "Ã¼yor": 732,
      "Ġhat": 733,
      "Ġhaf": 734,
      "let": 735,
      "Ġki": 736,
      "Ġ10": 737,
      "Ġfatur": 738,
      "Ġor": 739,
      "ĠAy": 740,
      "Ġveril": 741,
      "ers": 742,
      "Ġyar": 743,
      "ĠÅŁub": 744,
      "Ġbiz": 745,
      "ĠGel": 746,
      "ĠÃ¼cret": 747,
      "ternet": 748,
      "yi": 749,
      "Ġsit": 750,
      "ÄŁÄ±": 751,
      "iler": 752,
      "Ġsorun": 753,
      "ĠU": 754,
      "Ġak": 755,
      "ank": 756,
      "Ġen": 757,
      "Ġbel": 758,
      "Ġken": 759,
      "aya": 760,
      "lam": 761,
      "tÄ±ÄŁÄ±m": 762,
      "Ã¼t": 763,
      "ĠbÃ¶yle": 764,
      "lama": 765,
      "ĠSipariÅŁ": 766,
      "Ä±ma": 767,
      "Ġbak": 768,
      "ĠÅŁikayet": 769,
      "Ġkes": 770,
      "Ġediyor": 771,
      "ece": 772,
      "ĠyaÅŁ": 773,
      "Ġteslim": 774,
      "Ġat": 775,
      "Ġl": 776,
      "ĠolduÄŁum": 777,
      "rar": 778,
      "Ġbana": 779,
      "Ġtaraf": 780,
      "Ġgeri": 781,
      "Ġyol": 782,
      "Ġpara": 783,
      "Ġilgil": 784,
      "Ġot": 785,
      "Ġbulun": 786,
      "ĠÃ¼zer": 787,
      "Ġce": 788,
      "ĠÄ°ade": 789,
      "tiÄŁim": 790,
      "ran": 791,
      "Ä±nÄ±n": 792,
      "acaÄŁ": 793,
      "ĠkÃ¶": 794,
      "Ġdurum": 795,
      "Ġhafta": 796,
      "ime": 797,
      "eni": 798,
      "Ġ6": 799,
      "Ġmarka": 800,
      "ci": 801,
      "Ġ(": 802,
      "ÄŁini": 803,
      "Ġsiz": 804,
      "cu": 805,
      "Ġ0": 806,
      "may": 807,
      "ayÄ±s": 808,
      "Ġdef": 809,
      "rÄ±": 810,
      "sÄ±z": 811,
      "ĠBil": 812,
      "amÄ±yorum": 813,
      "dÄ±ÄŁÄ±": 814,
      "Ġbile": 815,
      "Ġneden": 816,
      "ĠaradÄ±m": 817,
      "sa": 818,
      "ekli": 819,
      "ĠÃĸ": 820,
      "laÅŁÄ±k": 821,
      "sunuz": 822,
      "dÃ¼r": 823,
      "akk": 824,
      "asÄ±l": 825,
      "ka": 826,
      "Ġkur": 827,
      "Ġdiyor": 828,
      "eÅŁ": 829,
      "muÅŁ": 830,
      "ĠTV": 831,
      "masÄ±na": 832,
      "Ġettim": 833,
      "ÄŁr": 834,
      "meye": 835,
      "astan": 836,
      "Ġuy": 837,
      "redi": 838,
      "ĠdÃ¶nÃ¼ÅŁ": 839,
      "Ġyak": 840,
      "Ġdev": 841,
      "Ġmu": 842,
      "Ġtal": 843,
      "ĠdÃ¼ÅŁ": 844,
      "erk": 845,
      "Ġyet": 846,
      "yen": 847,
      "ĠolduÄŁunu": 848,
      "abil": 849,
      "aranti": 850,
      "gis": 851,
      "ĠMÃ¼ÅŁteri": 852,
      "Ġancak": 853,
      "ven": 854,
      "iyle": 855,
      "ĠÃ§Ã¶z": 856,
      "aÄŁÄ±": 857,
      "ĠkÄ±r": 858,
      "eler": 859,
      "Ġfark": 860,
      "Ġsu": 861,
      "iyat": 862,
      "ĠolduÄŁu": 863,
      "mam": 864,
      "ili": 865,
      "ĠÃ§ek": 866,
      "ĠiÃ§inde": 867,
      "Ġzor": 868,
      "Ġ\"": 869,
      "unda": 870,
      "aj": 871,
      "Ġ7": 872,
      "ĠkÄ±s": 873,
      "Ġistiyorum": 874,
      "igor": 875,
      ".\"": 876,
      "05": 877,
      "ĠGÃ¼n": 878,
      "Ġverdim": 879,
      "nun": 880,
      "Ġark": 881,
      "Ã¼p": 882,
      "Ġya": 883,
      "Ġtem": 884,
      "Ġilk": 885,
      "ĠnumaralÄ±": 886,
      "ĠkÃ¶tÃ¼": 887,
      "ektr": 888,
      "Ä±mÄ±z": 889,
      "ĠÄ°l": 890,
      "Ġmak": 891,
      "Ġmes": 892,
      "ene": 893,
      "ĠalmÄ±ÅŁ": 894,
      "Ġiste": 895,
      "tu": 896,
      "Ġbit": 897,
      "Ġcev": 898,
      "Ġiki": 899,
      "ĠVer": 900,
      "anÄ±n": 901,
      "2019": 902,
      "10": 903,
      "re": 904,
      "Ã¼s": 905,
      "leÅŁ": 906,
      "Ġgelen": 907,
      "bul": 908,
      "stan": 909,
      "ĠkarÅŁ": 910,
      "Ġtekrar": 911,
      "madan": 912,
      "ĠsaÄŁ": 913,
      "ĠnasÄ±l": 914,
      "ĠÄ°n": 915,
      "ob": 916,
      "Ġ20": 917,
      "Ã¼ÄŁ": 918,
      "det": 919,
      "ĠMayÄ±s": 920,
      "Ġede": 921,
      "ĠPar": 922,
      "ĠgÃ¶z": 923,
      "mesini": 924,
      "Ġinternet": 925,
      "ver": 926,
      "Ġyat": 927,
      "ĠparÃ§": 928,
      "erkez": 929,
      "sik": 930,
      "ildi": 931,
      "imiz": 932,
      "larÄ±n": 933,
      "Ġcevap": 934,
      "cel": 935,
      "arÄ±": 936,
      "Ġkan": 937,
      "Ġpro": 938,
      "ĠÄ°ptal": 939,
      "ĠarÄ±z": 940,
      "alan": 941,
      "Ġinsan": 942,
      "han": 943,
      "Ã¼ven": 944,
      "adece": 945,
      "ektrik": 946,
      "up": 947,
      "Ġ2020": 948,
      "ĠsÃ¶y": 949,
      "ĠkiÅŁ": 950,
      "Ġhem": 951,
      "una": 952,
      "Ġad": 953,
      "stanbul": 954,
      "siz": 955,
      "Ã¶r": 956,
      "asÄ±nda": 957,
      "ĠBen": 958,
      "amÄ±": 959,
      "ihaz": 960,
      "Ġhalde": 961,
      "iv": 962,
      "iye": 963,
      "ĠaldÄ±k": 964,
      "ĠdÃ¼z": 965,
      "Ä±ldÄ±": 966,
      "eÄŁ": 967,
      "unun": 968,
      "ladÄ±": 969,
      "ĠEk": 970,
      "Ġkab": 971,
      "etir": 972,
      "if": 973,
      "Ä±f": 974,
      "Ä±sÄ±": 975,
      "Ġbekle": 976,
      "Ã¼l": 977,
      "Ġbay": 978,
      "esinde": 979,
      "Ġadet": 980,
      "ĠÃ¼y": 981,
      "Ġmesaj": 982,
      "ĠZ": 983,
      "erÃ§": 984,
      "Ġdediler": 985,
      "Ä±yoruz": 986,
      "Ġmi": 987,
      "ĠgÃ¼nÃ¼": 988,
      "lÄ±ÄŁÄ±": 989,
      "Ġilgili": 990,
      "Ġ8": 991,
      "ÄŁer": 992,
      "Ġkay": 993,
      "Ġ15": 994,
      "liÄŁi": 995,
      "ĠÃ¼st": 996,
      "ĠbaÅŁv": 997,
      "ĠsÃ¼rekli": 998,
      "ĠdolayÄ±": 999,
      "acak": 1000,
      "lay": 1001,
      "oÅŁ": 1002,
      "tÃ¼r": 1003,
      "Ã¼y": 1004,
      "ĠyÃ¼z": 1005,
      "Ġte": 1006,
      "ĠServis": 1007,
      "Ġpak": 1008,
      "ĠverdiÄŁim": 1009,
      "orm": 1010,
      "azla": 1011,
      "Ġilet": 1012,
      "Ġmail": 1013,
      "Ġkol": 1014,
      "Ġtan": 1015,
      "Ġhes": 1016,
      "ĠalÄ±n": 1017,
      "ist": 1018,
      "Ġhizmetlerini": 1019,
      "tel": 1020,
      "Ä±la": 1021,
      "ĠbaÄŁ": 1022,
      "ÄŁum": 1023,
      "Ġbelir": 1024,
      "Ġiz": 1025,
      "masÄ±nÄ±": 1026,
      "fen": 1027,
      "mi": 1028,
      "ĠHal": 1029,
      "inema": 1030,
      "iyet": 1031,
      "ĠiÅŁlem": 1032,
      "adaÅŁ": 1033,
      "ĠmaÄŁaz": 1034,
      "eye": 1035,
      "Ġfiyat": 1036,
      "Ġtalep": 1037,
      "gu": 1038,
      "yla": 1039,
      "ĠyardÄ±m": 1040,
      "cil": 1041,
      "lat": 1042,
      "Ġme": 1043,
      "Ġgelmedi": 1044,
      "Ġbilet": 1045,
      "Ġfatura": 1046,
      "Ġdevam": 1047,
      "50": 1048,
      "ĠSon": 1049,
      "ĠSÃ¼r": 1050,
      "amp": 1051,
      "Ä±ÅŁver": 1052,
      "Ä±ÅŁveriÅŁ": 1053,
      "alÄ±k": 1054,
      "Ġkim": 1055,
      "Ġyeni": 1056,
      "Ä±yorlar": 1057,
      "raf": 1058,
      "ĠNe": 1059,
      "lÄ±ÅŁ": 1060,
      "Ġboz": 1061,
      "asÄ±nÄ±": 1062,
      "ika": 1063,
      "amsun": 1064,
      "Ġdak": 1065,
      "ĠbaÅŁka": 1066,
      "ĠÃ¶deme": 1067,
      "sÄ±": 1068,
      "Ġas": 1069,
      "ĠsÄ±k": 1070,
      "Ġsadece": 1071,
      "Ä±lÄ±": 1072,
      "Ġfil": 1073,
      "ĠÅŁu": 1074,
      "ĠÄ°Ã§": 1075,
      "ĠbaÅŁvur": 1076,
      "Ġsan": 1077,
      "Ġsal": 1078,
      "esinden": 1079,
      "isan": 1080,
      "Ġbilgi": 1081,
      "ĠÃ§Ä±ktÄ±": 1082,
      "cek": 1083,
      "oc": 1084,
      "Ġla": 1085,
      "mama": 1086,
      "eniz": 1087,
      "ĠdoÄŁ": 1088,
      "ĠYan": 1089,
      "dÄ±ÄŁÄ±nÄ±": 1090,
      "dÃ¼m": 1091,
      "zel": 1092,
      "Ġkredi": 1093,
      "ĠbugÃ¼n": 1094,
      "Ġoy": 1095,
      "Ġcihaz": 1096,
      "ĠdeÄŁiÅŁtir": 1097,
      "Ġyetk": 1098,
      "tur": 1099,
      "ve": 1100,
      "Ġko": 1101,
      "urk": 1102,
      "lima": 1103,
      "Ġsonu": 1104,
      "ĠÃ¼rÃ¼nÃ¼": 1105,
      "ode": 1106,
      "Ġtam": 1107,
      "asyon": 1108,
      "ĠÃĩÄ±k": 1109,
      "ĠarkadaÅŁ": 1110,
      "Ġistedim": 1111,
      "Ġmem": 1112,
      "ĠsÃ¶z": 1113,
      "ilik": 1114,
      "Ġhaz": 1115,
      "Ġarac": 1116,
      "ĠÃ¼rÃ¼nler": 1117,
      "ĠsipariÅŁim": 1118,
      "creti": 1119,
      "ĠmaÄŁdur": 1120,
      "erÃ§ek": 1121,
      "Ar": 1122,
      "hat": 1123,
      "Ġuz": 1124,
      "lara": 1125,
      "Ġalmak": 1126,
      "Ġfazla": 1127,
      "ĠartÄ±k": 1128,
      "Ġbenim": 1129,
      "Ġkargoya": 1130,
      "Ġbekl": 1131,
      "ĠÃ¼zerinden": 1132,
      "istem": 1133,
      "ib": 1134,
      "ĠTes": 1135,
      "ĠTelefon": 1136,
      "lerine": 1137,
      "ĠAt": 1138,
      "iyim": 1139,
      "ĠOl": 1140,
      "eh": 1141,
      "res": 1142,
      "tar": 1143,
      "Ġsay": 1144,
      "ĠoluÅŁ": 1145,
      "ĠalÄ±ÅŁveriÅŁ": 1146,
      "Ġdur": 1147,
      "ĠHastan": 1148,
      "Ġediyorum": 1149,
      "Ġdefa": 1150,
      "Ġmemnun": 1151,
      "04": 1152,
      "muyor": 1153,
      "tor": 1154,
      "tiler": 1155,
      "Ä±ntÄ±": 1156,
      "ĠKal": 1157,
      "ĠmÄ±": 1158,
      "Ġmerkez": 1159,
      "araca": 1160,
      "Ġistedi": 1161,
      "ĠdÃ¼ÅŁÃ¼n": 1162,
      "amsung": 1163,
      "ĠgÃ¼ven": 1164,
      "ĠyaptÄ±r": 1165,
      "ĠYok": 1166,
      "meyen": 1167,
      "Ġdedi": 1168,
      "larÄ±nÄ±": 1169,
      "ĠTek": 1170,
      "Ġres": 1171,
      "ĠgÃ¶tÃ¼r": 1172,
      "Ġfirma": 1173,
      "id": 1174,
      "yip": 1175,
      "Ġgetir": 1176,
      "Ġise": 1177,
      "Ġhakk": 1178,
      "ĠSaat": 1179,
      "Ä±rak": 1180,
      "ĠyaptÄ±m": 1181,
      "aha": 1182,
      "ayÄ±p": 1183,
      "ĠaÃ§Ä±l": 1184,
      "Ġelime": 1185,
      "sil": 1186,
      "Ġses": 1187,
      "Ġkez": 1188,
      "Ġoluyor": 1189,
      "ĠEl": 1190,
      "alarÄ±": 1191,
      "ĠsatÄ±n": 1192,
      "Ġbelirt": 1193,
      "blem": 1194,
      "ayÄ±n": 1195,
      "ayat": 1196,
      "Ä±mda": 1197,
      "ĠÄ°stanbul": 1198,
      "Ġetmek": 1199,
      "likle": 1200,
      "Ġpaket": 1201,
      "Ġ'": 1202,
      "Ġgaranti": 1203,
      "ĠolmasÄ±na": 1204,
      "ĠgÃ¶rÃ¼n": 1205,
      "ĠaradÄ±ÄŁÄ±m": 1206,
      "mesine": 1207,
      "Ġlir": 1208,
      "Ġmakin": 1209,
      "Ã¼yÃ¼k": 1210,
      "Ġdakika": 1211,
      "11": 1212,
      "12": 1213,
      "uma": 1214,
      "meden": 1215,
      "one": 1216,
      "larda": 1217,
      "ĠMaÄŁ": 1218,
      "abÄ±": 1219,
      "Ġkapat": 1220,
      "Ã¼nde": 1221,
      "ĠTÃ¼r": 1222,
      "ĠgÃ¼ndÃ¼r": 1223,
      "ÄŁimi": 1224,
      "amadÄ±m": 1225,
      "ĠFatur": 1226,
      "ebek": 1227,
      "ĠsÃ¶ylen": 1228,
      "ĠHastanesi": 1229,
      "ĠW": 1230,
      "undan": 1231,
      "ĠolmadÄ±": 1232,
      "ĠaÅŁ": 1233,
      "ĠGÃ¶nder": 1234,
      "ĠPara": 1235,
      "ĠsÃ¶ylediler": 1236,
      "hangi": 1237,
      "Ġ9": 1238,
      "Ä±cÄ±": 1239,
      "Ġseb": 1240,
      "ilen": 1241,
      "mez": 1242,
      "imdi": 1243,
      "Ä±mÄ±n": 1244,
      "Ġolur": 1245,
      "Ġmode": 1246,
      "ĠÃ¼rÃ¼nÃ¼n": 1247,
      "ĠsÃ¼re": 1248,
      "gilen": 1249,
      "lÃ¼k": 1250,
      "ĠsaÃ§": 1251,
      "Ġyine": 1252,
      "imum": 1253,
      "Ġhep": 1254,
      "Ġalt": 1255,
      "iyorlar": 1256,
      "Ġkart": 1257,
      "Ġkalit": 1258,
      "02": 1259,
      "maz": 1260,
      "ĠgerÃ§ek": 1261,
      "umu": 1262,
      "asÄ±ndan": 1263,
      "Ġaz": 1264,
      "ĠarÄ±yorum": 1265,
      "***": 1266,
      "gisay": 1267,
      "Ã¼pÃ¼r": 1268,
      "ov": 1269,
      "sam": 1270,
      "âĢ": 1271,
      "Ġsistem": 1272,
      "ĠyÃ¶n": 1273,
      "Ġiyi": 1274,
      "ĠÄ°ÅŁ": 1275,
      "ĠayÄ±nda": 1276,
      "ĠÃľcret": 1277,
      "alarca": 1278,
      "ge": 1279,
      "suz": 1280,
      "ĠI": 1281,
      "Ġbor": 1282,
      "enc": 1283,
      "dip": 1284,
      "olu": 1285,
      "imin": 1286,
      "aten": 1287,
      "iyoruz": 1288,
      "ĠDeÄŁ": 1289,
      "ahat": 1290,
      "Ġbeni": 1291,
      "igit": 1292,
      "Ġkesin": 1293,
      "Ġhesab": 1294,
      "03": 1295,
      "Bu": 1296,
      "caÄŁ": 1297,
      "medim": 1298,
      "Ġhas": 1299,
      "leme": 1300,
      "ĠTur": 1301,
      "ĠEn": 1302,
      "Ġkendi": 1303,
      "ĠkÄ±sa": 1304,
      "emek": 1305,
      "Ã¼c": 1306,
      "ĠbÄ±rak": 1307,
      "ĠAra": 1308,
      "oktor": 1309,
      "Ġ12": 1310,
      "Ġgeliyor": 1311,
      "ĠEt": 1312,
      "ayÄ±t": 1313,
      "Ġyani": 1314,
      "ĠYapÄ±l": 1315,
      "igiturk": 1316,
      "An": 1317,
      "kara": 1318,
      "mart": 1319,
      "irk": 1320,
      "Ġtab": 1321,
      "ask": 1322,
      "ĠBaÅŁ": 1323,
      "ĠHer": 1324,
      "Ġhizmetleri": 1325,
      "Ġkonu": 1326,
      "arant": 1327,
      "ĠÃ§Ã¶zÃ¼m": 1328,
      "dar": 1329,
      "Ġsev": 1330,
      "Ġtut": 1331,
      "ĠKon": 1332,
      "ster": 1333,
      "ĠHizmet": 1334,
      "ĠbaÅŁladÄ±": 1335,
      "Ġgittim": 1336,
      "ĠhazÄ±r": 1337,
      "fit": 1338,
      "ximum": 1339,
      "Ġer": 1340,
      "eris": 1341,
      "ans": 1342,
      "Ġsene": 1343,
      "Ã¶l": 1344,
      "daÅŁ": 1345,
      "esiz": 1346,
      "ĠAk": 1347,
      "ĠPro": 1348,
      "Ġherhangi": 1349,
      "usu": 1350,
      "Ã¼tÃ¼n": 1351,
      "ĠyardÄ±mcÄ±": 1352,
      "nik": 1353,
      "ale": 1354,
      "ĠyÃ¼k": 1355,
      "Ä±fÄ±r": 1356,
      "gisayar": 1357,
      "06": 1358,
      "anÄ±": 1359,
      "ÄŁu": 1360,
      "Ġhav": 1361,
      "iÅŁim": 1362,
      "Ä±yorsunuz": 1363,
      "itap": 1364,
      "ceÄŁim": 1365,
      "ĠNisan": 1366,
      "inemaximum": 1367,
      "Karaca": 1368,
      "com": 1369,
      "por": 1370,
      "ĠdÄ±": 1371,
      "ĠSu": 1372,
      "lerde": 1373,
      "Ä±zÄ±": 1374,
      "Ä±rken": 1375,
      "Ġbildir": 1376,
      "amam": 1377,
      "trol": 1378,
      "ĠÄ°adesi": 1379,
      "acaÄŁÄ±m": 1380,
      "abilir": 1381,
      "igort": 1382,
      "ampan": 1383,
      "bar": 1384,
      "Ġbur": 1385,
      "iÅŁman": 1386,
      "ĠDaha": 1387,
      "ĠEdil": 1388,
      "ĠuÃ§": 1389,
      "miyorum": 1390,
      "ĠgeÃ§ti": 1391,
      "ĠvardÄ±": 1392,
      "osu": 1393,
      "erson": 1394,
      "ocuk": 1395,
      "ĠdÄ±ÅŁ": 1396,
      "yerek": 1397,
      "Ġ201": 1398,
      "ande": 1399,
      "ize": 1400,
      "ĠsipariÅŁi": 1401,
      "ukuk": 1402,
      "ĠkÄ±rÄ±k": 1403,
      "ĠparÃ§a": 1404,
      "Ġkabul": 1405,
      "Ġsalon": 1406,
      "limat": 1407,
      "ren": 1408,
      "Ãĩ": 1409,
      "Ġis": 1410,
      "ĠaylÄ±k": 1411,
      "ĠÃ¶ÄŁr": 1412,
      "Ġgider": 1413,
      "dirme": 1414,
      "Ġindir": 1415,
      "Ġelektrik": 1416,
      "Ġlira": 1417,
      "adan": 1418,
      "line": 1419,
      "rem": 1420,
      "za": 1421,
      "ile": 1422,
      "Ã¶k": 1423,
      "imde": 1424,
      "aklaÅŁÄ±k": 1425,
      "Ġoldum": 1426,
      "urt": 1427,
      "ĠeÅŁ": 1428,
      "ĠaraÃ§": 1429,
      "ĠOp": 1430,
      "acfit": 1431,
      "ĠAncak": 1432,
      "mayan": 1433,
      "igorta": 1434,
      "ĠkarÅŁÄ±": 1435,
      "ĠbaÄŁlan": 1436,
      "ĠHala": 1437,
      "30": 1438,
      "dy": 1439,
      "tuk": 1440,
      "iran": 1441,
      "Ä±nca": 1442,
      "ite": 1443,
      "Ä±za": 1444,
      "ĠaydÄ±r": 1445,
      "ĠÃ¼creti": 1446,
      "erede": 1447,
      "Ġasla": 1448,
      "ch": 1449,
      "lak": 1450,
      "luk": 1451,
      "to": 1452,
      "Ġok": 1453,
      "ant": 1454,
      "Ġkor": 1455,
      "meme": 1456,
      "esine": 1457,
      "Ġab": 1458,
      "ĠKap": 1459,
      "ĠKÄ±r": 1460,
      "ĠyaptÄ±ÄŁÄ±m": 1461,
      "Ġ18": 1462,
      "ĠHat": 1463,
      "ĠettiÄŁim": 1464,
      "ĠÃ¶zel": 1465,
      "Ġ30": 1466,
      "ĠÃĩok": 1467,
      "ĠÃ§Ä±kar": 1468,
      "Ġservise": 1469,
      "otoÄŁ": 1470,
      "Ġilgilen": 1471,
      "rÄ±ca": 1472,
      "Ġuygu": 1473,
      "gisiz": 1474,
      "ĠgÃ¶zÃ¼k": 1475,
      "Ġproblem": 1476,
      "ĠdÃ¼zel": 1477,
      "dÃ¼": 1478,
      "Ġes": 1479,
      "Ġberi": 1480,
      "ince": 1481,
      "alg": 1482,
      "dÄ±lar": 1483,
      "Ġhastan": 1484,
      "ĠBel": 1485,
      "ĠÅŁirk": 1486,
      "azan": 1487,
      "Ġetti": 1488,
      "efer": 1489,
      "makta": 1490,
      "Ġiadesi": 1491,
      "ĠtarafÄ±ndan": 1492,
      "Ġfilm": 1493,
      "ĠaradÄ±ÄŁÄ±mda": 1494,
      "ida": 1495,
      "sek": 1496,
      "siniz": 1497,
      "ĠkÃ¼": 1498,
      "ĠkaÃ§": 1499,
      "Ã¼ne": 1500,
      "ĠBank": 1501,
      "ĠÃ§aÄŁ": 1502,
      "ĠiÃ§eris": 1503,
      "Ġrez": 1504,
      "ĠkartÄ±m": 1505,
      "Ġzaten": 1506,
      "ĠFakat": 1507,
      "Ġkargom": 1508,
      "ĠÅŀub": 1509,
      "uyu": 1510,
      "Ġkurul": 1511,
      "Ġ\"\"": 1512,
      "Ġtemiz": 1513,
      "ehir": 1514,
      "otoÄŁraf": 1515,
      "01": 1516,
      "15": 1517,
      "sel": 1518,
      "Ġkere": 1519,
      "Ġtel": 1520,
      "ĠtÃ¼m": 1521,
      "ĠaÄŁ": 1522,
      "Ä±ÅŁÄ±": 1523,
      "duÄŁum": 1524,
      "emiyorum": 1525,
      "ĠuÄŁr": 1526,
      "ediye": 1527,
      "Ġekran": 1528,
      "ĠtarafÄ±ma": 1529,
      "Ġzorunda": 1530,
      "Ġmodel": 1531,
      "eg": 1532,
      "ica": 1533,
      "ĠbÃ¶l": 1534,
      "ĠkayÄ±t": 1535,
      "ilip": 1536,
      "etim": 1537,
      "Ġter": 1538,
      "Ġhar": 1539,
      "Ġdedim": 1540,
      "ĠSat": 1541,
      "ĠAma": 1542,
      "Ġ16": 1543,
      "ĠgÃ¶ster": 1544,
      "ĠdiÄŁer": 1545,
      "ĠyanlÄ±ÅŁ": 1546,
      "Ġedildi": 1547,
      "ĠgiriÅŁ": 1548,
      "Ġgerekiyor": 1549,
      "ĠkiÅŁi": 1550,
      "ĠElektrik": 1551,
      "ua": 1552,
      "ĠÄ±s": 1553,
      "Ġbank": 1554,
      "Ġkut": 1555,
      "lerin": 1556,
      "Ġeder": 1557,
      "ĠHaz": 1558,
      "ĠHukuk": 1559,
      "Ġverdi": 1560,
      "aber": 1561,
      "ĠÃĩalÄ±ÅŁ": 1562,
      "ĠsÃ¼rec": 1563,
      "000": 1564,
      "ĠaÃ§Ä±k": 1565,
      "ĠgÃ¶re": 1566,
      "ĠolmadÄ±ÄŁÄ±nÄ±": 1567,
      "Ġotur": 1568,
      "Ġyetkili": 1569,
      "\"\"": 1570,
      "19": 1571,
      "ia": 1572,
      "kÃ¼": 1573,
      "kaÃ§": 1574,
      "malar": 1575,
      "Ġmas": 1576,
      "ĠlÃ¼": 1577,
      "arj": 1578,
      "Ġboy": 1579,
      "Ã§elik": 1580,
      "Ġgarant": 1581,
      "Ġyas": 1582,
      "memiÅŁ": 1583,
      "larÄ±m": 1584,
      "Ġrahat": 1585,
      "Ġsonr": 1586,
      "ĠgittiÄŁim": 1587,
      "ĠUlaÅŁ": 1588,
      "lamÄ±yorum": 1589,
      "ĠÄ°lk": 1590,
      "Ã¼ÄŁÃ¼m": 1591,
      "ĠEksik": 1592,
      "Ġkimse": 1593,
      "ersonel": 1594,
      "Al": 1595,
      "Ben": 1596,
      "sini": 1597,
      "tfen": 1598,
      "yan": 1599,
      "Ġbunu": 1600,
      "Ġsefer": 1601,
      "Ã§a": 1602,
      "enin": 1603,
      "ĠBoz": 1604,
      "Ġveya": 1605,
      "ĠyaptÄ±": 1606,
      "Ġ11": 1607,
      "Ġ14": 1608,
      "ĠMa": 1609,
      "Ä±ndaki": 1610,
      "ĠFir": 1611,
      "Ġtemsil": 1612,
      "ormal": 1613,
      "Ġbekliyorum": 1614,
      "ĠMaÄŁdur": 1615,
      "darik": 1616,
      "24": 1617,
      "bur": 1618,
      "dol": 1619,
      "dÃ¼k": 1620,
      "we": 1621,
      "Ġbin": 1622,
      "Ġbas": 1623,
      "ĠbÃ¼yÃ¼k": 1624,
      "mamÄ±ÅŁ": 1625,
      "ĠyÄ±k": 1626,
      "ayÄ±m": 1627,
      "akin": 1628,
      "ona": 1629,
      "estel": 1630,
      "izyon": 1631,
      "asÄ±na": 1632,
      "ĠÃ§ocuk": 1633,
      "Ġdoktor": 1634,
      "ĠKen": 1635,
      "uldu": 1636,
      "kiye": 1637,
      "Ġsorunu": 1638,
      "ĠyazÄ±yor": 1639,
      "Ġeksik": 1640,
      "Ġtakip": 1641,
      "Ġdefalarca": 1642,
      "ĠarÄ±za": 1643,
      "ĠlÃ¼tfen": 1644,
      "hal": 1645,
      "ne": 1646,
      "Ġ2019": 1647,
      "ars": 1648,
      "ĠsÄ±r": 1649,
      "Ġkok": 1650,
      "ilir": 1651,
      "Ġta": 1652,
      "Ã¼rosu": 1653,
      "Ġacil": 1654,
      "Ä±lmÄ±ÅŁ": 1655,
      "ĠEr": 1656,
      "Ġ24": 1657,
      "miyorlar": 1658,
      "ecik": 1659,
      "Ġkontrol": 1660,
      "Ġsitesinden": 1661,
      "mayÄ±": 1662,
      "ĠfarklÄ±": 1663,
      "ĠÃ¼yeli": 1664,
      "ĠKalit": 1665,
      "ĠFatura": 1666,
      "ĠsÃ¶ylendi": 1667,
      "ĠiÃ§erisinde": 1668,
      "uawe": 1669,
      "uawei": 1670,
      "Samsung": 1671,
      "din": 1672,
      "leti": 1673,
      "oca": 1674,
      "ocu": 1675,
      "ru": 1676,
      "ĠbÃ¼tÃ¼n": 1677,
      "ilmiÅŁ": 1678,
      "ĠyoÄŁ": 1679,
      "Ġhak": 1680,
      "umsuz": 1681,
      "Ġolsun": 1682,
      "ĠSigorta": 1683,
      "Ġait": 1684,
      "ĠKredi": 1685,
      "ĠMart": 1686,
      "ĠHak": 1687,
      "ĠHiÃ§": 1688,
      "ĠHayat": 1689,
      "Ġ21": 1690,
      "amaz": 1691,
      "mÄ±yorlar": 1692,
      "ĠÃ§alÄ±ÅŁan": 1693,
      "Ġonay": 1694,
      "Ġdiyorlar": 1695,
      "ĠyatÄ±r": 1696,
      "Ġtane": 1697,
      "ke": 1698,
      "mir": 1699,
      "na": 1700,
      "Ãľ": 1701,
      "Ġbey": 1702,
      "ĠboÅŁ": 1703,
      "ĠsÃ¼pÃ¼r": 1704,
      "Ġkir": 1705,
      "Ġkat": 1706,
      "Ġkah": 1707,
      "Ġkoy": 1708,
      "ĠtÃ¼r": 1709,
      "Ġtop": 1710,
      "Ġih": 1711,
      "lere": 1712,
      "Ä±rÄ±": 1713,
      "ĠÄ°z": 1714,
      "eyi": 1715,
      "lÄ±ÄŁ": 1716,
      "****": 1717,
      "ĠkonuÅŁ": 1718,
      "ĠsÃ¶yledi": 1719,
      "manÄ±n": 1720,
      "ĠkÄ±sm": 1721,
      "ram": 1722,
      "Ãĸ": 1723,
      "Ä±t": 1724,
      "madÄ±m": 1725,
      "Ġsab": 1726,
      "ĠÃ§ekil": 1727,
      "lerinde": 1728,
      "ĠYaz": 1729,
      "Ġveriyor": 1730,
      "arken": 1731,
      "Ã¼keti": 1732,
      "Ġhizmetlerine": 1733,
      "Ġgitti": 1734,
      "uyla": 1735,
      "ĠyaklaÅŁÄ±k": 1736,
      "obil": 1737,
      "ĠÄ°ptali": 1738,
      "Ġkod": 1739,
      "Ġresmen": 1740,
      "ĠOptik": 1741,
      "Macfit": 1742,
      "YaklaÅŁÄ±k": 1743,
      "ner": 1744,
      "sin": 1745,
      "sÄ±n": 1746,
      "yasÄ±": 1747,
      "aki": 1748,
      "Ä±mdan": 1749,
      "larÄ±nda": 1750,
      "ĠTel": 1751,
      "Ġduy": 1752,
      "ĠmÃ¼": 1753,
      "ĠMark": 1754,
      "ĠMah": 1755,
      "Ġdav": 1756,
      "ĠYet": 1757,
      "dÄ±ÄŁÄ±mÄ±z": 1758,
      "Ġaray": 1759,
      "Ġtarihi": 1760,
      "epsi": 1761,
      "ĠyapÄ±lmadÄ±": 1762,
      "diÄŁimiz": 1763,
      "Ġbize": 1764,
      "ĠGelmedi": 1765,
      "tÄ±ÄŁÄ±mda": 1766,
      "ĠÄ°nternet": 1767,
      "ĠsonuÃ§": 1768,
      "Ġuzun": 1769,
      "lilik": 1770,
      "yÄ±": 1771,
      "ÅŁam": 1772,
      "ert": 1773,
      "Ġbah": 1774,
      "Ġkul": 1775,
      "ĠkÄ±z": 1776,
      "Ġyen": 1777,
      "ĠtaÅŁ": 1778,
      "Ġiti": 1779,
      "ĠbirkaÃ§": 1780,
      "ĠTem": 1781,
      "Ġnerede": 1782,
      "ĠyapÄ±la": 1783,
      "Ġ17": 1784,
      "Ġ19": 1785,
      "sta": 1786,
      "lanÄ±yor": 1787,
      "ĠarayÄ±p": 1788,
      "Ġkapan": 1789,
      "ĠulaÅŁmadÄ±": 1790,
      "ĠSorun": 1791,
      "Ġzamanda": 1792,
      "ĠAnkara": 1793,
      "ĠÃĸde": 1794,
      "ĠsÄ±kÄ±ntÄ±": 1795,
      "ĠoluÅŁtur": 1796,
      "ĠTÃ¼rkiye": 1797,
      "rendy": 1798,
      "Ph": 1799,
      "ic": 1800,
      "mÃ¼yor": 1801,
      "tesi": 1802,
      "mediler": 1803,
      "unuz": 1804,
      "Ġdest": 1805,
      "Ġdan": 1806,
      "ĠKullan": 1807,
      "ĠAÃ§": 1808,
      "ĠÅŁimdi": 1809,
      "duk": 1810,
      "ĠGaranti": 1811,
      "ĠvermiÅŁ": 1812,
      "Ä±sÄ±z": 1813,
      "ĠbaÅŁla": 1814,
      "uyorum": 1815,
      "ĠaldÄ±ÄŁÄ±mÄ±z": 1816,
      "Ġmarket": 1817,
      "ĠulaÅŁamÄ±yorum": 1818,
      "Ġnedeniyle": 1819,
      "Ġadres": 1820,
      "Ġizle": 1821,
      "ĠsÃ¶zleÅŁ": 1822,
      "hatap": 1823,
      "ĠTeslim": 1824,
      "âĢĻ": 1825,
      "ĠuÄŁraÅŁ": 1826,
      "ilips": 1827,
      "rendyol": 1828,
      "Digiturk": 1829,
      "oya": 1830,
      "top": 1831,
      "Ġ&": 1832,
      "Ġim": 1833,
      "ĠsÄ±fÄ±r": 1834,
      "eleri": 1835,
      "Ġik": 1836,
      "Ġolacak": 1837,
      "Ġalmaya": 1838,
      "ĠBÃ¼rosu": 1839,
      "amÄ±yor": 1840,
      "ĠKur": 1841,
      "stik": 1842,
      "aba": 1843,
      "Ġbilgilen": 1844,
      "ĠArÄ±z": 1845,
      "ĠsatÄ±ÅŁ": 1846,
      "Ġverildi": 1847,
      "ĠÃ¼yelik": 1848,
      "Ġmakinesi": 1849,
      "ĠtÃ¼rlÃ¼": 1850,
      "ing": 1851,
      "Ġkitap": 1852,
      "Ġkampan": 1853,
      "iliyor": 1854,
      "irÃ¼s": 1855,
      "Ġyemek": 1856,
      "daki": 1857,
      "Ġtamam": 1858,
      "Ã¼nden": 1859,
      "esini": 1860,
      "ĠBÃ¶yle": 1861,
      "Ġdon": 1862,
      "Ġ100": 1863,
      "ĠDoÄŁ": 1864,
      "ĠgÃ¼ncel": 1865,
      "ÄŁimiz": 1866,
      "iyon": 1867,
      "ĠBugÃ¼n": 1868,
      "ĠnumarasÄ±": 1869,
      "sanÄ±z": 1870,
      "Ġgerekti": 1871,
      "ĠSipariÅŁim": 1872,
      "ĠkarÅŁÄ±laÅŁ": 1873,
      "VM": 1874,
      "ed": 1875,
      "lub": 1876,
      "Ġtat": 1877,
      "eklam": 1878,
      "unca": 1879,
      "ĠAVM": 1880,
      "ĠHo": 1881,
      "Ġdair": 1882,
      "ĠÃ¼ye": 1883,
      "Ġdiyerek": 1884,
      "Ã¼mÃ¼": 1885,
      "ĠÃľy": 1886,
      "Ġoda": 1887,
      "amaÅŁ": 1888,
      "meklilik": 1889,
      "Ã¼zel": 1890,
      "evizyon": 1891,
      "Ġevde": 1892,
      "Ġorta": 1893,
      "Ġverilmedi": 1894,
      "ĠÃ¼zerinde": 1895,
      "Ġsize": 1896,
      "ĠSonra": 1897,
      "ĠSÃ¼rekli": 1898,
      "ĠbaÅŁvuru": 1899,
      "ĠYanlÄ±ÅŁ": 1900,
      "ĠdÃ¼zelt": 1901,
      "ĠHaziran": 1902,
      "Ġtemsilc": 1903,
      "Ġitibar": 1904,
      "Cinemaximum": 1905,
      "ij": 1906,
      "ide": 1907,
      "lk": 1908,
      "arÄ±m": 1909,
      "orum": 1910,
      "Ġsah": 1911,
      "Ġkazan": 1912,
      "Ã§e": 1913,
      "meli": 1914,
      "Ã¶p": 1915,
      "Ġpas": 1916,
      "ĠpiÅŁman": 1917,
      "ĠÅŁarj": 1918,
      "ĠyapmÄ±ÅŁ": 1919,
      "ĠyaptÄ±k": 1920,
      "tiya": 1921,
      "ĠEv": 1922,
      "Ġettir": 1923,
      "mekte": 1924,
      "ĠOn": 1925,
      "ĠkullanÄ±yorum": 1926,
      "Ġkapsam": 1927,
      "ĠgÃ¶nderdim": 1928,
      "Ġteslimat": 1929,
      "Ġbeklet": 1930,
      "ĠolmadÄ±ÄŁÄ±": 1931,
      "Ġhata": 1932,
      "ĠÃĸn": 1933,
      "101": 1934,
      "Ġhemen": 1935,
      "ĠuÃ§uÅŁ": 1936,
      "Ġabon": 1937,
      "ĠÅŁirket": 1938,
      "'s": 1939,
      "Bir": 1940,
      "cih": 1941,
      "gol": 1942,
      "gÄ±sÄ±z": 1943,
      "Ġ-": 1944,
      "ales": 1945,
      "Ã§i": 1946,
      "Ã§Ã¼k": 1947,
      "irken": 1948,
      "Ġhediye": 1949,
      "ekl": 1950,
      "ĠBak": 1951,
      "ĠÃ§ocu": 1952,
      "ĠfotoÄŁraf": 1953,
      "Ġ13": 1954,
      "Ġbuz": 1955,
      "Ġrica": 1956,
      "Ġolduk": 1957,
      "Ġbilgisayar": 1958,
      "ĠÃľst": 1959,
      "ediy": 1960,
      "sunda": 1961,
      "ĠClub": 1962,
      "ĠgÃ¶rdÃ¼m": 1963,
      "Ġcam": 1964,
      "ĠyazÄ±k": 1965,
      "Ġfirmas": 1966,
      "lÃ¼yor": 1967,
      "ersiz": 1968,
      "Ġbulunan": 1969,
      "ciye": 1970,
      "Ġtedarik": 1971,
      "Ġkoltuk": 1972,
      "ĠgerÃ§ekten": 1973,
      "Ġkesinlikle": 1974,
      "BugÃ¼n": 1975,
      "Ġtercih": 1976,
      "amaÅŁÄ±r": 1977,
      "alesef": 1978,
      "Huawei": 1979,
      "diniz": 1980,
      "dÃ¼ÄŁÃ¼m": 1981,
      "eden": 1982,
      "emedi": 1983,
      "oda": 1984,
      "ron": 1985,
      "ÄŁiz": 1986,
      "ÄŁiniz": 1987,
      "Ã§iyim": 1988,
      "etf": 1989,
      "atan": 1990,
      "ĠolmuÅŁ": 1991,
      "Ġolmuyor": 1992,
      "Ġdeyip": 1993,
      "ĠSÃ¶z": 1994,
      "lerim": 1995,
      "Ä±lan": 1996,
      "Ġform": 1997,
      "ĠHalÄ±": 1998,
      "ĠGeÃ§": 1999,
      "Ġ25": 2000,
      "ervasyon": 2001,
      "ĠÃľrÃ¼nÃ¼n": 2002,
      "lendir": 2003,
      "lÃ¼ÄŁ": 2004,
      "ĠÅŀikayet": 2005,
      "ĠyÄ±ldÄ±r": 2006,
      "oyner": 2007,
      "Ġotel": 2008,
      "ĠÃ¼zerine": 2009,
      "Ġdurumu": 2010,
      "ĠÄ°nsan": 2011,
      "ĠÃ¶ÄŁren": 2012,
      "ĠHome": 2013,
      "18": 2014,
      "23": 2015,
      "kes": 2016,
      "va": 2017,
      "ĠÃ¶yle": 2018,
      "Ġbez": 2019,
      "Ġse": 2020,
      "ileri": 2021,
      "iraat": 2022,
      "ĠyayÄ±n": 2023,
      "Ġtur": 2024,
      "Ġhan": 2025,
      "asus": 2026,
      "ĠSay": 2027,
      "ĠSamsung": 2028,
      "ĠalÄ±p": 2029,
      "ĠdÃ¼n": 2030,
      "ĠKes": 2031,
      "Ä±zda": 2032,
      "Ġedip": 2033,
      "ĠHem": 2034,
      "ĠEs": 2035,
      "Ġbilg": 2036,
      "madÄ±lar": 2037,
      "Ġbende": 2038,
      "Ġ50": 2039,
      "ĠyapÄ±ldÄ±": 2040,
      "Ġonline": 2041,
      "ĠGelen": 2042,
      "akkabÄ±": 2043,
      "ĠÄ°lgisiz": 2044,
      "Ġbitti": 2045,
      "Ã¼ÄŁÃ¼n": 2046,
      "ĠgÃ¶tÃ¼rdÃ¼m": 2047,
      "egasus": 2048,
      "ĠrahatsÄ±z": 2049,
      "Ã¼ketici": 2050,
      "Saat": 2051,
      "bank": 2052,
      "can": 2053,
      "malÄ±": 2054,
      "yse": 2055,
      "Ġsok": 2056,
      "ĠsoÄŁ": 2057,
      "enel": 2058,
      "Ġtah": 2059,
      "eki": 2060,
      "est": 2061,
      "ĠolmasÄ±": 2062,
      "Ġdedik": 2063,
      "Ġbiri": 2064,
      "ĠÃ§ar": 2065,
      "amÄ±yoruz": 2066,
      "Ġac": 2067,
      "Ä±lt": 2068,
      "Ä±lÄ±k": 2069,
      "Ä°stanbul": 2070,
      "ĠMu": 2071,
      "ĠYat": 2072,
      "lix": 2073,
      "ĠEmeklilik": 2074,
      "Ġdik": 2075,
      "caciye": 2076,
      "Ġnedir": 2077,
      "ĠgeÃ§mesine": 2078,
      "Ġparam": 2079,
      "Ġherkes": 2080,
      "ĠKargom": 2081,
      "ĠdeÄŁiÅŁik": 2082,
      "otor": 2083,
      "Ġdurumda": 2084,
      "ĠhaftadÄ±r": 2085,
      "ĠalmÄ±ÅŁtÄ±m": 2086,
      "ĠZÃ¼c": 2087,
      "Ġbozuk": 2088,
      "ĠDeÄŁiÅŁ": 2089,
      "ĠBankasÄ±": 2090,
      "etflix": 2091,
      "ĠZÃ¼ccaciye": 2092,
      "13": 2093,
      "17": 2094,
      "At": 2095,
      "Smart": 2096,
      "fak": 2097,
      "ibi": 2098,
      "sit": 2099,
      "yÄ±m": 2100,
      "ĠJ": 2101,
      "Ä±yla": 2102,
      "Ġbunun": 2103,
      "ilmesini": 2104,
      "Ġtav": 2105,
      "umuz": 2106,
      "esinin": 2107,
      "apor": 2108,
      "larla": 2109,
      "ĠSal": 2110,
      "ĠSÄ±k": 2111,
      "ĠSpor": 2112,
      "Ġmal": 2113,
      "Ġpat": 2114,
      "Ġyapmak": 2115,
      "ĠÄ°st": 2116,
      "ĠgÃ¼nde": 2117,
      "Ġren": 2118,
      "ĠkartÄ±": 2119,
      "Ġettik": 2120,
      "medik": 2121,
      "ĠgÃ¶rev": 2122,
      "2018": 2123,
      "Ġdoldur": 2124,
      "Ã¼yorum": 2125,
      "ĠAyrÄ±ca": 2126,
      "ĠUy": 2127,
      "Ġkanal": 2128,
      "ĠkandÄ±r": 2129,
      "ĠÃĩÄ±ktÄ±": 2130,
      "ĠgerÃ§ekleÅŁ": 2131,
      "Ġborc": 2132,
      "Ġindirim": 2133,
      "ĠKalitesiz": 2134,
      "Ġdestek": 2135,
      "16": 2136,
      "Mars": 2137,
      "NG": 2138,
      "Vestel": 2139,
      "cut": 2140,
      "ger": 2141,
      "kat": 2142,
      "nak": 2143,
      "og": 2144,
      "resi": 2145,
      "siyon": 2146,
      "uan": 2147,
      "Ġbun": 2148,
      "deki": 2149,
      "matik": 2150,
      "Ġsen": 2151,
      "Ġkurum": 2152,
      "ola": 2153,
      "onu": 2154,
      "larÄ±mÄ±": 2155,
      "larÄ±mÄ±z": 2156,
      "Ġalmam": 2157,
      "ĠBur": 2158,
      "Ã¼rk": 2159,
      "ĠÅŁif": 2160,
      "Ġnormal": 2161,
      "ĠPark": 2162,
      "iyeti": 2163,
      "Ġanda": 2164,
      "amaya": 2165,
      "adolu": 2166,
      "miÅŁler": 2167,
      "ĠkullandÄ±ÄŁÄ±m": 2168,
      "ĠsÃ¼resi": 2169,
      "Ġ500": 2170,
      "ĠÃľrÃ¼nÃ¼": 2171,
      "ĠulaÅŁtÄ±": 2172,
      "Ġservisi": 2173,
      "ĠdeÄŁiÅŁim": 2174,
      "Ġyolla": 2175,
      "Ġsizin": 2176,
      "Ġtaleb": 2177,
      "ĠkÄ±rÄ±ldÄ±": 2178,
      "ĠVeril": 2179,
      "obÃ¼s": 2180,
      "Ġkayb": 2181,
      "ĠmaÄŁazasÄ±ndan": 2182,
      "Ġyetkil": 2183,
      "Ġtamir": 2184,
      "Ġtelevizyon": 2185,
      "Ġgarantisi": 2186,
      "ba": 2187,
      "bu": 2188,
      "of": 2189,
      "ri": 2190,
      "rat": 2191,
      "sÄ±nÄ±z": 2192,
      "Ä±da": 2193,
      "inir": 2194,
      "alt": 2195,
      "alÄ±m": 2196,
      "madÄ±ÄŁÄ±": 2197,
      "Ġkas": 2198,
      "Ġkam": 2199,
      "ĠgÃ¼zel": 2200,
      "akÄ±f": 2201,
      "ĠvirÃ¼s": 2202,
      "ĠhÄ±z": 2203,
      "ekom": 2204,
      "Ã¼nkÃ¼": 2205,
      "lah": 2206,
      "asun": 2207,
      "ĠSaÄŁ": 2208,
      "ĠTe": 2209,
      "ĠTam": 2210,
      "uluk": 2211,
      "Ä±rt": 2212,
      "Ä±rÄ±m": 2213,
      "Ä°n": 2214,
      "Ġ23": 2215,
      "talya": 2216,
      "ĠVar": 2217,
      "mediÄŁim": 2218,
      "ebe": 2219,
      "likte": 2220,
      "Ġ40": 2221,
      "Ġtelefonu": 2222,
      "ĠdÃ¶nem": 2223,
      "ĠLÃ¼t": 2224,
      "eceÄŁi": 2225,
      "Ġmuay": 2226,
      "ĠGÃ¼ndÃ¼r": 2227,
      "Ġmev": 2228,
      "encere": 2229,
      "andemi": 2230,
      "ĠKÄ±rÄ±k": 2231,
      "ĠyoÄŁun": 2232,
      "ĠTelekom": 2233,
      "Trendyol": 2234,
      "gel": 2235,
      "pp": 2236,
      "Ä±ya": 2237,
      "Ġbede": 2238,
      "mamasÄ±": 2239,
      "Ġsigort": 2240,
      "ĠyaÄŁ": 2241,
      "ata": 2242,
      "aklÄ±k": 2243,
      "umara": 2244,
      "Ġolup": 2245,
      "iÅŁime": 2246,
      "Ġalak": 2247,
      "ĠBiz": 2248,
      "ĠKan": 2249,
      "Ġmik": 2250,
      "Ġno": 2251,
      "ĠGeri": 2252,
      "ĠayÄ±": 2253,
      "ĠayrÄ±": 2254,
      "Ġverip": 2255,
      "ĠgÃ¼nden": 2256,
      "Ġmaalesef": 2257,
      "Ġaran": 2258,
      "ĠÃ¶den": 2259,
      "miÅŁtir": 2260,
      "Ġgidip": 2261,
      "dÄ±ktan": 2262,
      "ĠsÃ¶yledim": 2263,
      "Ġyerde": 2264,
      "ĠRes": 2265,
      "ĠAynÄ±": 2266,
      "ĠakÅŁam": 2267,
      "acaÄŁÄ±z": 2268,
      "ĠBilet": 2269,
      "ĠdoÄŁru": 2270,
      "ĠgÃ¶zÃ¼kÃ¼yor": 2271,
      "algaz": 2272,
      "Ġkurulum": 2273,
      "Philips": 2274,
      "Ġbilgilendirme": 2275,
      "ĠÃľyelik": 2276,
      "ediyesi": 2277,
      "ĠLÃ¼tfen": 2278,
      "22": 2279,
      "40": 2280,
      "fe": 2281,
      "fi": 2282,
      "gun": 2283,
      "gdaÅŁ": 2284,
      "od": 2285,
      "sal": 2286,
      "uv": 2287,
      "yim": 2288,
      "Ä±c": 2289,
      "orona": 2290,
      "Ã¶tÃ¼": 2291,
      "lardan": 2292,
      "ĠBay": 2293,
      "ĠTak": 2294,
      "ĠTab": 2295,
      "Ġdir": 2296,
      "ĠbulaÅŁÄ±k": 2297,
      "ĠDef": 2298,
      "ĠgÃ¼nlÃ¼k": 2299,
      "Ġreklam": 2300,
      "Ġ28": 2301,
      "eyim": 2302,
      "ĠÃľcreti": 2303,
      "Ġanlay": 2304,
      "ĠFil": 2305,
      "ĠdeÄŁer": 2306,
      "ĠOy": 2307,
      "Ġdahi": 2308,
      "ĠparamÄ±": 2309,
      "ĠgÃ¶rÃ¼ÅŁt": 2310,
      "ĠÃ§alÄ±ÅŁmÄ±yor": 2311,
      "ĠfirmasÄ±": 2312,
      "tÄ±ÄŁÄ±": 2313,
      "Ġteknik": 2314,
      "emeye": 2315,
      "ĠÅŁubesine": 2316,
      "ĠattÄ±m": 2317,
      "Ä±lamÄ±yor": 2318,
      "ĠÄ°Ã§in": 2319,
      "Ġkodu": 2320,
      "ArÃ§elik": 2321,
      "ĠAth": 2322,
      "Ġsebeb": 2323,
      "Ġihtiya": 2324,
      "Ġmevcut": 2325,
      "08": 2326,
      "Bur": 2327,
      "bebek": 2328,
      "caÄŁÄ±": 2329,
      "oj": 2330,
      "per": 2331,
      "yin": 2332,
      "arda": 2333,
      "ÅŁim": 2334,
      "erb": 2335,
      "Ġbaz": 2336,
      "ÄŁinde": 2337,
      "all": 2338,
      "Ġyere": 2339,
      "diÄŁi": 2340,
      "memesi": 2341,
      "eket": 2342,
      "ĠSmart": 2343,
      "ĠalalÄ±": 2344,
      "ĠBana": 2345,
      "lerce": 2346,
      "lerden": 2347,
      "lerinden": 2348,
      "ĠAs": 2349,
      "Ä±lmasÄ±": 2350,
      "ĠyapÄ±yor": 2351,
      "ĠMakin": 2352,
      "Ġgelmiyor": 2353,
      "ĠDÃ¼n": 2354,
      "ĠOcak": 2355,
      "dilerine": 2356,
      "ĠkaldÄ±": 2357,
      "ros": 2358,
      "ĠÅŀimdi": 2359,
      "ĠKargoya": 2360,
      "ĠyÄ±llÄ±k": 2361,
      "Ġyerine": 2362,
      "ĠAldÄ±ÄŁÄ±m": 2363,
      "Ġdendi": 2364,
      "eceÄŁini": 2365,
      "ĠedeceÄŁim": 2366,
      "ĠsÃ¶ylÃ¼yor": 2367,
      "Ġoyun": 2368,
      "ibu": 2369,
      "Ġsayf": 2370,
      "ĠhakkÄ±nda": 2371,
      "ĠgÃ¶rÃ¼nÃ¼yor": 2372,
      "idat": 2373,
      "letic": 2374,
      "ĠHiÃ§bir": 2375,
      "Ġsabah": 2376,
      "eklinde": 2377,
      "ĠAthletic": 2378,
      "44": 2379,
      "Ay": 2380,
      "Boyner": 2381,
      "TÃ¼rk": 2382,
      "ex": 2383,
      "ii": 2384,
      "kan": 2385,
      "kur": 2386,
      "lo": 2387,
      "nin": 2388,
      "Ġbebek": 2389,
      "ĠseÃ§": 2390,
      "Ġkom": 2391,
      "ens": 2392,
      "Ġyeri": 2393,
      "meyi": 2394,
      "Ġolay": 2395,
      "ĠBek": 2396,
      "ĠÃ§Ã¶p": 2397,
      "Ġder": 2398,
      "ĠAv": 2399,
      "ĠmÃ¼ÅŁt": 2400,
      "ish": 2401,
      "isik": 2402,
      "ĠMem": 2403,
      "ĠMerkez": 2404,
      "ĠGÃ¼ven": 2405,
      "Ġvermiyor": 2406,
      "Ġgelecek": 2407,
      "tÄ±lar": 2408,
      "ĠDan": 2409,
      "landÄ±": 2410,
      "ÄŁimde": 2411,
      "Ġ22": 2412,
      "Ġhalen": 2413,
      "madÄ±k": 2414,
      "ĠgeÃ§en": 2415,
      "Ġkalk": 2416,
      "ĠparasÄ±nÄ±": 2417,
      "Ġiadesini": 2418,
      "ĠgÃ¶rÃ¼ÅŁ": 2419,
      "ĠgÃ¶nderildi": 2420,
      "Ġfirmaya": 2421,
      "igros": 2422,
      "ĠyÄ±lÄ±nda": 2423,
      "ĠAlt": 2424,
      "Ġorada": 2425,
      "Ġbizi": 2426,
      "ĠGeldi": 2427,
      "eceÄŁim": 2428,
      "mayÄ±n": 2429,
      "ĠyakÄ±n": 2430,
      "ĠyakÄ±ÅŁ": 2431,
      "Ġmuhatap": 2432,
      "ĠParÃ§a": 2433,
      "ĠinsanlarÄ±": 2434,
      "ivibu": 2435,
      "ĠEkran": 2436,
      "ĠTeknik": 2437,
      "ĠTÃ¼rk": 2438,
      "Ġsebep": 2439,
      "ĠkÃ¼Ã§Ã¼k": 2440,
      "Ġrezervasyon": 2441,
      "ĠbÃ¶lÃ¼m": 2442,
      "Ġbuzdol": 2443,
      "Ġdikkat": 2444,
      "25": 2445,
      "SÃ¼r": 2446,
      "arb": 2447,
      "anlÄ±": 2448,
      "ÄŁit": 2449,
      "ora": 2450,
      "Ġsil": 2451,
      "ilmesi": 2452,
      "enov": 2453,
      "meti": 2454,
      "atÄ±": 2455,
      "larÄ±na": 2456,
      "ĠaldÄ±": 2457,
      "Ġbirlikte": 2458,
      "Ġdos": 2459,
      "ĠKÃ¶tÃ¼": 2460,
      "Ä±lÄ±yor": 2461,
      "Ä±lmÄ±yor": 2462,
      "Ġyapan": 2463,
      "ĠMobil": 2464,
      "ĠHes": 2465,
      "ĠYÃ¶n": 2466,
      "ĠGir": 2467,
      "ĠGÃ¶": 2468,
      "Ġayda": 2469,
      "emiyor": 2470,
      "Ġverdik": 2471,
      "ĠDigiturk": 2472,
      "ĠPersonel": 2473,
      "Ġanla": 2474,
      "ĠanlaÅŁ": 2475,
      "Ä±nav": 2476,
      "Ġyoktu": 2477,
      "ĠÃ¶nem": 2478,
      "ĠkullandÄ±m": 2479,
      "ĠsÃ¼rede": 2480,
      "Ġbenden": 2481,
      "Ġdahil": 2482,
      "ĠKart": 2483,
      "ĠkapalÄ±": 2484,
      "ĠgÃ¶rmedim": 2485,
      "ĠtakÄ±mÄ±": 2486,
      "ĠÃ¼zere": 2487,
      "Ġort": 2488,
      "ĠyaÅŁa": 2489,
      "Ġsizi": 2490,
      "Ġ08": 2491,
      "ĠÃ§Ã¶zÃ¼l": 2492,
      "ivers": 2493,
      "Ġkaynak": 2494,
      "ĠiletiÅŁime": 2495,
      "ĠfiyatÄ±": 2496,
      "ĠÄ°Ã§ecek": 2497,
      "caÄŁÄ±m": 2498,
      "asko": 2499,
      "ĠhazÄ±rlanÄ±yor": 2500,
      "ĠyÃ¼ksek": 2501,
      "andev": 2502,
      "remi": 2503,
      "Ġuygulama": 2504,
      "maktadÄ±r": 2505,
      "ĠsÃ¼recinde": 2506,
      "burada": 2507,
      "epsiburada": 2508,
      "ĠÃ§ocuÄŁum": 2509,
      "ratis": 2510,
      "14": 2511,
      "Pegasus": 2512,
      "ebi": 2513,
      "nÄ±n": 2514,
      "yu": 2515,
      "Ã¼f": 2516,
      "inal": 2517,
      "oliÃ§": 2518,
      "izza": 2519,
      "Ġdep": 2520,
      "ĠBor": 2521,
      "ĠBunun": 2522,
      "ĠBÃ¼yÃ¼k": 2523,
      "ĠÃ§at": 2524,
      "ĠTar": 2525,
      "Ġnumara": 2526,
      "dana": 2527,
      "Ġedin": 2528,
      "ĠHas": 2529,
      "ĠDi": 2530,
      "Ġkargol": 2531,
      "Ġanlat": 2532,
      "ĠOr": 2533,
      "ĠOt": 2534,
      "Ġgidiyor": 2535,
      "ĠkullanÄ±yor": 2536,
      "ĠÃ§Ä±kÄ±yor": 2537,
      "Ġincel": 2538,
      "ĠÅŀu": 2539,
      "Ġolmaz": 2540,
      "omi": 2541,
      "edek": 2542,
      "Ġgerekli": 2543,
      "Ġfaturam": 2544,
      "Ġmakine": 2545,
      "ĠsaÄŁlÄ±k": 2546,
      "Ä±lÄ±ÄŁ": 2547,
      "Ġsanki": 2548,
      "iddi": 2549,
      "ĠaÅŁÄ±rÄ±": 2550,
      "ĠkartÄ±mdan": 2551,
      "Ġbeyaz": 2552,
      "ĠYetk": 2553,
      "ĠkapsamÄ±nda": 2554,
      "ĠMemnun": 2555,
      "enovo": 2556,
      "29": 2557,
      "App": 2558,
      "Ziraat": 2559,
      "har": 2560,
      "mÃ¼ÅŁ": 2561,
      "ow": 2562,
      "Ġ.": 2563,
      "Ġw": 2564,
      "anda": 2565,
      "ala": 2566,
      "Ġgere": 2567,
      "ell": 2568,
      "etimi": 2569,
      "Ġvide": 2570,
      "umun": 2571,
      "las": 2572,
      "izi": 2573,
      "izde": 2574,
      "ĠSit": 2575,
      "ĠSÃ¼pÃ¼r": 2576,
      "ikol": 2577,
      "ĠBe": 2578,
      "Ġail": 2579,
      "ĠKol": 2580,
      "Ġmil": 2581,
      "Ġmen": 2582,
      "ĠÅŁeklinde": 2583,
      "azi": 2584,
      "ĠYÄ±k": 2585,
      "ĠYayÄ±n": 2586,
      "ĠGetir": 2587,
      "Ġgelir": 2588,
      "abr": 2589,
      "ĠDev": 2590,
      "Ġbilgil": 2591,
      "Ġ29": 2592,
      "Ġetmeye": 2593,
      "ĠÃ¼rÃ¼nleri": 2594,
      "Ã¼mÃ¼z": 2595,
      "dÄ±rma": 2596,
      "ĠÃĩek": 2597,
      "epe": 2598,
      "ĠCinemaximum": 2599,
      "ĠparayÄ±": 2600,
      "Ġkapak": 2601,
      "inizi": 2602,
      "Ġiptali": 2603,
      "tre": 2604,
      "Ġedilmedi": 2605,
      "Ġolmadan": 2606,
      "Ġtaksit": 2607,
      "Ġeve": 2608,
      "Ġhatta": 2609,
      "ĠhatasÄ±": 2610,
      "ĠÃ¼cretsiz": 2611,
      "lamadÄ±m": 2612,
      "ĠolduÄŁumuz": 2613,
      "ĠBilgisayar": 2614,
      "Ġbekledim": 2615,
      "Ġpaketi": 2616,
      "ĠNeden": 2617,
      "Ġduruyor": 2618,
      "Ä±ntÄ±sÄ±": 2619,
      "ĠsaÃ§ma": 2620,
      "ĠHatasÄ±": 2621,
      "Ġeski": 2622,
      "ĠÃ§aÄŁÄ±r": 2623,
      "ĠgittiÄŁimde": 2624,
      "ĠBozuk": 2625,
      "ĠMail": 2626,
      "ĠsÃ¼pÃ¼rg": 2627,
      "ĠÄ°zmir": 2628,
      "ĠsÃ¶zleÅŁme": 2629,
      "ĠgerektiÄŁini": 2630,
      "07": 2631,
      "28": 2632,
      "MS": 2633,
      "TT": 2634,
      "VakÄ±f": 2635,
      "kÃ¼n": 2636,
      "sem": 2637,
      "tayÄ±m": 2638,
      "âĤ": 2639,
      "ĠÄ±sÄ±": 2640,
      "aret": 2641,
      "Ã¼me": 2642,
      "ÄŁl": 2643,
      "ÄŁinden": 2644,
      "Ġkil": 2645,
      "enÃ¼z": 2646,
      "aylaÅŁ": 2647,
      "asÄ±z": 2648,
      "ĠÃ§amaÅŁÄ±r": 2649,
      "ĠTÃ¼ketici": 2650,
      "ĠadÄ±": 2651,
      "Ġpersonel": 2652,
      "ulmuÅŁ": 2653,
      "iyorsunuz": 2654,
      "aÄŁa": 2655,
      "aza": 2656,
      "Ä°gdaÅŁ": 2657,
      "ĠHav": 2658,
      "ĠYÄ±l": 2659,
      "ĠYÃ¼k": 2660,
      "ĠGecik": 2661,
      "emi": 2662,
      "ĠÃ¼Ã§": 2663,
      "Ġettiler": 2664,
      "Ã¼mkÃ¼n": 2665,
      "ĠÃ¶z": 2666,
      "amadÄ±": 2667,
      "Ġzam": 2668,
      "ĠFiyat": 2669,
      "ĠgeÃ§er": 2670,
      "ĠkaldÄ±r": 2671,
      "erece": 2672,
      "ĠfirmanÄ±n": 2673,
      "osch": 2674,
      "Ġtelefonda": 2675,
      "diÄŁimde": 2676,
      "Ġonu": 2677,
      "Ġgereken": 2678,
      "ĠÅŁubesinde": 2679,
      "ilerin": 2680,
      "Ġkend": 2681,
      "ĠotobÃ¼s": 2682,
      "Ġprog": 2683,
      "Ġhesap": 2684,
      "Ġoyn": 2685,
      "ĠoluÅŁtu": 2686,
      "ĠÃ§aÄŁrÄ±": 2687,
      "ĠÅŀubat": 2688,
      "Ġsebebiyle": 2689,
      "SÃ¼rat": 2690,
      "ÄŁitim": 2691,
      "21": 2692,
      "27": 2693,
      "dÄ±n": 2694,
      "dÄ±nÄ±z": 2695,
      "gan": 2696,
      "ly": 2697,
      "mur": 2698,
      "ptop": 2699,
      "tay": 2700,
      "zÄ±m": 2701,
      "erm": 2702,
      "Ġbuna": 2703,
      "madÄ±ÄŁÄ±m": 2704,
      "Ġsi": 2705,
      "ent": 2706,
      "elim": 2707,
      "ĠtÃ¼k": 2708,
      "Ġhay": 2709,
      "Ġhaber": 2710,
      "lardÄ±r": 2711,
      "larÄ±nÄ±n": 2712,
      "ĠSMS": 2713,
      "ĠalÄ±rken": 2714,
      "ĠÃ§ev": 2715,
      "ĠTaraf": 2716,
      "ĠTivibu": 2717,
      "ĠKas": 2718,
      "Ġmis": 2719,
      "ĠmÃ¼mkÃ¼n": 2720,
      "Ġfalan": 2721,
      "ĠMedi": 2722,
      "ĠiÃ§inden": 2723,
      "ĠYar": 2724,
      "ĠGerek": 2725,
      "ĠGÃ¶z": 2726,
      "ĠGÃ¶r": 2727,
      "Ġayr": 2728,
      "ĠayrÄ±ca": 2729,
      "ĠDÃ¶n": 2730,
      "Ġrapor": 2731,
      "Ġ26": 2732,
      "Ġarama": 2733,
      "ahve": 2734,
      "efal": 2735,
      "ĠsipariÅŁimi": 2736,
      "Ġann": 2737,
      "amamen": 2738,
      "ĠhalÄ±": 2739,
      "Ġtarihli": 2740,
      "Ġkullanmak": 2741,
      "alarÄ±n": 2742,
      "utfak": 2743,
      "ĠyazÄ±l": 2744,
      "ĠÃľrÃ¼nler": 2745,
      "Ġelem": 2746,
      "Ġyerden": 2747,
      "ĠAydÄ±r": 2748,
      "ĠÅŁubeye": 2749,
      "Ġaktar": 2750,
      "Ġbelli": 2751,
      "ĠbaktÄ±m": 2752,
      "Ġuyar": 2753,
      "Ġuygun": 2754,
      "Ġdevlet": 2755,
      "Ġinternetten": 2756,
      "eÄŁen": 2757,
      "ĠiÅŁlemi": 2758,
      "Ä±lÄ±ÄŁÄ±": 2759,
      "Ġlaptop": 2760,
      "caÄŁÄ±nÄ±": 2761,
      "Ġ2018": 2762,
      "Ġisim": 2763,
      "Ġkutu": 2764,
      "Ġbahan": 2765,
      "Ġortada": 2766,
      "Ġitibaren": 2767,
      "Ġaboneli": 2768,
      "ĠfirmasÄ±ndan": 2769,
      "Ġbilgisi": 2770,
      "Ġdirek": 2771,
      "âĤº": 2772,
      "26": 2773,
      "75": 2774,
      "Ev": 2775,
      "Ebebek": 2776,
      "Kar": 2777,
      "Medi": 2778,
      "SipariÅŁ": 2779,
      "bil": 2780,
      "cal": 2781,
      "min": 2782,
      "rol": 2783,
      "rak": 2784,
      "Ġap": 2785,
      "eron": 2786,
      "Ġgece": 2787,
      "Ġgecik": 2788,
      "Ġye": 2789,
      "Ġyay": 2790,
      "old": 2791,
      "Ġvs": 2792,
      "umur": 2793,
      "Ġolmak": 2794,
      "Ġolabilir": 2795,
      "lamasÄ±": 2796,
      "larÄ±ndan": 2797,
      "Ġdil": 2798,
      "lerdir": 2799,
      "ĠfÄ±r": 2800,
      "Ä±ÅŁÄ±k": 2801,
      "ĠpiÅŁ": 2802,
      "ĠpaylaÅŁ": 2803,
      "ĠHaf": 2804,
      "ĠGit": 2805,
      "Ġgelip": 2806,
      "ĠilaÃ§": 2807,
      "ĠPiÅŁman": 2808,
      "masÄ±nda": 2809,
      "Ġbileti": 2810,
      "Ġbilmiyorum": 2811,
      "Ġsonunda": 2812,
      "taj": 2813,
      "ĠaracÄ±": 2814,
      "Ġaramama": 2815,
      "ahh": 2816,
      "talar": 2817,
      "adde": 2818,
      "ĠÃ¶nc": 2819,
      "miÅŁti": 2820,
      "ĠgeÃ§tim": 2821,
      "Ġsorumsuz": 2822,
      "ĠparasÄ±": 2823,
      "ĠtakÄ±m": 2824,
      "Ġdenildi": 2825,
      "ĠdeÄŁilim": 2826,
      "Ġhatt": 2827,
      "ĠyarÄ±m": 2828,
      "Ġbizim": 2829,
      "Ġsite": 2830,
      "ĠÅŁikayetÃ§iyim": 2831,
      "Ġlek": 2832,
      "Ġoto": 2833,
      "Ġbulundum": 2834,
      "sÄ±zlÄ±k": 2835,
      "Ġmuh": 2836,
      "ĠdÃ¼zen": 2837,
      "ĠdÃ¼zgÃ¼n": 2838,
      "Ġistedik": 2839,
      "ĠhesabÄ±ma": 2840,
      "Anadolu": 2841,
      "ĠProblem": 2842,
      "igortam": 2843,
      "ĠÃ¶zellikle": 2844,
      "ĠBelediyesi": 2845,
      "ĠMaÄŁduriyet": 2846,
      "Ġkoku": 2847,
      "ĠsoÄŁuk": 2848,
      "Ġmuayene": 2849,
      "isiklet": 2850,
      "iversit": 2851,
      "andevu": 2852,
      "45": 2853,
      "PS": 2854,
      "bo": 2855,
      "malÄ±k": 2856,
      "nde": 2857,
      "tum": 2858,
      "tok": 2859,
      "Ġber": 2860,
      "ord": 2861,
      "Ġkop": 2862,
      "enti": 2863,
      "oldu": 2864,
      "ayan": 2865,
      "Ġhayat": 2866,
      "izm": 2867,
      "asÄ±nÄ±n": 2868,
      "Ġalan": 2869,
      "ĠÃ§ay": 2870,
      "Ġderece": 2871,
      "Ġada": 2872,
      "ĠKab": 2873,
      "ĠKaraca": 2874,
      "ĠKampan": 2875,
      "isine": 2876,
      "Ġnisan": 2877,
      "ĠMNG": 2878,
      "ĠHot": 2879,
      "ĠYaÅŁ": 2880,
      "ĠYeni": 2881,
      "ĠbulamÄ±yorum": 2882,
      "Ġ27": 2883,
      "eyiz": 2884,
      "Ġmah": 2885,
      "Ġana": 2886,
      "Ġisteme": 2887,
      "mÄ±ÅŁtÄ±r": 2888,
      "Ġ300": 2889,
      "ĠkullanÄ±cÄ±": 2890,
      "ĠgeÃ§ir": 2891,
      "ĠCihaz": 2892,
      "Ġciddi": 2893,
      "ĠgÃ¶nderil": 2894,
      "ĠyapÄ±lan": 2895,
      "ĠyapÄ±lmasÄ±nÄ±": 2896,
      "avaÅŁ": 2897,
      "ĠArÃ§elik": 2898,
      "ĠAlÄ±n": 2899,
      "Ġdeneme": 2900,
      "Ġsitede": 2901,
      "Ġakti": 2902,
      "ĠyaÅŁÄ±yorum": 2903,
      "rarla": 2904,
      "imizi": 2905,
      "ĠadÄ±na": 2906,
      "ĠÃ¼stÃ¼ne": 2907,
      "ĠiletiÅŁim": 2908,
      "Ġsonucu": 2909,
      "ĠaracÄ±n": 2910,
      "ĠTeslimat": 2911,
      "ĠyaptÄ±rdÄ±m": 2912,
      "ovid": 2913,
      "ĠDeÄŁil": 2914,
      "ĠTurizm": 2915,
      "Ġsevinir": 2916,
      "ĠÄ±sÄ±n": 2917,
      "ĠÃ¼yeliÄŁimi": 2918,
      "Ġkahv": 2919,
      "ĠmÃ¼dÃ¼r": 2920,
      "Ġneredeyse": 2921,
      "ĠArÄ±zasÄ±": 2922,
      "ijinal": 2923,
      "ĠÃľstelik": 2924,
      "Ġformu": 2925,
      "ĠSaygÄ±sÄ±z": 2926,
      "ĠSÄ±kÄ±ntÄ±sÄ±": 2927,
      "Ġsevinirim": 2928,
      "66": 2929,
      "Cola": 2930,
      "bey": 2931,
      "seniz": 2932,
      "sApp": 2933,
      "Ã¼st": 2934,
      "ÅŁtÄ±r": 2935,
      "era": 2936,
      "Ġbat": 2937,
      "ĠbeÄŁen": 2938,
      "inem": 2939,
      "ÄŁin": 2940,
      "alk": 2941,
      "ork": 2942,
      "Ġser": 2943,
      "ĠsÃ¼t": 2944,
      "Ġsinema": 2945,
      "dit": 2946,
      "Ġtamamen": 2947,
      "Ã¼nÃ¼": 2948,
      "umda": 2949,
      "ess": 2950,
      "ĠalÄ±yorum": 2951,
      "ĠaldÄ±lar": 2952,
      "ĠÃ§iz": 2953,
      "ĠÃ§ikol": 2954,
      "ĠKo": 2955,
      "ĠAcil": 2956,
      "Ä±ldÄ±m": 2957,
      "Ġmotor": 2958,
      "indeki": 2959,
      "Ġpis": 2960,
      "Ġpuan": 2961,
      "ĠÅŁiÅŁ": 2962,
      "ĠiÃ§i": 2963,
      "ĠDe": 2964,
      "ĠDav": 2965,
      "iyi": 2966,
      "eyn": 2967,
      "ĠmaaÅŁ": 2968,
      "Ġarab": 2969,
      "ĠaraÅŁtÄ±r": 2970,
      "Ġart": 2971,
      "ĠÃľn": 2972,
      "ĠkullanÄ±m": 2973,
      "ĠÃĩaÄŁ": 2974,
      "ĠÃ§Ä±kan": 2975,
      "oÄŁu": 2976,
      "ĠaÃ§an": 2977,
      "tiraz": 2978,
      "tÄ±ÄŁÄ±nÄ±": 2979,
      "ĠyapÄ±lmÄ±ÅŁ": 2980,
      "ĠyapÄ±lmÄ±yor": 2981,
      "tÄ±klarÄ±": 2982,
      "ĠÅŁeyler": 2983,
      "omp": 2984,
      "ĠArk": 2985,
      "ĠArtÄ±k": 2986,
      "Ġonun": 2987,
      "Ġverilen": 2988,
      "Ġsitesinde": 2989,
      "Ġkendilerine": 2990,
      "lamda": 2991,
      "eceÄŁiz": 2992,
      "ĠÃĸzel": 2993,
      "Ġedecek": 2994,
      "ĠgÃ¶zlÃ¼ÄŁ": 2995,
      "Ġyatak": 2996,
      "cell": 2997,
      "ĠkiÅŁilik": 2998,
      "sizliÄŁi": 2999,
      "Ġlastik": 3000,
      "ĠlazÄ±m": 3001,
      "ĠmaÄŁduriyet": 3002,
      "hatsApp": 3003,
      "ĠMaÄŁaz": 3004,
      "ĠaltÄ±nda": 3005,
      "Ġkalitesiz": 3006,
      "Ġkonuda": 3007,
      "Ġertel": 3008,
      "Ġederim": 3009,
      "ĠsonrasÄ±nda": 3010,
      "ĠFirma": 3011,
      "Ġkahve": 3012,
      "lker": 3013,
      "mektedir": 3014,
      "ĠmÃ¼ÅŁter": 3015,
      "ĠMerkezi": 3016,
      "ĠMobilya": 3017,
      "ĠTarih": 3018,
      "Ġotomatik": 3019,
      "ĠHotel": 3020,
      "90": 3021,
      "Av": 3022,
      "GeÃ§": 3023,
      "dde": 3024,
      "lÃ§": 3025,
      "malarÄ±": 3026,
      "yo": 3027,
      "yal": 3028,
      "yle": 3029,
      "zun": 3030,
      "Ġmet": 3031,
      "ĠâĢ": 3032,
      "anÄ±z": 3033,
      "alama": 3034,
      "mada": 3035,
      "Ġset": 3036,
      "Ġspor": 3037,
      "ĠkÄ±l": 3038,
      "ĠgÃ¼": 3039,
      "Ġgenel": 3040,
      "dav": 3041,
      "oloj": 3042,
      "olly": 3043,
      "Ġtencere": 3044,
      "ĠhenÃ¼z": 3045,
      "Ġolamaz": 3046,
      "Ġdemek": 3047,
      "ĠSadece": 3048,
      "ĠSÄ±fÄ±r": 3049,
      "ĠalamÄ±yorum": 3050,
      "ĠaldÄ±ÄŁÄ±": 3051,
      "ĠBey": 3052,
      "Ġbiraz": 3053,
      "lerimi": 3054,
      "ĠKok": 3055,
      "ĠKitap": 3056,
      "itre": 3057,
      "Ġfabr": 3058,
      "Ġpark": 3059,
      "ulan": 3060,
      "Ä°ÅŁ": 3061,
      "Ġnak": 3062,
      "ĠMar": 3063,
      "ĠiÃ§eri": 3064,
      "ĠYol": 3065,
      "ĠYak": 3066,
      "ĠÄ°ki": 3067,
      "emin": 3068,
      "ĠEdiyor": 3069,
      "iydi": 3070,
      "Ġetmiyor": 3071,
      "eysel": 3072,
      "ĠoÄŁl": 3073,
      "Ġzar": 3074,
      "Ġgide": 3075,
      "ĠNetflix": 3076,
      "ube": 3077,
      "Ġ45": 3078,
      "Ġ48": 3079,
      "inize": 3080,
      "ĠÃ§alÄ±ÅŁma": 3081,
      "ĠÃ§alÄ±ÅŁÄ±yor": 3082,
      "Ġfirmadan": 3083,
      "tÄ±ÄŁÄ±nÄ±z": 3084,
      "Ġgittik": 3085,
      "Ġekst": 3086,
      "ĠAntalya": 3087,
      "luÄŁu": 3088,
      "ĠÃ¼cretini": 3089,
      "acaÄŁÄ±nÄ±": 3090,
      "acaÄŁÄ±mÄ±": 3091,
      "meyecek": 3092,
      "ĠÃ§ekim": 3093,
      "Ġarka": 3094,
      "Ġteh": 3095,
      "ĠServisi": 3096,
      "ĠalÄ±ndÄ±": 3097,
      "Ġbozuldu": 3098,
      "ĠaracÄ±m": 3099,
      "Ġbekliyor": 3100,
      "ĠdÃ¼ÅŁÃ¼nÃ¼yorum": 3101,
      "ĠWhatsApp": 3102,
      "ĠsaÃ§malÄ±k": 3103,
      "Ġkaliteli": 3104,
      "ĠyÃ¶nlendir": 3105,
      "Ġhasar": 3106,
      "ĠAraÃ§": 3107,
      "Ankara": 3108,
      "ĠHizmetleri": 3109,
      "ĠdÄ±ÅŁÄ±nda": 3110,
      "ĠeÅŁim": 3111,
      "Ġhareket": 3112,
      "Ġboyunca": 3113,
      "ĠsÄ±ra": 3114,
      "ĠkÄ±smÄ±": 3115,
      "ĠBakan": 3116,
      "ĠSÃ¶zde": 3117,
      "Atasun": 3118,
      "ĠgerÃ§ekleÅŁtir": 3119,
      "Ġbedeli": 3120,
      "ĠFilm": 3121,
      "ĠsÃ¶ylÃ¼yorlar": 3122,
      "ĠYÄ±kama": 3123,
      "Ġbilgiler": 3124,
      "eynir": 3125,
      "99": 3126,
      "Ak": 3127,
      "Bank": 3128,
      "Bosch": 3129,
      "Garanti": 3130,
      "Sigortam": 3131,
      "cÄ±m": 3132,
      "cra": 3133,
      "cana": 3134,
      "gÄ±": 3135,
      "ha": 3136,
      "ici": 3137,
      "layÄ±p": 3138,
      "ost": 3139,
      "pres": 3140,
      "ret": 3141,
      "sp": 3142,
      "ula": 3143,
      "yÄ±z": 3144,
      "Ġ%": 3145,
      "Ä±lama": 3146,
      "erdi": 3147,
      "Ġbi": 3148,
      "ino": 3149,
      "ort": 3150,
      "ĠsÄ±": 3151,
      "Ġsun": 3152,
      "Ġsap": 3153,
      "Ġsesi": 3154,
      "Ġkm": 3155,
      "ĠgiÅŁ": 3156,
      "aket": 3157,
      "eko": 3158,
      "umlu": 3159,
      "izmeti": 3160,
      "uru": 3161,
      "ĠSes": 3162,
      "ĠSep": 3163,
      "Ġalama": 3164,
      "ĠBuz": 3165,
      "ĠÃ§Ã¼nkÃ¼": 3166,
      "amil": 3167,
      "Ġders": 3168,
      "Ġaidat": 3169,
      "ĠKim": 3170,
      "ĠKay": 3171,
      "ĠKing": 3172,
      "Ä±lma": 3173,
      "isini": 3174,
      "isinden": 3175,
      "Ġpandemi": 3176,
      "ĠyapÄ±n": 3177,
      "ĠyapÄ±p": 3178,
      "Ġyapmam": 3179,
      "ĠMÃ¼": 3180,
      "ĠYo": 3181,
      "ĠÄ°le": 3182,
      "ĠayakkabÄ±": 3183,
      "yah": 3184,
      "yahat": 3185,
      "ĠDoktor": 3186,
      "Ġetme": 3187,
      "Ġaram": 3188,
      "ĠaralÄ±k": 3189,
      "ĠÃ¼rÃ¼nÃ¼m": 3190,
      "Ġisten": 3191,
      "Ġocak": 3192,
      "ÂłÂł": 3193,
      "ĠbaÅŁlat": 3194,
      "ĠOto": 3195,
      "ĠkaldÄ±m": 3196,
      "ebil": 3197,
      "ebilir": 3198,
      "ĠCovid": 3199,
      "Ġgeldik": 3200,
      "Ġtelefona": 3201,
      "Ġolmayan": 3202,
      "ĠAralÄ±k": 3203,
      "ĠdeÄŁiÅŁimi": 3204,
      "eceklerini": 3205,
      "ĠRahat": 3206,
      "ĠÅŁubesinden": 3207,
      "ĠGelmiyor": 3208,
      "Ġengel": 3209,
      "Ġ02": 3210,
      "eÅŁke": 3211,
      "ĠsuÃ§": 3212,
      "ĠGÃ¼nÃ¼": 3213,
      "ĠkarÅŁÄ±lÄ±ÄŁ": 3214,
      "ĠarÄ±zasÄ±": 3215,
      "ĠyÃ¼zÃ¼nden": 3216,
      "ĠsÃ¶zde": 3217,
      "ĠTekrar": 3218,
      "Ã¼cÃ¼": 3219,
      "Ġertesi": 3220,
      "Ġ2017": 3221,
      "Ġgiderilmesini": 3222,
      "ĠkÃ¼f": 3223,
      "Ġyasal": 3224,
      "Ġtaahh": 3225,
      "ĠÃĸdeme": 3226,
      "ĠgÃ¼ncelle": 3227,
      "ronik": 3228,
      "ĠDÃ¼nyasÄ±": 3229,
      "ĠÃ§Ã¶pe": 3230,
      "ĠkaynaklÄ±": 3231,
      "ĠDiÄŁer": 3232,
      "ĠSÃ¼pÃ¼rge": 3233,
      "Ġberaber": 3234,
      "ĠÃľniversit": 3235,
      "press": 3236,
      "En": 3237,
      "Fac": 3238,
      "Hepsiburada": 3239,
      "bet": 3240,
      "fone": 3241,
      "gl": 3242,
      "muz": 3243,
      "ydÄ±": 3244,
      "Ġam": 3245,
      "Ġlik": 3246,
      "ari": 3247,
      "arÄ±nda": 3248,
      "Ã¼dÃ¼k": 3249,
      "Ġbebe": 3250,
      "inci": 3251,
      "altÄ±": 3252,
      "Ġsoy": 3253,
      "Ġsuyu": 3254,
      "ĠsÄ±nav": 3255,
      "Ġkaf": 3256,
      "Ã§ak": 3257,
      "enta": 3258,
      "Ġyeme": 3259,
      "Ġyalan": 3260,
      "ayet": 3261,
      "lamÄ±yor": 3262,
      "ĠSan": 3263,
      "ĠSite": 3264,
      "ĠaldÄ±ÄŁ": 3265,
      "ĠalamadÄ±m": 3266,
      "ĠBE": 3267,
      "Ġbirbir": 3268,
      "ĠTav": 3269,
      "lerken": 3270,
      "Ġman": 3271,
      "Ġmon": 3272,
      "Ġmobil": 3273,
      "isinin": 3274,
      "Ä±ÅŁman": 3275,
      "Ġpla": 3276,
      "Ġpah": 3277,
      "ĠpeÅŁ": 3278,
      "Ġney": 3279,
      "ĠyapmÄ±yor": 3280,
      "Ġyapmaya": 3281,
      "ceÄŁini": 3282,
      "ĠMak": 3283,
      "ĠHakk": 3284,
      "Ġdama": 3285,
      "ĠYer": 3286,
      "Ġayak": 3287,
      "Ġveren": 3288,
      "Ġverdiler": 3289,
      "ĠÃ¼tÃ¼": 3290,
      "ĠPizza": 3291,
      "ĠPTT": 3292,
      "Ġkarar": 3293,
      "Ġkarde": 3294,
      "ĠarasÄ±": 3295,
      "Ġyoksa": 3296,
      "alarÄ±nÄ±": 3297,
      "ĠNasÄ±l": 3298,
      "Ġkalan": 3299,
      "ĠaÃ§tÄ±m": 3300,
      "ĠaÃ§tÄ±ÄŁÄ±mda": 3301,
      "evi": 3302,
      "ĠBulaÅŁÄ±k": 3303,
      "ĠyazÄ±": 3304,
      "lendi": 3305,
      "mayacak": 3306,
      "ĠÃ§alÄ±ÅŁtÄ±r": 3307,
      "ĠyanÄ±nda": 3308,
      "ĠÅŁeyi": 3309,
      "Ġdene": 3310,
      "uyum": 3311,
      "ĠRen": 3312,
      "Ġorijinal": 3313,
      "ĠÅŁube": 3314,
      "Ġbelg": 3315,
      "Ġlitre": 3316,
      "Ġyola": 3317,
      "Ġ01": 3318,
      "ĠBilgilen": 3319,
      "Ġdiyorum": 3320,
      "mamÄ±za": 3321,
      "imizin": 3322,
      "alandÄ±": 3323,
      "ĠBenim": 3324,
      "Ġbayan": 3325,
      "ĠOldu": 3326,
      "ĠaÃ§Ä±lmÄ±yor": 3327,
      "Ġhepsi": 3328,
      "ĠÄ°ÅŁlem": 3329,
      "ĠYapÄ±lmadÄ±": 3330,
      "Ġesn": 3331,
      "Ġseferinde": 3332,
      "ĠYazÄ±k": 3333,
      "ĠkulaklÄ±k": 3334,
      "ĠbaÅŁladÄ±m": 3335,
      "Ġizleye": 3336,
      "Ġdondur": 3337,
      "ĠÃĸnce": 3338,
      "odafone": 3339,
      "ĠKesin": 3340,
      "Ġacaba": 3341,
      "ĠgÃ¶revli": 3342,
      "ĠKalitesizliÄŁi": 3343,
      "Ä°nternet": 3344,
      "ĠyoÄŁunluk": 3345,
      "ĠMakinesi": 3346,
      "Ġbuzdolab": 3347,
      "Ġkendine": 3348,
      "Ġeleman": 3349,
      "ĠÃľniversitesi": 3350,
      "35": 3351,
      "EA": 3352,
      "Em": 3353,
      "Fi": 3354,
      "Gratis": 3355,
      "Sun": 3356,
      "Tek": 3357,
      "Xia": 3358,
      "bal": 3359,
      "culuk": 3360,
      "deri": 3361,
      "gÄ±n": 3362,
      "ramÄ±": 3363,
      "sk": 3364,
      "vet": 3365,
      "Ã¢": 3366,
      "ard": 3367,
      "Ã¼b": 3368,
      "Ġseti": 3369,
      "Ġgayet": 3370,
      "ati": 3371,
      "Ã¼nÃ¼n": 3372,
      "Ġolsa": 3373,
      "Ġdetay": 3374,
      "urti": 3375,
      "ĠSÃ¼t": 3376,
      "ĠalÄ±yor": 3377,
      "ĠBit": 3378,
      "ĠBul": 3379,
      "ĠBab": 3380,
      "ĠÃ§al": 3381,
      "ĠTat": 3382,
      "ĠTop": 3383,
      "lerle": 3384,
      "lerinin": 3385,
      "ĠKul": 3386,
      "ceÄŁi": 3387,
      "ĠGold": 3388,
      "ĠayÄ±n": 3389,
      "Ġbuhar": 3390,
      "Ġvermek": 3391,
      "ĠDen": 3392,
      "ĠDiy": 3393,
      "ĠEÄŁitim": 3394,
      "iyas": 3395,
      "Ä±nÄ±f": 3396,
      "dÄ±ÄŁÄ±mda": 3397,
      "ĠÃ¶d": 3398,
      "Ġistemiyorum": 3399,
      "mÄ±ÅŁlar": 3400,
      "ĠVatan": 3401,
      "Ġhale": 3402,
      "ĠFark": 3403,
      "ĠFotoÄŁraf": 3404,
      "ĠolduÄŁundan": 3405,
      "miÅŁtim": 3406,
      "Ġkullanma": 3407,
      "Ã¼zÃ¼": 3408,
      "ĠsÃ¼reÃ§": 3409,
      "Ġinan": 3410,
      "Ġsordum": 3411,
      "oÄŁaz": 3412,
      "oÄŁlu": 3413,
      "ĠiÅŁe": 3414,
      "ĠiÅŁi": 3415,
      "ĠiÅŁlet": 3416,
      "Ġciv": 3417,
      "ĠÃľrÃ¼nÃ¼m": 3418,
      "kent": 3419,
      "ĠgÃ¶nderdiler": 3420,
      "ĠÃ¶dedim": 3421,
      "tÄ±ktan": 3422,
      "ĠYapmÄ±yor": 3423,
      "ĠRez": 3424,
      "Ġsitesi": 3425,
      "acaÄŁÄ±": 3426,
      "Ġsizden": 3427,
      "ayÄ±sÄ±yla": 3428,
      "Ġyeter": 3429,
      "ĠGÃ¼ncel": 3430,
      "Ä±mÄ±za": 3431,
      "Ä±mÄ±zÄ±": 3432,
      "ĠsaÄŁlÄ±ÄŁÄ±": 3433,
      "Ġ200": 3434,
      "ĠParam": 3435,
      "ĠarÄ±zalÄ±": 3436,
      "Ġkredisi": 3437,
      "urkcell": 3438,
      "ĠaracÄ±mÄ±": 3439,
      "ĠÃ¼rÃ¼nlerin": 3440,
      "ĠOlmayan": 3441,
      "ĠsaygÄ±sÄ±z": 3442,
      "ĠistediÄŁimi": 3443,
      "Ġbelirttiler": 3444,
      "ĠaÅŁa": 3445,
      "Ġsebebi": 3446,
      "ĠBaÅŁka": 3447,
      "Ġseverek": 3448,
      "ĠhazÄ±rlan": 3449,
      "Ġburada": 3450,
      "ĠÅŁirketi": 3451,
      "ĠsonrasÄ±": 3452,
      "ĠyÄ±kama": 3453,
      "ĠKendi": 3454,
      "Ġkodlu": 3455,
      "ĠMahall": 3456,
      "Ġimz": 3457,
      "Ġkampanya": 3458,
      "Ġmalz": 3459,
      "ĠyaÄŁmur": 3460,
      "ĠDefalarca": 3461,
      "ardak": 3462,
      "arbak": 3463,
      "ĠYÃ¼ksek": 3464,
      "ĠÃĩaÄŁrÄ±": 3465,
      "GeÃ§en": 3466,
      "Ġekstra": 3467,
      "ĠSepeti": 3468,
      "ĠkarÅŁÄ±lÄ±ÄŁÄ±nda": 3469,
      "ĠBES": 3470,
      "ĠMahallesi": 3471,
      "09": 3472,
      "73": 3473,
      "BA": 3474,
      "Bim": 3475,
      "Beko": 3476,
      "Dan": 3477,
      "Kon": 3478,
      "KEA": 3479,
      "Lenovo": 3480,
      "Migros": 3481,
      "Netflix": 3482,
      "Par": 3483,
      "Penti": 3484,
      "aiz": 3485,
      "bilir": 3486,
      "iden": 3487,
      "ks": 3488,
      "neler": 3489,
      "sak": 3490,
      "zer": 3491,
      "Ã¼le": 3492,
      "erj": 3493,
      "Ġbundan": 3494,
      "Ġboya": 3495,
      "dem": 3496,
      "ÄŁine": 3497,
      "ÄŁinin": 3498,
      "Ġsur": 3499,
      "ĠsÄ±z": 3500,
      "Ġsert": 3501,
      "Ġstok": 3502,
      "Ġkit": 3503,
      "ĠkÄ±ÅŁ": 3504,
      "Ġkav": 3505,
      "Ã§ok": 3506,
      "Ã§uk": 3507,
      "ilmiyor": 3508,
      "Ġgr": 3509,
      "Ġgaz": 3510,
      "Ġyorum": 3511,
      "diÅŁ": 3512,
      "Ġtor": 3513,
      "Ġten": 3514,
      "ĠteÅŁ": 3515,
      "ayma": 3516,
      "ayla": 3517,
      "onun": 3518,
      "iÅŁehir": 3519,
      "larak": 3520,
      "larÄ±mÄ±n": 3521,
      "ikli": 3522,
      "ĠTa": 3523,
      "ĠdÃ¼ÅŁt": 3524,
      "ĠdÃ¶k": 3525,
      "Ġdalg": 3526,
      "ĠKahve": 3527,
      "ĠAÅŁ": 3528,
      "Ä±ldÄ±ÄŁÄ±": 3529,
      "Ġmar": 3530,
      "itr": 3531,
      "Ä±ÅŁtÄ±r": 3532,
      "Ġper": 3533,
      "Ġpaz": 3534,
      "ĠpoliÃ§": 3535,
      "ceÄŁiz": 3536,
      "Ġem": 3537,
      "Ġeden": 3538,
      "ĠeÄŁer": 3539,
      "ĠiÃ§ine": 3540,
      "emiz": 3541,
      "Ġgeldim": 3542,
      "Ġilgisiz": 3543,
      "uzda": 3544,
      "ĠPas": 3545,
      "Ġdiz": 3546,
      "Ġmay": 3547,
      "Ġarada": 3548,
      "ĠarasÄ±nda": 3549,
      "ĠÃ¶lÃ§": 3550,
      "talÄ±k": 3551,
      "Ġister": 3552,
      "ĠVestel": 3553,
      "Ġhalinde": 3554,
      "ĠFazla": 3555,
      "ĠÃ§Ä±kart": 3556,
      "ĠkaldÄ±k": 3557,
      "ĠCorona": 3558,
      "Ġkargoda": 3559,
      "ĠyazdÄ±m": 3560,
      "teme": 3561,
      "lenmiyor": 3562,
      "ĠmarkanÄ±n": 3563,
      "ĠgeldiÄŁi": 3564,
      "ĠSorumsuz": 3565,
      "2017": 3566,
      "Ġtest": 3567,
      "ĠyanÄ±lt": 3568,
      "ĠyapÄ±lmasÄ±": 3569,
      "Ġekmek": 3570,
      "Ġtekli": 3571,
      "omino": 3572,
      "usunu": 3573,
      "ĠYapmadÄ±": 3574,
      "ĠLas": 3575,
      "memi": 3576,
      "dikten": 3577,
      "ĠhatalÄ±": 3578,
      "Ġverilmiyor": 3579,
      "ĠÅŁubat": 3580,
      "ĠGelmeyen": 3581,
      "Ġsorunun": 3582,
      "ĠÅŁikayetim": 3583,
      "Ġediyorlar": 3584,
      "ĠBilgi": 3585,
      "ĠiÃ§indeki": 3586,
      "ĠsaÄŁlan": 3587,
      "ĠgÃ¶zlÃ¼k": 3588,
      "imizde": 3589,
      "Ġadresi": 3590,
      "ĠkaydÄ±": 3591,
      "ĠÃ¼stelik": 3592,
      "ĠverdiÄŁimiz": 3593,
      "Ġkoltu": 3594,
      "ĠalÄ±nmÄ±ÅŁ": 3595,
      "ĠmaÄŁaza": 3596,
      "ĠSÃ¼rat": 3597,
      "ĠdoÄŁum": 3598,
      "ĠYani": 3599,
      "ĠYanÄ±lt": 3600,
      "ĠgÃ¼venerek": 3601,
      "ĠgÃ¶rÃ¼ntÃ¼": 3602,
      "Ġ90": 3603,
      "encer": 3604,
      "Ġproblemi": 3605,
      "Ġrezil": 3606,
      "Ġtemizlik": 3607,
      "ĠÃĩalÄ±ÅŁan": 3608,
      "Ġyasak": 3609,
      "ĠtadÄ±": 3610,
      "ĠsÃ¼pÃ¼rge": 3611,
      "ĠyapÄ±lacak": 3612,
      "Ġkampany": 3613,
      "ĠkarÅŁÄ±laÅŁtÄ±m": 3614,
      "Ġtemsilcisi": 3615,
      "ĠÄ°lgisizliÄŁi": 3616,
      "Ġrenk": 3617,
      "ĠhÄ±zlÄ±": 3618,
      "ĠgÃ¶rÃ¼ÅŁtÃ¼m": 3619,
      "Burger": 3620,
      "ĠbazÄ±": 3621,
      "ĠHesab": 3622,
      "ĠYetkili": 3623,
      "ĠMemnuniyet": 3624,
      "Ġtehdit": 3625,
      "ĠBakanlÄ±ÄŁÄ±": 3626,
      "Facto": 3627,
      "Ã¼dÃ¼klÃ¼": 3628,
      "ĠpahalÄ±": 3629,
      "Xiaomi": 3630,
      "urtiÃ§i": 3631,
      "ĠDiyarbak": 3632,
      "55": 3633,
      "?,": 3634,
      "Daha": 3635,
      "Er": 3636,
      "HY": 3637,
      "Telefon": 3638,
      "ddi": 3639,
      "gul": 3640,
      "lus": 3641,
      "mar": 3642,
      "mÄ±zÄ±": 3643,
      "ox": 3644,
      "taÅŁ": 3645,
      "tasÄ±": 3646,
      "tÄ±lÄ±": 3647,
      "ucu": 3648,
      "yak": 3649,
      "ylÃ¼": 3650,
      "Ġir": 3651,
      "Ġunu": 3652,
      "Ġmek": 3653,
      "Ġlen": 3654,
      "ĠÄ±ÅŁÄ±k": 3655,
      "alet": 3656,
      "allah": 3657,
      "Ġsol": 3658,
      "ilmedi": 3659,
      "ĠgÃ¶n": 3660,
      "Ġyedek": 3661,
      "daÄŁ": 3662,
      "etro": 3663,
      "Ġtoz": 3664,
      "Ġham": 3665,
      "esiyle": 3666,
      "Ġolun": 3667,
      "Ġolmas": 3668,
      "izasyon": 3669,
      "iÅŁk": 3670,
      "Ġalma": 3671,
      "leye": 3672,
      "ĠTÃ¼m": 3673,
      "leriniz": 3674,
      "ĠKaÃ§": 3675,
      "ĠAd": 3676,
      "ĠAÄŁ": 3677,
      "Ġpeynir": 3678,
      "Ġpiyas": 3679,
      "ĠÅŁart": 3680,
      "Ġnot": 3681,
      "ĠyapamÄ±yorum": 3682,
      "Ġyapacak": 3683,
      "ĠMacfit": 3684,
      "ĠdaÄŁÄ±": 3685,
      "ĠYas": 3686,
      "aÅŁa": 3687,
      "ĠGenel": 3688,
      "ĠÄ°k": 3689,
      "emiyoruz": 3690,
      "dÄ±ÄŁÄ±nÄ±z": 3691,
      "ĠgelmiÅŁ": 3692,
      "ĠDr": 3693,
      "ĠDol": 3694,
      "ĠDur": 3695,
      "ĠEve": 3696,
      "Ġrandevu": 3697,
      "iyasko": 3698,
      "ĠdiÅŁ": 3699,
      "unuyor": 3700,
      "ĠaradÄ±k": 3701,
      "ĠÃ¼ret": 3702,
      "Ä±sÄ±nÄ±": 3703,
      "Ä±sÄ±ndan": 3704,
      "ahiÅŁ": 3705,
      "cafe": 3706,
      "ĠanlamadÄ±m": 3707,
      "mÄ±ÅŁtÄ±m": 3708,
      "menin": 3709,
      "Ġ31": 3710,
      "alarda": 3711,
      "ĠgeÃ§miÅŁ": 3712,
      "Ġsoru": 3713,
      "ĠkalÄ±yor": 3714,
      "Ġparaya": 3715,
      "ĠparanÄ±n": 3716,
      "acÄ±": 3717,
      "ĠkapaÄŁÄ±": 3718,
      "lenmiÅŁ": 3719,
      "lendirme": 3720,
      "ĠmarkalÄ±": 3721,
      "ĠulaÅŁÄ±lamÄ±yor": 3722,
      "gili": 3723,
      "Ġsaati": 3724,
      "Ġiptalini": 3725,
      "urumu": 3726,
      "Ġtelefonumu": 3727,
      "Ġedilmesini": 3728,
      "Ġkonuyla": 3729,
      "usur": 3730,
      "ĠAras": 3731,
      "emedim": 3732,
      "ĠYapÄ±yor": 3733,
      "Ġgirdim": 3734,
      "memiz": 3735,
      "ĠfaturasÄ±": 3736,
      "Ġsiteniz": 3737,
      "Ġkendim": 3738,
      "ayacak": 3739,
      "ĠbakÄ±m": 3740,
      "ĠyaÅŁÄ±nda": 3741,
      "ĠyaÅŁÄ±ndaki": 3742,
      "Ġyolu": 3743,
      "Ġyoluyla": 3744,
      "Ġcep": 3745,
      "Ġ60": 3746,
      "Ġ04": 3747,
      "ĠBiliÅŁim": 3748,
      "Ġnedeni": 3749,
      "ĠÃĸz": 3750,
      "eÅŁit": 3751,
      "muÅŁlar": 3752,
      "ĠÄ°lgilen": 3753,
      "ĠsaÄŁlam": 3754,
      "ĠparÃ§asÄ±": 3755,
      "erÃ§ev": 3756,
      "layan": 3757,
      "gulama": 3758,
      "ĠsanÄ±rÄ±m": 3759,
      "limatÄ±": 3760,
      "ĠarkadaÅŁÄ±m": 3761,
      "ĠaracÄ±lÄ±ÄŁÄ±": 3762,
      "Aras": 3763,
      "Ġmerkezine": 3764,
      "ĠgÃ¼venlik": 3765,
      "ĠhakkÄ±mÄ±": 3766,
      "ĠWi": 3767,
      "Ġkesinti": 3768,
      "ĠYapÄ±lmÄ±yor": 3769,
      "Ġtabak": 3770,
      "Ġkonusunda": 3771,
      "Ġtutar": 3772,
      "Ġsenedir": 3773,
      "Ġhava": 3774,
      "Ġbildirdim": 3775,
      "Ġburaya": 3776,
      "Ġkork": 3777,
      "Ġuygula": 3778,
      "ĠÄ±srarla": 3779,
      "Ġoturuyorum": 3780,
      "hall": 3781,
      "ĠKredisi": 3782,
      "ĠHaksÄ±z": 3783,
      "Ġdavran": 3784,
      "ĠtaÅŁÄ±n": 3785,
      "ĠTemiz": 3786,
      "ĠoluÅŁturdum": 3787,
      "ĠÄ°nsanlarÄ±": 3788,
      "ĠsokaÄŁa": 3789,
      "ĠMuhatap": 3790,
      "Ġborcum": 3791,
      "Ġkurumsal": 3792,
      "ĠSaÄŁlÄ±k": 3793,
      "ĠsigortasÄ±": 3794,
      "ĠDevlet": 3795,
      "Ġmisiniz": 3796,
      "Ġisimli": 3797,
      "Ġapart": 3798,
      "ĠProblemi": 3799,
      "Ġaktif": 3800,
      "ĠkahvaltÄ±": 3801,
      "glish": 3802,
      "Ä±ÅŁmanlÄ±k": 3803,
      "ation": 3804,
      "ylÃ¼l": 3805,
      "St": 3806,
      "Tefal": 3807,
      "Yeni": 3808,
      "ag": 3809,
      "iÄŁi": 3810,
      "kas": 3811,
      "sey": 3812,
      "ton": 3813,
      "tisi": 3814,
      "teki": 3815,
      "yat": 3816,
      "ÅŁehir": 3817,
      "ĠbeÅŁ": 3818,
      "ink": 3819,
      "Ġsar": 3820,
      "Ġkara": 3821,
      "ilere": 3822,
      "Ġyurt": 3823,
      "ĠyavaÅŁ": 3824,
      "Ä±ntÄ±lÄ±": 3825,
      "Ġtu": 3826,
      "ĠtÄ±k": 3827,
      "ĠtuÅŁ": 3828,
      "Ġif": 3829,
      "Ġitiraz": 3830,
      "ĠhoÅŁ": 3831,
      "umanda": 3832,
      "aptop": 3833,
      "larÄ±nÄ±z": 3834,
      "asay": 3835,
      "ĠSistem": 3836,
      "ĠBB": 3837,
      "ĠBaÄŁ": 3838,
      "ĠBunu": 3839,
      "ĠBah": 3840,
      "ĠBeni": 3841,
      "ĠÃ§ab": 3842,
      "ĠÃ§oÄŁu": 3843,
      "amuk": 3844,
      "ĠTor": 3845,
      "ĠdÃ¼ÄŁÃ¼n": 3846,
      "ĠKÃ¼": 3847,
      "ĠKir": 3848,
      "ĠKÄ±z": 3849,
      "ĠKuyum": 3850,
      "ĠAb": 3851,
      "ĠAc": 3852,
      "Ä±lmaz": 3853,
      "Ġmer": 3854,
      "Ġmart": 3855,
      "ulu": 3856,
      "aÄŁÄ±n": 3857,
      "Ġyapar": 3858,
      "ĠyapÄ±yorlar": 3859,
      "Ġyaparken": 3860,
      "ĠMal": 3861,
      "dular": 3862,
      "ĠYÃ¼z": 3863,
      "ĠYemek": 3864,
      "ĠYaklaÅŁÄ±k": 3865,
      "ĠGarant": 3866,
      "ĠGazi": 3867,
      "ĠÄ°h": 3868,
      "ĠÄ°let": 3869,
      "Ġayn": 3870,
      "Ġayar": 3871,
      "emir": 3872,
      "dÄ±ÄŁÄ±nda": 3873,
      "ĠilÃ§": 3874,
      "ĠDon": 3875,
      "ĠDÃ¼z": 3876,
      "lanma": 3877,
      "ĠPh": 3878,
      "adem": 3879,
      "Ġhalk": 3880,
      "iÃ§i": 3881,
      "Ġtarihinden": 3882,
      "ĠbaÅŁÄ±": 3883,
      "Ġkullanmaya": 3884,
      "ĠkullanÄ±c": 3885,
      "ĠÃĩekil": 3886,
      "ĠÃĩÃ¼nkÃ¼": 3887,
      "miyoruz": 3888,
      "Ġvarsa": 3889,
      "ĠsorduÄŁum": 3890,
      "ĠNormal": 3891,
      "ĠkalÄ±yorum": 3892,
      "ĠkalmadÄ±": 3893,
      "ĠCen": 3894,
      "ĠKartÄ±": 3895,
      "ĠaÃ§tÄ±ÄŁÄ±m": 3896,
      "Ġkargoyu": 3897,
      "ĠulaÅŁtÄ±r": 3898,
      "ĠfirmasÄ±na": 3899,
      "ĠyanÄ±t": 3900,
      "Ġservisine": 3901,
      "ĠÅŀif": 3902,
      "ikayeti": 3903,
      "ĠsÃ¶yledik": 3904,
      "ĠdeÄŁiÅŁti": 3905,
      "ĠAllah": 3906,
      "Ġdeniyor": 3907,
      "tikten": 3908,
      "Ġevrak": 3909,
      "ĠLite": 3910,
      "ĠLaptop": 3911,
      "Ġoradan": 3912,
      "ĠyarÄ±n": 3913,
      "ĠSipariÅŁi": 3914,
      "ĠkesilmiÅŁ": 3915,
      "ĠatÄ±yor": 3916,
      "Ġlakin": 3917,
      "ĠtarafÄ±": 3918,
      "Ġ65": 3919,
      "kamet": 3920,
      "Ġmusunuz": 3921,
      "ĠdÃ¼ÅŁÃ¼k": 3922,
      "Ġistediler": 3923,
      "leÅŁtir": 3924,
      "Ã¼ÄŁÃ¼": 3925,
      "imize": 3926,
      "ĠadlÄ±": 3927,
      "ĠaldÄ±ktan": 3928,
      "ĠÃ¼stÃ¼": 3929,
      "Ġkolay": 3930,
      "Ġtanesi": 3931,
      "ĠSonr": 3932,
      "Ġdakik": 3933,
      "ĠÃĩÄ±kan": 3934,
      "Ġuzat": 3935,
      "Ġresim": 3936,
      "ĠaÅŁaÄŁÄ±": 3937,
      "Ġmodeli": 3938,
      "Ġkalitesi": 3939,
      "Ġsistemi": 3940,
      "ĠIn": 3941,
      "Ġborcu": 3942,
      "Ġhesaba": 3943,
      "ĠÃ¶ÄŁrenc": 3944,
      "Ġhastaneye": 3945,
      "ĠaÄŁÄ±r": 3946,
      "ĠSatÄ±ÅŁ": 3947,
      "ĠsÃ¼reci": 3948,
      "ĠUlaÅŁamÄ±yorum": 3949,
      "halde": 3950,
      "ĠÃ¼yeliÄŁim": 3951,
      "ĠDoÄŁalgaz": 3952,
      "ĠgÃ¼ncelleme": 3953,
      "Ġtahsil": 3954,
      "estek": 3955,
      "ĠDeÄŁiÅŁtir": 3956,
      "ĠJet": 3957,
      "ĠgÃ¶revl": 3958,
      "Ġtalebinde": 3959,
      "altepe": 3960,
      "ĠalakalÄ±": 3961,
      "ĠihtiyacÄ±m": 3962,
      "Ġdosy": 3963,
      "ĠBÃ¼yÃ¼kÅŁehir": 3964,
      "Ġkargolan": 3965,
      "ĠKoltuk": 3966,
      "ĠmenÃ¼": 3967,
      "Ġhayal": 3968,
      "ĠyazÄ±lÄ±m": 3969,
      "ĠHafta": 3970,
      "ĠKoÃ§": 3971,
      "ĠDavran": 3972,
      "ĠBuzdol": 3973,
      "Ġdenedim": 3974,
      "ĠBulun": 3975,
      "ĠBaby": 3976,
      "oÄŁaziÃ§i": 3977,
      "Danone": 3978,
      "ĠmayÄ±s": 3979,
      "ĠMemnuniyetsizliÄŁi": 3980,
      "ĠDiyarbakÄ±r": 3981,
      ".,": 3982,
      "34": 3983,
      "36": 3984,
      "54": 3985,
      "86": 3986,
      "Coca": 3987,
      "Domino": 3988,
      "MA": 3989,
      "VA": 3990,
      "be": 3991,
      "baÅŁ": 3992,
      "dal": 3993,
      "for": 3994,
      "her": 3995,
      "riz": 3996,
      "sat": 3997,
      "sÃ¼z": 3998,
      "sman": 3999,
      "yap": 4000,
      "zum": 4001,
      "zmir": 4002,
      "Ġlam": 4003,
      "ÅŁir": 4004,
      "Ġbe": 4005,
      "Ġbask": 4006,
      "incan": 4007,
      "ÄŁun": 4008,
      "alÄ±yor": 4009,
      "Ġsak": 4010,
      "Ġsuy": 4011,
      "ĠkaÄŁÄ±": 4012,
      "ĠkÄ±ya": 4013,
      "enÃ§": 4014,
      "dava": 4015,
      "Ġtraf": 4016,
      "ates": 4017,
      "Ġiken": 4018,
      "akir": 4019,
      "Ġha": 4020,
      "Ġhel": 4021,
      "lamak": 4022,
      "Ġdeter": 4023,
      "urken": 4024,
      "ĠSe": 4025,
      "ĠSh": 4026,
      "ĠSaÃ§": 4027,
      "ĠalÄ±r": 4028,
      "ĠaltÄ±": 4029,
      "Ġalabil": 4030,
      "ĠBim": 4031,
      "ĠBede": 4032,
      "ĠBÄ±rak": 4033,
      "ĠÃ§eÅŁit": 4034,
      "ĠÃ§erÃ§ev": 4035,
      "ĠTv": 4036,
      "Ġdin": 4037,
      "ĠdÃ¼ÄŁ": 4038,
      "Ġav": 4039,
      "Ġameli": 4040,
      "ĠKut": 4041,
      "ĠmÄ±s": 4042,
      "ise": 4043,
      "Ġfaiz": 4044,
      "Ġpan": 4045,
      "ultan": 4046,
      "Ä°zmir": 4047,
      "Ġnet": 4048,
      "ĠyapÄ±yorum": 4049,
      "Ġyapabil": 4050,
      "ĠMas": 4051,
      "ĠMotor": 4052,
      "ĠMigros": 4053,
      "ĠMutfak": 4054,
      "duÄŁu": 4055,
      "ĠYa": 4056,
      "aÅŁtÄ±r": 4057,
      "ĠÄ°s": 4058,
      "ĠayÄ±p": 4059,
      "tiv": 4060,
      "Ġbula": 4061,
      "ĠbuÃ§uk": 4062,
      "Ġverecek": 4063,
      "ĠgeliÅŁ": 4064,
      "Ġgelmesi": 4065,
      "ĠDer": 4066,
      "ĠDestek": 4067,
      "landÄ±r": 4068,
      "ĠgÃ¼nÃ¼nde": 4069,
      "ĠElim": 4070,
      "Ġred": 4071,
      "ĠPandemi": 4072,
      "ĠPlus": 4073,
      "Ġetmeden": 4074,
      "ĠmayÄ±": 4075,
      "Ġmadde": 4076,
      "ĠÃ¼rÃ¼nlerini": 4077,
      "ĠsipariÅŁler": 4078,
      "Ġanlam": 4079,
      "ĠanlamÄ±yorum": 4080,
      "talama": 4081,
      "Ġistiyoruz": 4082,
      "Ġtarihine": 4083,
      "maktayÄ±m": 4084,
      "ĠgidiÅŁ": 4085,
      "dirim": 4086,
      "ĠÃĩÃ¶z": 4087,
      "alarÄ±na": 4088,
      "ĠgeÃ§iÅŁ": 4089,
      "ĠgeÃ§iyor": 4090,
      "ĠÃ§Ä±kma": 4091,
      "ĠNerede": 4092,
      "ĠkalmadÄ±m": 4093,
      "ĠCev": 4094,
      "ĠKarÅŁ": 4095,
      "ĠaÃ§mÄ±yor": 4096,
      "ĠkapÄ±": 4097,
      "Ġherhalde": 4098,
      "Ġyazan": 4099,
      "ĠmarkasÄ±": 4100,
      "ĠulaÅŁmak": 4101,
      "ĠulaÅŁamadÄ±m": 4102,
      "inizde": 4103,
      "siye": 4104,
      "ĠÃ¶deye": 4105,
      "ĠÃ¶dediÄŁim": 4106,
      "Ġfirmalar": 4107,
      "osa": 4108,
      "ĠÅŀarj": 4109,
      "ĠÅŁeyin": 4110,
      "ĠdolayÄ±sÄ±yla": 4111,
      "ĠedilmiÅŁ": 4112,
      "ĠnumarasÄ±nÄ±": 4113,
      "Ġzamanlarda": 4114,
      "edeki": 4115,
      "memize": 4116,
      "ĠdeÄŁildi": 4117,
      "Ġgerekirken": 4118,
      "ĠAyakkabÄ±": 4119,
      "Ġbelki": 4120,
      "Ġkendil": 4121,
      "Ġ06": 4122,
      "Ġ09": 4123,
      "ĠuyarÄ±": 4124,
      "ĠdÃ¼ÅŁÃ¼r": 4125,
      "Ġtemin": 4126,
      "ektron": 4127,
      "ĠVermiyor": 4128,
      "sizlik": 4129,
      "Ã¶rÃ¼": 4130,
      "ĠBende": 4131,
      "Ġkabl": 4132,
      "ift": 4133,
      "Ġbayii": 4134,
      "Ġtedav": 4135,
      "ĠHalde": 4136,
      "Ġyeniden": 4137,
      "sÄ±t": 4138,
      "ĠbaÅŁvurdum": 4139,
      "ĠdoÄŁr": 4140,
      "Ġbekliyoruz": 4141,
      "ĠTelefonu": 4142,
      "ĠyaptÄ±rdÄ±k": 4143,
      "ĠaradÄ±ÄŁÄ±mÄ±zda": 4144,
      "ĠGÃ¶nderimi": 4145,
      "ĠaltÄ±n": 4146,
      "ĠborÃ§": 4147,
      "ĠEtmiyor": 4148,
      "ĠBaÅŁv": 4149,
      "ÄŁust": 4150,
      "abilirsiniz": 4151,
      "Ãĩok": 4152,
      "Ġism": 4153,
      "ĠBelir": 4154,
      "ĠaÄŁz": 4155,
      "ĠbÃ¶lg": 4156,
      "ĠyazÄ±yordu": 4157,
      "Ġacilen": 4158,
      "ÃľrÃ¼n": 4159,
      "Ãĸz": 4160,
      "ĠMarka": 4161,
      "ĠMarket": 4162,
      "ĠTemmuz": 4163,
      "ĠkapanÄ±yor": 4164,
      "ĠSorunlarÄ±": 4165,
      "Ġmarketten": 4166,
      "Ġimkan": 4167,
      "ĠKurul": 4168,
      "ĠÃ¶ÄŁrendim": 4169,
      "Ġseyahat": 4170,
      "Ġhangi": 4171,
      "ĠYatak": 4172,
      "ĠdeÄŁiÅŁikliÄŁi": 4173,
      "ĠSalon": 4174,
      "Ġsenelik": 4175,
      "ĠyolladÄ±m": 4176,
      "ĠTedarik": 4177,
      "ĠTamir": 4178,
      "ĠdeÄŁerlendir": 4179,
      "Ġoyuncak": 4180,
      "ĠDanone": 4181,
      "ĠYÃ¶netim": 4182,
      "ĠyaÅŁadÄ±ÄŁÄ±m": 4183,
      "ĠÃ§Ã¶zÃ¼lmesini": 4184,
      "ĠkullanÄ±yordum": 4185,
      "Ġvideo": 4186,
      "Ġkilit": 4187,
      "ĠprogramÄ±": 4188,
      "ganizasyon": 4189,
      "Ġsiyah": 4190,
      "ĠYardÄ±m": 4191,
      "Ġadam": 4192,
      "ĠÃ§ikolat": 4193,
      "Ġzarar": 4194,
      "ĠKimse": 4195,
      "ĠRahatsÄ±z": 4196,
      "ĠtaahhÃ¼t": 4197,
      "ĠpeÅŁin": 4198,
      "balaj": 4199,
      "ĠaÅŁamasÄ±nda": 4200,
      "Ġunut": 4201,
      "ĠBBVA": 4202,
      "ĠCenter": 4203,
      "Ġdeterj": 4204,
      "100": 4205,
      "33": 4206,
      "65": 4207,
      "89": 4208,
      "95": 4209,
      "Bil": 4210,
      "BaÅŁ": 4211,
      "Jolly": 4212,
      "KÄ°": 4213,
      "TS": 4214,
      "Turkcell": 4215,
      "co": 4216,
      "cÃ¼": 4217,
      "fa": 4218,
      "he": 4219,
      "his": 4220,
      "lÄ±yor": 4221,
      "nosa": 4222,
      "ook": 4223,
      "osta": 4224,
      "sÃ¼": 4225,
      "son": 4226,
      "tÄ±nÄ±z": 4227,
      "tarÄ±": 4228,
      "taki": 4229,
      "Ġli": 4230,
      "Ä±ÄŁ": 4231,
      "and": 4232,
      "ĠbÄ±k": 4233,
      "Ġbib": 4234,
      "Ġbisiklet": 4235,
      "ina": 4236,
      "alara": 4237,
      "Ġsos": 4238,
      "Ġsav": 4239,
      "Ġsigorta": 4240,
      "Ã§asÄ±": 4241,
      "ena": 4242,
      "irde": 4243,
      "ĠyÄ±rt": 4244,
      "mey": 4245,
      "etrol": 4246,
      "Ġtl": 4247,
      "ate": 4248,
      "Ġicra": 4249,
      "Ġikamet": 4250,
      "Ġvaz": 4251,
      "eksiyon": 4252,
      "unlu": 4253,
      "escafe": 4254,
      "larca": 4255,
      "ĠSi": 4256,
      "ĠSab": 4257,
      "ĠSoÄŁ": 4258,
      "ĠalmÄ±yor": 4259,
      "ĠBoya": 4260,
      "ĠbirÃ§ok": 4261,
      "ĠÃ§Ã¶k": 4262,
      "ledim": 4263,
      "lemek": 4264,
      "ĠTut": 4265,
      "ĠTrendyol": 4266,
      "ĠacÄ±": 4267,
      "ĠaÄŁr": 4268,
      "ĠKÄ±s": 4269,
      "ĠKazan": 4270,
      "ĠAdana": 4271,
      "Ä±lmasÄ±nÄ±": 4272,
      "ĠÅŁah": 4273,
      "Ġniye": 4274,
      "ĠMi": 4275,
      "ĠMil": 4276,
      "duÄŁ": 4277,
      "ĠHuawei": 4278,
      "ĠYurtiÃ§i": 4279,
      "ĠGerÃ§ek": 4280,
      "ĠGibi": 4281,
      "Ġaydan": 4282,
      "emiÅŁ": 4283,
      "tiÄŁi": 4284,
      "Ġvermedi": 4285,
      "Ġgelin": 4286,
      "Ġgelince": 4287,
      "abersiz": 4288,
      "ĠDaÄŁÄ±": 4289,
      "ĠDeniz": 4290,
      "lanan": 4291,
      "lanmÄ±ÅŁ": 4292,
      "lanmadÄ±": 4293,
      "ĠgÃ¼nlerdir": 4294,
      "ĠEx": 4295,
      "ĠEÄŁer": 4296,
      "Ġetmedi": 4297,
      "Ġuc": 4298,
      "Ġaradan": 4299,
      "ĠÃ¼retim": 4300,
      "ĠarÄ±yoruz": 4301,
      "Ġistiyor": 4302,
      "Ġistasyon": 4303,
      "ĠVodafone": 4304,
      "Ġtarz": 4305,
      "iÃ§ek": 4306,
      "ĠForum": 4307,
      "ĠFahiÅŁ": 4308,
      "ado": 4309,
      "ĠbaÅŁk": 4310,
      "ĠbaÅŁÄ±ma": 4311,
      "ĠOtel": 4312,
      "Ġ35": 4313,
      "ĠkullanamÄ±yorum": 4314,
      "ĠÃĩay": 4315,
      "edik": 4316,
      "ĠamaÃ§": 4317,
      "ĠgeÃ§medi": 4318,
      "ĠsÃ¼rÃ¼": 4319,
      "ĠÃ§Ä±kmadÄ±": 4320,
      "ĠNo": 4321,
      "ĠNumar": 4322,
      "ĠCam": 4323,
      "ĠKargol": 4324,
      "ĠaÃ§Ä±p": 4325,
      "afir": 4326,
      "aciz": 4327,
      "uyorlar": 4328,
      "ĠgÃ¶rdÃ¼k": 4329,
      "ĠyazÄ±yorum": 4330,
      "Ġelde": 4331,
      "ĠulaÅŁÄ±lmÄ±yor": 4332,
      "Ġsaatin": 4333,
      "ĠgÃ¶nderilmiÅŁ": 4334,
      "ĠÃ§alÄ±ÅŁÄ±yorum": 4335,
      "ĠÃ§alÄ±ÅŁtÄ±m": 4336,
      "ĠÃ¶demesini": 4337,
      "ĠtelefonlarÄ±": 4338,
      "Ġdolu": 4339,
      "Ġedilen": 4340,
      "ĠsÃ¶yleyip": 4341,
      "ĠArÄ±za": 4342,
      "Ġyerinden": 4343,
      "emel": 4344,
      "emez": 4345,
      "ozit": 4346,
      "ĠAlÄ±ÅŁveriÅŁ": 4347,
      "manÄ±z": 4348,
      "Ġona": 4349,
      "Ġevi": 4350,
      "Ġevime": 4351,
      "ĠYaptÄ±": 4352,
      "Ġgirip": 4353,
      "Ä±nÄ±za": 4354,
      "ĠhatÄ±r": 4355,
      "Ġortalama": 4356,
      "ĠAylÄ±k": 4357,
      "Ġbizden": 4358,
      "ĠbaktÄ±ÄŁÄ±mda": 4359,
      "Ġkesildi": 4360,
      "ĠyaÅŁama": 4361,
      "ĠbulunduÄŁum": 4362,
      "tiÄŁimiz": 4363,
      "Ġ05": 4364,
      "eÅŁil": 4365,
      "ĠÄ°lgili": 4366,
      "ĠbitmiÅŁ": 4367,
      "ĠParamÄ±": 4368,
      "Ġinsanlar": 4369,
      "ivil": 4370,
      "ĠZor": 4371,
      "ĠÃ¼stÃ¼nde": 4372,
      "ĠyÃ¼zden": 4373,
      "ĠiÅŁlemini": 4374,
      "cileri": 4375,
      "Ġmec": 4376,
      "Ġmey": 4377,
      "Ġsaniye": 4378,
      "Ġsandal": 4379,
      "ĠdoÄŁal": 4380,
      "ĠdoÄŁalgaz": 4381,
      "ĠcihazÄ±": 4382,
      "ĠAtasun": 4383,
      "ĠOlmasÄ±": 4384,
      "Ġmemnuniyeti": 4385,
      "Ġmerkezi": 4386,
      "ĠistediÄŁim": 4387,
      "Ġbelirttim": 4388,
      "Ġsistemde": 4389,
      "ĠyÃ¶netim": 4390,
      "ĠArac": 4391,
      "Ġtablet": 4392,
      "ĠKontrol": 4393,
      "Ġerken": 4394,
      "ĠEdilen": 4395,
      "ĠEdilmeyen": 4396,
      "ĠdÄ±ÅŁarÄ±": 4397,
      "Ġelektrikli": 4398,
      "Ġoku": 4399,
      "Ġokuma": 4400,
      "Ġkurulumu": 4401,
      "ĠverdiÄŁi": 4402,
      "Ġmaske": 4403,
      "Ġkimseye": 4404,
      "Alt": 4405,
      "ĠyaptÄ±lar": 4406,
      "ĠKalitesi": 4407,
      "ĠboÅŁa": 4408,
      "ĠkÄ±smÄ±nda": 4409,
      "Ġarayan": 4410,
      "Ġarayarak": 4411,
      "Phone": 4412,
      "Ġikinci": 4413,
      "ĠgerektiÄŁi": 4414,
      "Ġtatil": 4415,
      "Ġitibariyle": 4416,
      "Ġsahib": 4417,
      "ĠÅŀikayetÃ§iyim": 4418,
      "Ġseans": 4419,
      "ĠEski": 4420,
      "Ġsokak": 4421,
      "ĠdÃ¶nemde": 4422,
      "ĠalakasÄ±": 4423,
      "ĠKanal": 4424,
      "Ġmiktar": 4425,
      "ĠOyun": 4426,
      "ĠgÃ¶rÃ¼ÅŁtÃ¼ÄŁÃ¼m": 4427,
      "ĠyakÄ±ÅŁmÄ±yor": 4428,
      "ĠGiriÅŁ": 4429,
      "ĠGÃ¶rÃ¼n": 4430,
      "ĠÄ±sÄ±t": 4431,
      "ĠGecikmesi": 4432,
      "ĠtÃ¼ket": 4433,
      "Ġbahane": 4434,
      "ĠÃ§izik": 4435,
      "ĠâĢľ": 4436,
      "ĠaldÄ±ÄŁÄ±ma": 4437,
      "Ġdamacana": 4438,
      "ĠkardeÅŁim": 4439,
      "Ġmalzeme": 4440,
      "Ġdalga": 4441,
      "ĠLastik": 4442,
      "ĠKuyumculuk": 4443,
      "ĠPhilips": 4444,
      "ĠkÄ±yaf": 4445,
      "ĠBedeli": 4446,
      "ĠmayÄ±sta": 4447,
      "46": 4448,
      "68": 4449,
      "70": 4450,
      "96": 4451,
      "?\"": 4452,
      "Ara": 4453,
      "DÃ¼n": 4454,
      "DoÄŁ": 4455,
      "Deniz": 4456,
      "ED": 4457,
      "Her": 4458,
      "Halk": 4459,
      "IKEA": 4460,
      "Kamil": 4461,
      "LG": 4462,
      "Mer": 4463,
      "MNG": 4464,
      "NR": 4465,
      "Sor": 4466,
      "Tube": 4467,
      "biy": 4468,
      "fer": 4469,
      "fes": 4470,
      "geÃ§": 4471,
      "gram": 4472,
      "iÄŁ": 4473,
      "kÃ¶y": 4474,
      "lÄ±nda": 4475,
      "mara": 4476,
      "nÄ±z": 4477,
      "nden": 4478,
      "oma": 4479,
      "paÅŁa": 4480,
      "ril": 4481,
      "rana": 4482,
      "sas": 4483,
      "sinin": 4484,
      "tayÄ±": 4485,
      "teyim": 4486,
      "uTube": 4487,
      "Ġj": 4488,
      "Ġle": 4489,
      "Ä±b": 4490,
      "aray": 4491,
      "arlan": 4492,
      "erken": 4493,
      "anz": 4494,
      "ancÄ±": 4495,
      "anyo": 4496,
      "Ġbab": 4497,
      "inish": 4498,
      "ali": 4499,
      "alat": 4500,
      "alnÄ±z": 4501,
      "Ġsine": 4502,
      "Ġsaf": 4503,
      "ĠkÄ±": 4504,
      "ĠkaÅŁ": 4505,
      "Ġkre": 4506,
      "ĠkoÅŁ": 4507,
      "ĠkeÅŁke": 4508,
      "Ġkronik": 4509,
      "Ġgar": 4510,
      "Ã¶cek": 4511,
      "etli": 4512,
      "Ġtad": 4513,
      "Ġtic": 4514,
      "ĠtÃ¼ketici": 4515,
      "aydÄ±": 4516,
      "Ġiy": 4517,
      "Ġvatan": 4518,
      "Ã¼nÃ¼z": 4519,
      "esiyim": 4520,
      "Ġolabil": 4521,
      "ĠSiz": 4522,
      "ĠSeb": 4523,
      "Ġalmaz": 4524,
      "ĠalÄ±yorsunuz": 4525,
      "ĠalmayÄ±": 4526,
      "ĠBÃ¼tÃ¼n": 4527,
      "ĠBisiklet": 4528,
      "ĠÃ§eyiz": 4529,
      "leep": 4530,
      "ĠTal": 4531,
      "ĠTale": 4532,
      "ĠTamam": 4533,
      "ĠTencere": 4534,
      "Ġduv": 4535,
      "ĠKiÅŁ": 4536,
      "ĠKad": 4537,
      "ĠKÃ¼f": 4538,
      "ĠAm": 4539,
      "ĠAda": 4540,
      "ĠAidat": 4541,
      "Ä±lÄ±r": 4542,
      "ital": 4543,
      "Ġfay": 4544,
      "Ġfiyasko": 4545,
      "Ġpomp": 4546,
      "ulmuyor": 4547,
      "ĠÅŁef": 4548,
      "ĠÅŁehir": 4549,
      "ĠÅŁof": 4550,
      "Ä°ki": 4551,
      "Ġnok": 4552,
      "Ġyapama": 4553,
      "ĠyapÄ±yorsunuz": 4554,
      "ĠyapacaÄŁÄ±m": 4555,
      "ĠyapmadÄ±lar": 4556,
      "ĠyaptÄ±ÄŁÄ±": 4557,
      "Ġ1000": 4558,
      "ĠMadde": 4559,
      "ĠHD": 4560,
      "ĠHP": 4561,
      "ĠHar": 4562,
      "ĠHediye": 4563,
      "ĠYalan": 4564,
      "ĠYedek": 4565,
      "ĠGB": 4566,
      "ĠGo": 4567,
      "ĠGÄ±da": 4568,
      "ĠGratis": 4569,
      "ĠayÄ±nÄ±n": 4570,
      "ĠDa": 4571,
      "ĠgÃ¼nah": 4572,
      "ĠgÃ¼nlerde": 4573,
      "ĠEylÃ¼l": 4574,
      "ĠPoliÃ§": 4575,
      "ĠPaket": 4576,
      "masÄ±ndan": 4577,
      "ĠkarÄ±ÅŁ": 4578,
      "Ġetmem": 4579,
      "ĠaradÄ±": 4580,
      "ĠarayÄ±n": 4581,
      "ĠÃľlker": 4582,
      "amama": 4583,
      "meniz": 4584,
      "ĠFit": 4585,
      "ĠFÄ±r": 4586,
      "ĠbaÅŁlÄ±k": 4587,
      "alÄ±ÄŁÄ±": 4588,
      "ĠOf": 4589,
      "dÄ±rÄ±yor": 4590,
      "dirde": 4591,
      "Ġkullanabil": 4592,
      "ĠkullanÄ±mda": 4593,
      "ĠÃĩocuk": 4594,
      "ĠÃĩamaÅŁÄ±r": 4595,
      "ĠÃ§Ä±kÄ±ÅŁ": 4596,
      "ĠÃ§Ä±kmÄ±ÅŁ": 4597,
      "Ġkapora": 4598,
      "Ġ43": 4599,
      "Ġ400": 4600,
      "ĠgÃ¶rdÃ¼ÄŁÃ¼m": 4601,
      "Ġ55": 4602,
      "Ġelimde": 4603,
      "2016": 4604,
      "ĠÃ¶dedik": 4605,
      "ĠÃ¶deyip": 4606,
      "ĠÃ¶deyerek": 4607,
      "ĠyapÄ±lÄ±yor": 4608,
      "Ġbeklen": 4609,
      "ĠÅŀiÅŁ": 4610,
      "Ġediliyor": 4611,
      "Ġedilecek": 4612,
      "Ġkonusu": 4613,
      "ĠolmadÄ±ÄŁ": 4614,
      "ĠAraÅŁtÄ±r": 4615,
      "emeyen": 4616,
      "Ġtakdirde": 4617,
      "ĠAldÄ±ÄŁÄ±mÄ±z": 4618,
      "ĠAnneler": 4619,
      "ĠLenovo": 4620,
      "ĠUPS": 4621,
      "ĠUzun": 4622,
      "Ġaks": 4623,
      "lamalar": 4624,
      "Ġediyorsunuz": 4625,
      "ĠbulunamadÄ±": 4626,
      "Ġdurumdan": 4627,
      "Ġ07": 4628,
      "ĠÃĸÄŁr": 4629,
      "meyeceÄŁim": 4630,
      "elerde": 4631,
      "elerden": 4632,
      "mamÄ±z": 4633,
      "Ġ70": 4634,
      "ĠinsanlarÄ±n": 4635,
      "uperon": 4636,
      "ĠkiÅŁiler": 4637,
      "ĠhemÅŁir": 4638,
      "Ã¶rt": 4639,
      "ladÄ±lar": 4640,
      "Ġkabar": 4641,
      "Ä±sÄ±yÄ±m": 4642,
      "Ġbayisinden": 4643,
      "ĠZiraat": 4644,
      "ĠbaÄŁlÄ±": 4645,
      "Ġfiyata": 4646,
      "ĠdevamlÄ±": 4647,
      "Ġfiltre": 4648,
      "ceki": 4649,
      "ĠdeÄŁiÅŁtirdim": 4650,
      "ĠdeÄŁiÅŁtirmek": 4651,
      "ĠÃĩÄ±kar": 4652,
      "Arzum": 4653,
      "Ġuzak": 4654,
      "ĠistediÄŁimde": 4655,
      "ĠolursanÄ±z": 4656,
      "ova": 4657,
      "ĠDeÄŁiÅŁim": 4658,
      "ĠhesabÄ±mdan": 4659,
      "Ġhasta": 4660,
      "ĠbÄ±rakÄ±n": 4661,
      "ĠYapÄ±lmamasÄ±": 4662,
      "ĠKonya": 4663,
      "Ġbildirim": 4664,
      "Ġburadan": 4665,
      "ersoneli": 4666,
      "ĠeÅŁy": 4667,
      "ĠbaÄŁlantÄ±": 4668,
      "antep": 4669,
      "ĠKapak": 4670,
      "ĠHatalÄ±": 4671,
      "ĠettiÄŁimde": 4672,
      "idatÄ±": 4673,
      "ĠÅŀubesi": 4674,
      "Ġbankaya": 4675,
      "Ġgarantili": 4676,
      "Ġsonraki": 4677,
      "AldÄ±ÄŁÄ±m": 4678,
      "ĠBozuldu": 4679,
      "Ġbasit": 4680,
      "Ġkokuyor": 4681,
      "ocaeli": 4682,
      "ĠHaklarÄ±": 4683,
      "ĠÃ§ekildi": 4684,
      "ĠYetersiz": 4685,
      "ĠyapÄ±lacaÄŁÄ±": 4686,
      "unuzu": 4687,
      "ĠKuru": 4688,
      "Ġbilgilendir": 4689,
      "ĠDoÄŁru": 4690,
      "Ġtemsilcisine": 4691,
      "Ġsahip": 4692,
      "Ġpasta": 4693,
      "ĠpiÅŁmanÄ±m": 4694,
      "ĠOnay": 4695,
      "ĠÅŁifre": 4696,
      "amayacak": 4697,
      "ĠVerilmedi": 4698,
      "Ġkamer": 4699,
      "ĠarandÄ±m": 4700,
      "ĠResmen": 4701,
      "ĠTakip": 4702,
      "Bursa": 4703,
      "Ġbazen": 4704,
      "express": 4705,
      "ĠDanÄ±ÅŁmanlÄ±k": 4706,
      "ĠgÃ¶rÃ¼ÅŁme": 4707,
      "ĠbuzdolabÄ±": 4708,
      "owenta": 4709,
      "Ġweb": 4710,
      "ĠYayÄ±nevi": 4711,
      "ĠÃ§evrem": 4712,
      "ĠKasÄ±m": 4713,
      "ĠDÃ¶nÃ¼ÅŁ": 4714,
      "ĠuyarÄ±sÄ±": 4715,
      "Ġsorumsuzluk": 4716,
      "ĠhattÄ±nÄ±": 4717,
      "Ġderecede": 4718,
      "ĠSaygÄ±sÄ±zlÄ±ÄŁÄ±": 4719,
      "oloji": 4720,
      "English": 4721,
      "Ġplastik": 4722,
      "ĠHakkÄ±nda": 4723,
      "ĠBilgilendirme": 4724,
      "ĠFotoÄŁrafÃ§": 4725,
      "ĠsÃ¼reÃ§te": 4726,
      "ĠTadÄ±": 4727,
      "Ġmekan": 4728,
      "Ġtutan": 4729,
      "ĠBaÄŁlan": 4730,
      "ĠCevap": 4731,
      "ektronik": 4732,
      "Ġdeterjan": 4733,
      "ĠDaÄŁÄ±tÄ±m": 4734,
      "Ġmecbur": 4735,
      "leepy": 4736,
      "ĠTalebi": 4737,
      "uperonline": 4738,
      "31": 4739,
      "?,\"": 4740,
      "De": 4741,
      "Ek": 4742,
      "GS": 4743,
      "HP": 4744,
      "LO": 4745,
      "Son": 4746,
      "THY": 4747,
      "basÄ±": 4748,
      "cÄ±k": 4749,
      "cÄ±sÄ±": 4750,
      "dÃ¼zÃ¼": 4751,
      "ee": 4752,
      "eÄŁi": 4753,
      "fÃ¼m": 4754,
      "ga": 4755,
      "iÄŁinden": 4756,
      "kÃ¼r": 4757,
      "lon": 4758,
      "mini": 4759,
      "mos": 4760,
      "niyet": 4761,
      "our": 4762,
      "omet": 4763,
      "su": 4764,
      "seri": 4765,
      "tam": 4766,
      "uh": 4767,
      "uar": 4768,
      "van": 4769,
      "voldu": 4770,
      "Ġ,": 4771,
      "Ġul": 4772,
      "Ġerk": 4773,
      "Ä±ÄŁÄ±": 4774,
      "Ġbar": 4775,
      "ĠbÃ¼y": 4776,
      "Ġbant": 4777,
      "Ġbardak": 4778,
      "deap": 4779,
      "ÄŁe": 4780,
      "mail": 4781,
      "mamaktadÄ±r": 4782,
      "Ġsin": 4783,
      "ĠsarÄ±": 4784,
      "ĠsÃ¶k": 4785,
      "Ġklima": 4786,
      "Ġkask": 4787,
      "ill": 4788,
      "ilme": 4789,
      "ildim": 4790,
      "ilmez": 4791,
      "endik": 4792,
      "Ġyara": 4793,
      "dici": 4794,
      "diÄŁiniz": 4795,
      "med": 4796,
      "Ã¶rÃ¼n": 4797,
      "dah": 4798,
      "Ġters": 4799,
      "attÄ±": 4800,
      "Ġidi": 4801,
      "Ġvak": 4802,
      "Ġvida": 4803,
      "Ġolmaya": 4804,
      "asÄ±n": 4805,
      "ĠSos": 4806,
      "ĠSigort": 4807,
      "ĠSÄ±nav": 4808,
      "ĠSinem": 4809,
      "ĠSultan": 4810,
      "ĠalÄ±yorlar": 4811,
      "ĠBun": 4812,
      "ĠBez": 4813,
      "ĠÃ§ift": 4814,
      "amÄ±ÅŁ": 4815,
      "ĠTaÅŁ": 4816,
      "ĠTerm": 4817,
      "Ġdok": 4818,
      "Ġah": 4819,
      "ĠKurum": 4820,
      "ĠAp": 4821,
      "Ä±llÄ±": 4822,
      "Ġmut": 4823,
      "Ġmutfak": 4824,
      "ity": 4825,
      "iss": 4826,
      "isiyim": 4827,
      "Ġfren": 4828,
      "Ġpip": 4829,
      "Ġpersoneli": 4830,
      "arab": 4831,
      "ĠÅŁok": 4832,
      "ĠÅŁaÅŁ": 4833,
      "ĠÅŁikayeti": 4834,
      "azÄ±": 4835,
      "Ġyapmadan": 4836,
      "ĠyapmÄ±yorlar": 4837,
      "ipa": 4838,
      "ĠMon": 4839,
      "ĠMode": 4840,
      "ĠMaltepe": 4841,
      "Ġez": 4842,
      "ĠHay": 4843,
      "ĠHepsiburada": 4844,
      "ĠHizmeti": 4845,
      "Ġdayan": 4846,
      "emens": 4847,
      "embe": 4848,
      "Ġbulama": 4849,
      "Ġvermediler": 4850,
      "Ġgeldiler": 4851,
      "Ġgelmesini": 4852,
      "abancÄ±": 4853,
      "ĠDÄ±ÅŁ": 4854,
      "ĠDÃ¼ÅŁ": 4855,
      "ĠDÃ¼ÄŁÃ¼n": 4856,
      "ĠEm": 4857,
      "ĠEÅŁ": 4858,
      "ĠEde": 4859,
      "ĠÃ¼t": 4860,
      "ĠPlay": 4861,
      "ĠPremi": 4862,
      "ĠPNR": 4863,
      "Ġkarg": 4864,
      "Ġetik": 4865,
      "ĠetmiÅŁ": 4866,
      "Ġetmeme": 4867,
      "Ġdiy": 4868,
      "Ġufak": 4869,
      "Ġaraca": 4870,
      "ĠarÄ±yorlar": 4871,
      "ahÃ§e": 4872,
      "ĠÃ¼rÃ¼nden": 4873,
      "ĠÃľÃ§": 4874,
      "Ġanlama": 4875,
      "ĠÃ¶r": 4876,
      "Ġof": 4877,
      "Ġoper": 4878,
      "Ġhali": 4879,
      "ĠFord": 4880,
      "ĠOda": 4881,
      "larÄ±ma": 4882,
      "ĠgeÃ§tik": 4883,
      "Ġsonradan": 4884,
      "ĠvardÄ±r": 4885,
      "eci": 4886,
      "ĠCanlÄ±": 4887,
      "ĠKartÄ±m": 4888,
      "ĠaÃ§mÄ±yorlar": 4889,
      "afe": 4890,
      "ĠkadÄ±n": 4891,
      "lÄ±kla": 4892,
      "ach": 4893,
      "likdÃ¼zÃ¼": 4894,
      "Ġcayma": 4895,
      "ĠulaÅŁtÄ±m": 4896,
      "Ġsaatlerce": 4897,
      "ĠÃ§alÄ±ÅŁtÄ±ÄŁÄ±m": 4898,
      "ĠÃ¶dediÄŁimiz": 4899,
      "ĠedileceÄŁi": 4900,
      "ĠedilmiÅŁtir": 4901,
      "ĠmÃ¼ÅŁteriye": 4902,
      "ĠyÄ±llardÄ±r": 4903,
      "ĠsatÄ±cÄ±": 4904,
      "manÄ±zÄ±": 4905,
      "Ġbulan": 4906,
      "Ġbulunuyor": 4907,
      "ĠAnadolu": 4908,
      "lup": 4909,
      "Ġdenk": 4910,
      "Ġevden": 4911,
      "ĠYapÄ±": 4912,
      "ĠgirdiÄŁimde": 4913,
      "ĠLek": 4914,
      "ĠLED": 4915,
      "ĠRaÄŁmen": 4916,
      "dikleri": 4917,
      "Ã¼yoruz": 4918,
      "ĠAyÄ±p": 4919,
      "ĠAydÄ±n": 4920,
      "ĠyarÄ±sÄ±": 4921,
      "ĠÅŁubesi": 4922,
      "ĠÅŁubeniz": 4923,
      "Ġbizde": 4924,
      "ĠÃ¼cretinin": 4925,
      "ilerine": 4926,
      "ĠUÃ§": 4927,
      "Ġkenar": 4928,
      "ĠÅŁikayette": 4929,
      "eceÄŁimi": 4930,
      "ĠyaÅŁÄ±yoruz": 4931,
      "ĠatÄ±yorum": 4932,
      "Ġceza": 4933,
      "rans": 4934,
      "ranit": 4935,
      "Ġdurumun": 4936,
      "ĠkÄ±rmÄ±zÄ±": 4937,
      "Ġ75": 4938,
      "tuÄŁum": 4939,
      "ĠVeriyor": 4940,
      "ĠVerdiÄŁim": 4941,
      "leÅŁme": 4942,
      "Ġedemiyorum": 4943,
      "ĠParayÄ±": 4944,
      "ĠParasÄ±nÄ±": 4945,
      "ĠinsanÄ±": 4946,
      "ĠkiÅŁiye": 4947,
      "Ġbayiye": 4948,
      "ĠmesajÄ±": 4949,
      "ĠZaten": 4950,
      "ĠmeÅŁ": 4951,
      "Ġbiletimi": 4952,
      "ĠSÃ¼resi": 4953,
      "Ġbozul": 4954,
      "Ġasans": 4955,
      "Ġfilmi": 4956,
      "ĠcihazÄ±n": 4957,
      "Ġhaziran": 4958,
      "ĠsipariÅŁimin": 4959,
      "ĠTelefonla": 4960,
      "ĠsayaÃ§": 4961,
      "ĠGÃ¶nderdi": 4962,
      "ĠGÃ¶nderilen": 4963,
      "Ġolurken": 4964,
      "ĠÃ¼rÃ¼nÃ¼nÃ¼": 4965,
      "ĠsÃ¼redir": 4966,
      "Ġiyice": 4967,
      "Ġhassas": 4968,
      "ĠYapÄ±lan": 4969,
      "ĠKonu": 4970,
      "ĠKonuÅŁ": 4971,
      "imdeki": 4972,
      "Ġkorona": 4973,
      "Ġabone": 4974,
      "ĠKapat": 4975,
      "ĠgÃ¶zÃ¼kmÃ¼yor": 4976,
      "ĠettiÄŁi": 4977,
      "ĠkartÄ±mÄ±": 4978,
      "Ġkargomu": 4979,
      "ĠkayÄ±tlÄ±": 4980,
      "Ġbanka": 4981,
      "Ġkokusu": 4982,
      "ĠyatÄ±rdÄ±m": 4983,
      "Ãľlker": 4984,
      "ĠboÅŁuna": 4985,
      "ĠkatÄ±l": 4986,
      "Ãĸn": 4987,
      "Ãĸzel": 4988,
      "ĠÃ§ekilmiÅŁ": 4989,
      "ĠMarkt": 4990,
      "Ġyenil": 4991,
      "ĠTemsil": 4992,
      "ĠArÄ±zalÄ±": 4993,
      "ijyen": 4994,
      "Ġettirmek": 4995,
      "ĠfirmasÄ±nÄ±n": 4996,
      "Ġbezi": 4997,
      "ĠhanÄ±m": 4998,
      "ĠdÃ¼nya": 4999,
      "ĠÃ§are": 5000,
      "ĠÃ§arp": 5001,
      "ĠparamÄ±n": 5002,
      "ĠparamÄ±zÄ±": 5003,
      "Ġherkese": 5004,
      "umuzu": 5005,
      "Ġpatates": 5006,
      "larÄ±mÄ±zÄ±": 5007,
      "Ġkaybet": 5008,
      "Ġmuayen": 5009,
      "Ġmikro": 5010,
      "ĠihtiyaÃ§": 5011,
      "ĠHesap": 5012,
      "Ġ0850": 5013,
      "ĠHasar": 5014,
      "ĠYetkil": 5015,
      "aladÄ±m": 5016,
      "ĠgereÄŁi": 5017,
      "Ġailem": 5018,
      "ĠÃ§aÄŁÄ±rdÄ±k": 5019,
      "VakÄ±fBank": 5020,
      "Ġprogram": 5021,
      "ĠpiÅŁir": 5022,
      "ĠPiÅŁmanlÄ±ÄŁÄ±": 5023,
      "Ġlekeler": 5024,
      "ĠhayatÄ±mda": 5025,
      "orku": 5026,
      "ĠArkadaÅŁ": 5027,
      "ĠÃĸzellikle": 5028,
      "Ġfabrik": 5029,
      "Ġnakit": 5030,
      "ĠoÄŁlum": 5031,
      "ĠMÃ¼dÃ¼r": 5032,
      "ĠYouTube": 5033,
      "Ġambalaj": 5034,
      "ĠbebeÄŁimiz": 5035,
      "Ġsoyul": 5036,
      "Ġmontaj": 5037,
      "Emsan": 5038,
      "ĠiÅŁletme": 5039,
      "ĠGÃ¼ncelleme": 5040,
      "Parex": 5041,
      "Ġpazar": 5042,
      "Ġlens": 5043,
      "ĠWiFi": 5044,
      "kastre": 5045,
      "ĠAbon": 5046,
      "ĠÄ°letiÅŁim": 5047,
      "ĠkullanÄ±cÄ±sÄ±yÄ±m": 5048,
      "ĠBuzdolabÄ±": 5049,
      "ĠbaskÄ±": 5050,
      "ÄŁustos": 5051,
      "ĠKurulum": 5052,
      "ĠvazgeÃ§": 5053,
      "ĠamaÃ§lÄ±": 5054,
      "ĠvatandaÅŁ": 5055,
      "Ġerkek": 5056,
      "deapad": 5057,
      ".,\"": 5058,
      "98": 5059,
      "As": 5060,
      "Bay": 5061,
      "Fit": 5062,
      "Finish": 5063,
      "MÃ¼ÅŁteri": 5064,
      "Metro": 5065,
      "Rowenta": 5066,
      "Tur": 5067,
      "Tam": 5068,
      "dalar": 5069,
      "dÄ±ndan": 5070,
      "durum": 5071,
      "gb": 5072,
      "gin": 5073,
      "hir": 5074,
      "ix": 5075,
      "ian": 5076,
      "kale": 5077,
      "koca": 5078,
      "lok": 5079,
      "lini": 5080,
      "layacak": 5081,
      "mran": 5082,
      "ni": 5083,
      "ndan": 5084,
      "nica": 5085,
      "ness": 5086,
      "otiv": 5087,
      "pt": 5088,
      "rek": 5089,
      "rum": 5090,
      "rab": 5091,
      "rank": 5092,
      "sine": 5093,
      "ts": 5094,
      "tin": 5095,
      "uÃ§": 5096,
      "vÄ±": 5097,
      "ww": 5098,
      "ydi": 5099,
      "yurt": 5100,
      "yson": 5101,
      "zen": 5102,
      "ĠÃ¼n": 5103,
      "Ġca": 5104,
      "Ġumar": 5105,
      "ĠÄ±ÅŁÄ±": 5106,
      "Ġumur": 5107,
      "Ä±Ã§ak": 5108,
      "arat": 5109,
      "Ã¼v": 5110,
      "Ã¼cu": 5111,
      "erra": 5112,
      "ane": 5113,
      "anÃ§": 5114,
      "anlÄ±k": 5115,
      "anÄ±za": 5116,
      "inans": 5117,
      "ĠsayÄ±s": 5118,
      "Ġsigor": 5119,
      "Ġsinir": 5120,
      "ĠsÄ±nÄ±f": 5121,
      "Ġkla": 5122,
      "Ġkey": 5123,
      "ĠkÃ¼s": 5124,
      "Ġkumanda": 5125,
      "ila": 5126,
      "endi": 5127,
      "enerb": 5128,
      "Ġyum": 5129,
      "ĠyÃ¼r": 5130,
      "Ġyiye": 5131,
      "meleri": 5132,
      "olar": 5133,
      "olarÄ±": 5134,
      "ele": 5135,
      "etten": 5136,
      "imden": 5137,
      "ĠtÄ±r": 5138,
      "Ġtitr": 5139,
      "ath": 5140,
      "atÃ¶r": 5141,
      "atomi": 5142,
      "Ġip": 5143,
      "Ġvir": 5144,
      "Ġvur": 5145,
      "Ġvit": 5146,
      "Ġhad": 5147,
      "uman": 5148,
      "ond": 5149,
      "Ä±mla": 5150,
      "Ġdeki": 5151,
      "asa": 5152,
      "ĠSÄ±z": 5153,
      "ĠSeÃ§": 5154,
      "ĠSinema": 5155,
      "ĠSize": 5156,
      "Ġalmadan": 5157,
      "ĠBebek": 5158,
      "ĠBoyner": 5159,
      "amÄ±z": 5160,
      "ĠdÃ¼k": 5161,
      "ĠdÃ¼dÃ¼klÃ¼": 5162,
      "ĠdÃ¶rt": 5163,
      "ĠKam": 5164,
      "ĠKayÄ±t": 5165,
      "ĠKorona": 5166,
      "ĠAz": 5167,
      "Ġmin": 5168,
      "isa": 5169,
      "isin": 5170,
      "Ġfot": 5171,
      "Ġpol": 5172,
      "Ġpsik": 5173,
      "ĠÅŁÃ¶yle": 5174,
      "Ä±rÄ±yor": 5175,
      "ĠyapÄ±ÅŁ": 5176,
      "Ġ120": 5177,
      "ĠMes": 5178,
      "ĠMey": 5179,
      "ĠMayÄ±": 5180,
      "ĠiÃ§ecek": 5181,
      "ĠYine": 5182,
      "ĠYurt": 5183,
      "ĠGr": 5184,
      "ĠGar": 5185,
      "ĠÄ°yi": 5186,
      "liÄŁini": 5187,
      "Ġverir": 5188,
      "Ġvererek": 5189,
      "Ġvergi": 5190,
      "Ġveriyorlar": 5191,
      "Ġvermiyorlar": 5192,
      "ĠgelmemiÅŁ": 5193,
      "Ġgelemedi": 5194,
      "ĠgeleceÄŁi": 5195,
      "ĠgeleceÄŁini": 5196,
      "ĠiliÅŁk": 5197,
      "ĠDiÅŁ": 5198,
      "ĠDik": 5199,
      "ĠgÃ¼nlerce": 5200,
      "ĠÃ¼s": 5201,
      "ĠÃ¼lk": 5202,
      "Ġrak": 5203,
      "ĠPol": 5204,
      "ĠPegasus": 5205,
      "ÄŁimin": 5206,
      "Ġbilemiyorum": 5207,
      "Ġetmiyorum": 5208,
      "eyit": 5209,
      "eyse": 5210,
      "Ġmac": 5211,
      "Ġmahall": 5212,
      "Ġaramam": 5213,
      "ĠaradÄ±lar": 5214,
      "Ä±sÄ±nda": 5215,
      "mesinden": 5216,
      "ĠÃ¶ÄŁ": 5217,
      "amadan": 5218,
      "Ġhalle": 5219,
      "menizi": 5220,
      "ĠForm": 5221,
      "ĠbaÅŁÄ±nda": 5222,
      "Ġgiden": 5223,
      "Ġbenz": 5224,
      "ĠÃ§Ä±kmÄ±yor": 5225,
      "ĠNeyse": 5226,
      "ech": 5227,
      "ĠCar": 5228,
      "ĠparfÃ¼m": 5229,
      "acÄ±lÄ±k": 5230,
      "ĠiÅŁin": 5231,
      "Ġiadem": 5232,
      "ĠgÃ¶rsel": 5233,
      "Ġcan": 5234,
      "Ġcuma": 5235,
      "ĠcanlÄ±": 5236,
      "Ġyazmama": 5237,
      "lenen": 5238,
      "ĠmarkasÄ±nÄ±": 5239,
      "ĠulaÅŁmaya": 5240,
      "ĠulaÅŁamÄ±yoruz": 5241,
      "Ġsaate": 5242,
      "ĠgÃ¶nderim": 5243,
      "umartesi": 5244,
      "ĠÃ¶demesi": 5245,
      "ĠyapÄ±lÄ±r": 5246,
      "Ġserviste": 5247,
      "Ġservisten": 5248,
      "adaki": 5249,
      "Ġtelefonun": 5250,
      "Ġtelefonla": 5251,
      "Ġtelefonlara": 5252,
      "ĠdÃ¶ner": 5253,
      "Ġkonut": 5254,
      "Ġolmam": 5255,
      "Ġolmama": 5256,
      "ĠolmamasÄ±": 5257,
      "Ġteker": 5258,
      "Ġnumaram": 5259,
      "ĠnumarayÄ±": 5260,
      "omotiv": 5261,
      "ĠyÄ±lÄ±": 5262,
      "ĠArt": 5263,
      "ĠArÄ±yorum": 5264,
      "Ġyerlere": 5265,
      "durma": 5266,
      "ĠAldÄ±": 5267,
      "ĠAlÄ±yor": 5268,
      "ĠzamanÄ±nda": 5269,
      "ĠzamandÄ±r": 5270,
      "ludaÄŁ": 5271,
      "Ġdenilen": 5272,
      "ĠonarÄ±m": 5273,
      "Ġgirdi": 5274,
      "opi": 5275,
      "ĠRed": 5276,
      "ĠReklam": 5277,
      "yonel": 5278,
      "ĠhattÄ±": 5279,
      "Ġoraya": 5280,
      "Ġorganizasyon": 5281,
      "Ġverilmesi": 5282,
      "Ġverilecek": 5283,
      "ersin": 5284,
      "Ġsiteden": 5285,
      "ĠakÃ¼": 5286,
      "Ġkendiniz": 5287,
      "tÄ±ÄŁÄ±mÄ±z": 5288,
      "ĠSipariÅŁimi": 5289,
      "Ġbakan": 5290,
      "eceÄŁimiz": 5291,
      "ĠyaÅŁan": 5292,
      "ĠyaÅŁamadÄ±m": 5293,
      "ĠateÅŁ": 5294,
      "ĠtarafÄ±mÄ±za": 5295,
      "ĠkÃ¶p": 5296,
      "Ġnedenle": 5297,
      "Ġtalebi": 5298,
      "ĠdÃ¼ÅŁmÃ¼ÅŁ": 5299,
      "erkes": 5300,
      "elerin": 5301,
      "ĠfarkÄ±": 5302,
      "ĠÃ§ekip": 5303,
      "ĠkÄ±sÄ±m": 5304,
      "ĠGÃ¼nlÃ¼k": 5305,
      "Ġtekrardan": 5306,
      "ĠÄ°ndirim": 5307,
      "ĠParasÄ±": 5308,
      "Ġkaba": 5309,
      "Ġbekledik": 5310,
      "Ã¼ldÃ¼": 5311,
      "ĠbaÅŁvurum": 5312,
      "tÃ¼rk": 5313,
      "Ä±lacak": 5314,
      "Ġizl": 5315,
      "ĠiÅŁlemleri": 5316,
      "ĠÃ¶demeyi": 5317,
      "Ġask": 5318,
      "ĠsalgÄ±n": 5319,
      "ĠcihazÄ±m": 5320,
      "ĠÃ¼rÃ¼nlerden": 5321,
      "ĠsipariÅŁimde": 5322,
      "ĠTeslimatÄ±": 5323,
      "ĠAtak": 5324,
      "resti": 5325,
      "Ġmemnundum": 5326,
      "Ġmerkezinden": 5327,
      "ĠistediÄŁimiz": 5328,
      "ĠdÃ¼ÅŁÃ¼nmÃ¼yor": 5329,
      "ĠdÃ¼ÅŁÃ¼ndÃ¼ÄŁÃ¼m": 5330,
      "ĠhakkÄ±nÄ±z": 5331,
      "ĠaÃ§Ä±lÄ±yor": 5332,
      "Ġmakinem": 5333,
      "ĠkapatÄ±p": 5334,
      "Ġhepsini": 5335,
      "ĠyÃ¶netimi": 5336,
      "ĠIdeapad": 5337,
      "ĠAradan": 5338,
      "Antalya": 5339,
      "Ġtabii": 5340,
      "Ġsevk": 5341,
      "ĠKonuyla": 5342,
      "ĠHizmetlerine": 5343,
      "ĠAktar": 5344,
      "Ġhavale": 5345,
      "ĠdÄ±ÅŁÄ±": 5346,
      "Ġsalona": 5347,
      "Ġokuy": 5348,
      "ĠKapan": 5349,
      "ĠKÄ±rÄ±ldÄ±": 5350,
      "uyucu": 5351,
      "Ġkutuyu": 5352,
      "ĠaÃ§Ä±klama": 5353,
      "Ġmasraf": 5354,
      "ĠyasaÄŁÄ±": 5355,
      "ĠgittiÄŁimiz": 5356,
      "ĠgittiÄŁimizde": 5357,
      "ĠUlaÅŁmadÄ±": 5358,
      "ĠFirmaya": 5359,
      "mamÄ±ÅŁtÄ±r": 5360,
      "ĠyÄ±kan": 5361,
      "ĠKendilerine": 5362,
      "ĠsÄ±rasÄ±nda": 5363,
      "ĠyoÄŁurt": 5364,
      "Ġtoplamda": 5365,
      "Ġihtim": 5366,
      "lÄ±ÄŁÄ±n": 5367,
      "Ã¼ketic": 5368,
      "ĠsonuÃ§ta": 5369,
      "ĠAÃ§Ä±k": 5370,
      "Ġizlemek": 5371,
      "ĠkampanyasÄ±": 5372,
      "ĠtatlÄ±": 5373,
      "tiyaÃ§": 5374,
      "ĠGeÃ§en": 5375,
      "lÃ¼ÄŁÃ¼": 5376,
      "ĠEsk": 5377,
      "ĠEsen": 5378,
      "ĠdeÄŁiÅŁiklik": 5379,
      "ĠDeÄŁiÅŁimi": 5380,
      "Ġtavsiye": 5381,
      "Ġrengi": 5382,
      "ĠkartÄ±ma": 5383,
      "ĠUygulama": 5384,
      "ĠkandÄ±rÄ±yorlar": 5385,
      "ĠÅŁifremi": 5386,
      "Ġyetkilileri": 5387,
      "Ġkamera": 5388,
      "ĠTakÄ±m": 5389,
      "Ġkombi": 5390,
      "ĠolaydÄ±m": 5391,
      "ĠBekle": 5392,
      "ĠGÃ¼venlik": 5393,
      "ĠAltÄ±n": 5394,
      "ĠTÃ¼rkÃ§e": 5395,
      "ĠbÃ¶lÃ¼mÃ¼ne": 5396,
      "Ġdikkate": 5397,
      "Ġdosya": 5398,
      "ĠPersonelinin": 5399,
      "Ġdahilinde": 5400,
      "Ġortaya": 5401,
      "Ġuygulamadan": 5402,
      "ĠOtobÃ¼s": 5403,
      "ĠOtomotiv": 5404,
      "ĠSitede": 5405,
      "ĠÃ¶zen": 5406,
      "ĠgeÃ§erli": 5407,
      "Ġhaberim": 5408,
      "ĠTarafÄ±ma": 5409,
      "Ġmisafir": 5410,
      "ĠGÃ¶rev": 5411,
      "Medical": 5412,
      "ĠpiÅŁik": 5413,
      "book": 5414,
      "ĠKabul": 5415,
      "ĠKampanya": 5416,
      "Ġnisanda": 5417,
      "ĠÄ±sÄ±nÄ±yor": 5418,
      "orkmaz": 5419,
      "ĠArkasÄ±nda": 5420,
      "ĠTarihinde": 5421,
      "ĠkÄ±lÄ±f": 5422,
      "ĠKoku": 5423,
      "Ġsapan": 5424,
      "ĠalamadÄ±k": 5425,
      "Ġbirbirine": 5426,
      "Ġneyse": 5427,
      "ĠMakine": 5428,
      "ĠYazÄ±klar": 5429,
      "Sunexpress": 5430,
      "ĠFarklÄ±": 5431,
      "ĠinanÄ±lmaz": 5432,
      "ĠRezervasyon": 5433,
      "ĠSorumsuzluÄŁu": 5434,
      "Ġteklif": 5435,
      "Ġadresime": 5436,
      "Station": 5437,
      "ĠÄ°htiyaÃ§": 5438,
      "ĠsorduÄŁumda": 5439,
      "Ġbedava": 5440,
      "Ġtrafik": 5441,
      "Ġameliyat": 5442,
      "ĠimkansÄ±z": 5443,
      "ĠkÄ±yafet": 5444,
      "Halkbank": 5445,
      "fesyonel": 5446,
      "ĠAraÅŁtÄ±rma": 5447,
      "amayacaklarÄ±nÄ±": 5448,
      "DeFacto": 5449,
      "mosyon": 5450,
      "dahale": 5451,
      "ĠSigortasÄ±": 5452,
      "ĠPremium": 5453,
      "ĠUÃ§uÅŁ": 5454,
      "ĠasansÃ¶r": 5455,
      "mraniye": 5456,
      "ranke": 5457,
      "ĠumarÄ±m": 5458,
      "errah": 5459,
      "enerbahÃ§e": 5460,
      "!\"": 5461,
      "37": 5462,
      "49": 5463,
      "400": 5464,
      "72": 5465,
      "77": 5466,
      "DS": 5467,
      "Esk": 5468,
      "Fakir": 5469,
      "GÃ¼n": 5470,
      "HiÃ§": 5471,
      "Jok": 5472,
      "Ko": 5473,
      "Kas": 5474,
      "Kahve": 5475,
      "ME": 5476,
      "Mi": 5477,
      "MayÄ±s": 5478,
      "SB": 5479,
      "TV": 5480,
      "Vi": 5481,
      "Yat": 5482,
      "ame": 5483,
      "celik": 5484,
      "ediler": 5485,
      "emesi": 5486,
      "fyon": 5487,
      "gim": 5488,
      "gazi": 5489,
      "ht": 5490,
      "ket": 5491,
      "kam": 5492,
      "lek": 5493,
      "loz": 5494,
      "lÃ¢": 5495,
      "ny": 5496,
      "nda": 5497,
      "nesi": 5498,
      "osun": 5499,
      "ody": 5500,
      "ple": 5501,
      "rÃ¼": 5502,
      "ser": 5503,
      "tiniz": 5504,
      "udum": 5505,
      "vel": 5506,
      "yer": 5507,
      "yiz": 5508,
      "yken": 5509,
      "yans": 5510,
      "zz": 5511,
      "Ġ)": 5512,
      "Ġur": 5513,
      "Ä±larak": 5514,
      "arÄ±k": 5515,
      "arya": 5516,
      "Ã¼tÃ¼": 5517,
      "ÅŁe": 5518,
      "anakk": 5519,
      "anÄ±zÄ±": 5520,
      "ÄŁa": 5521,
      "ÄŁra": 5522,
      "oroz": 5523,
      "Ġsh": 5524,
      "Ġsis": 5525,
      "Ġsilik": 5526,
      "Ġku": 5527,
      "Ġkrem": 5528,
      "Ġkasko": 5529,
      "Ġkusur": 5530,
      "illi": 5531,
      "Ġgec": 5532,
      "Ä±nÄ±yorum": 5533,
      "meyip": 5534,
      "meyin": 5535,
      "dÄ±ra": 5536,
      "dat": 5537,
      "ollarÄ±": 5538,
      "ella": 5539,
      "etmen": 5540,
      "Ġtencer": 5541,
      "Ġteyit": 5542,
      "ayollarÄ±": 5543,
      "Ġibar": 5544,
      "Ġiddi": 5545,
      "Ġhukuk": 5546,
      "Ġhediyesi": 5547,
      "Ġhizmeti": 5548,
      "ekkÃ¼r": 5549,
      "Ã¼ncÃ¼": 5550,
      "uml": 5551,
      "Ġols": 5552,
      "Ġolumsuz": 5553,
      "laÃ§": 5554,
      "iÅŁi": 5555,
      "iÅŁan": 5556,
      "Ġdenet": 5557,
      "urat": 5558,
      "asya": 5559,
      "ĠSer": 5560,
      "ĠSen": 5561,
      "ĠSok": 5562,
      "ĠSÄ±nÄ±f": 5563,
      "ĠalÄ±yoruz": 5564,
      "Ġalacak": 5565,
      "ĠBoÅŁ": 5566,
      "ĠBekl": 5567,
      "ĠBoÄŁaziÃ§i": 5568,
      "Ġbirik": 5569,
      "Ġbireysel": 5570,
      "ĠÃ§ap": 5571,
      "ĠTR": 5572,
      "ĠTÄ±p": 5573,
      "ĠTefal": 5574,
      "Ġdk": 5575,
      "Ġdarb": 5576,
      "Ġabi": 5577,
      "ĠKaÅŁ": 5578,
      "ĠKez": 5579,
      "ĠKaza": 5580,
      "Ä±lmamasÄ±": 5581,
      "ita": 5582,
      "istan": 5583,
      "istik": 5584,
      "Ġpili": 5585,
      "ĠpoÅŁ": 5586,
      "Ġplak": 5587,
      "Ġpizza": 5588,
      "ult": 5589,
      "Ġnere": 5590,
      "Ġyapma": 5591,
      "ĠyapalÄ±m": 5592,
      "ĠyapacaÄŁÄ±z": 5593,
      "ĠyaptÄ±ÄŁÄ±nÄ±z": 5594,
      "ĠMen": 5595,
      "ĠMik": 5596,
      "stiÄŁi": 5597,
      "ĠHerkes": 5598,
      "ĠYaÄŁ": 5599,
      "ĠGi": 5600,
      "lime": 5601,
      "lianz": 5602,
      "Ġverin": 5603,
      "Ġveriyoruz": 5604,
      "Ġverirken": 5605,
      "ĠgelmiÅŁtir": 5606,
      "ĠDiyor": 5607,
      "lant": 5608,
      "uzlu": 5609,
      "ĠgÃ¼nler": 5610,
      "ĠEÅŁim": 5611,
      "ĠPer": 5612,
      "ĠPink": 5613,
      "iyask": 5614,
      "Ġ250": 5615,
      "Ġetmiyorlar": 5616,
      "Ġetmedik": 5617,
      "eyle": 5618,
      "tada": 5619,
      "ĠuÄŁra": 5620,
      "Ġaraba": 5621,
      "Ġarz": 5622,
      "ĠarÄ±yor": 5623,
      "ĠÃ¼rÃ¼nde": 5624,
      "ĠÃ¼rÃ¼nÃ¼mÃ¼": 5625,
      "Ã¼mÃ¼n": 5626,
      "ĠÃľye": 5627,
      "ĠsipariÅŁini": 5628,
      "Ġistey": 5629,
      "ukarÄ±": 5630,
      "ĠVakÄ±f": 5631,
      "ĠFinans": 5632,
      "Ä±nava": 5633,
      "Ġtarihte": 5634,
      "mekten": 5635,
      "ĠyokmuÅŁ": 5636,
      "ĠÃ¶nÃ¼nde": 5637,
      "ĠÃ¶nceki": 5638,
      "ĠbaÅŁar": 5639,
      "ĠbaÅŁta": 5640,
      "ĠOk": 5641,
      "Ġgib": 5642,
      "Ġ36": 5643,
      "Ġ350": 5644,
      "Ġkullanan": 5645,
      "Ġkullanarak": 5646,
      "ĠkullanamadÄ±m": 5647,
      "ayÄ±cÄ±": 5648,
      "alarÄ±nda": 5649,
      "alarÄ±nÄ±n": 5650,
      "ĠgeÃ§miyor": 5651,
      "tand": 5652,
      "Ġbence": 5653,
      "ĠvarmÄ±ÅŁ": 5654,
      "ĠÃ§Ä±kmak": 5655,
      "Ġsorgu": 5656,
      "Ġsoruml": 5657,
      "*****": 5658,
      "ebook": 5659,
      "ĠCon": 5660,
      "ĠCoca": 5661,
      "ĠCadde": 5662,
      "afer": 5663,
      "ĠÃ¶nceden": 5664,
      "ubu": 5665,
      "utube": 5666,
      "Ġ49": 5667,
      "Ġ444": 5668,
      "ĠiÅŁleme": 5669,
      "ĠaldÄ±ÄŁÄ±mda": 5670,
      "ĠgÃ¶remiyorum": 5671,
      "Ġ53": 5672,
      "evler": 5673,
      "ĠBuhar": 5674,
      "Ġcar": 5675,
      "ĠmarkasÄ±na": 5676,
      "kender": 5677,
      "ĠgeldiÄŁimde": 5678,
      "Ġsaatte": 5679,
      "ĠgÃ¶nderin": 5680,
      "ĠgÃ¶nderdi": 5681,
      "ĠgÃ¶nderiyorlar": 5682,
      "ĠgÃ¶ndermiÅŁler": 5683,
      "ĠÃ§alÄ±ÅŁanÄ±": 5684,
      "2015": 5685,
      "ĠÃ¶demem": 5686,
      "oskoca": 5687,
      "Ġtelefonum": 5688,
      "Ġtelefonuma": 5689,
      "cÄ±lar": 5690,
      "ĠÅŁeyle": 5691,
      "Ġdolap": 5692,
      "Ġdoldu": 5693,
      "Ġedilip": 5694,
      "Ġedilemedi": 5695,
      "Ġkonak": 5696,
      "ĠolmamasÄ±na": 5697,
      "Ġekrana": 5698,
      "ĠsatÄ±lan": 5699,
      "Ġyerim": 5700,
      "Ġyerinde": 5701,
      "Ġyerli": 5702,
      "Ġtakibi": 5703,
      "ĠAlÄ±rken": 5704,
      "Ġevet": 5705,
      "ĠLG": 5706,
      "Ä±nÄ±zÄ±": 5707,
      "ĠBireysel": 5708,
      "ĠdeÄŁildir": 5709,
      "opark": 5710,
      "ĠRapor": 5711,
      "ĠRandevu": 5712,
      "ĠfaturayÄ±": 5713,
      "Ġyararlan": 5714,
      "ĠÅŁubeden": 5715,
      "ĠÃ¼cretin": 5716,
      "ĠÃ¼cretli": 5717,
      "Ġsiteye": 5718,
      "ilerini": 5719,
      "ĠUz": 5720,
      "ĠakÅŁ": 5721,
      "ĠaklÄ±": 5722,
      "Ġkendiler": 5723,
      "lamama": 5724,
      "ĠbakÄ±n": 5725,
      "Ġkesil": 5726,
      "Ġotopark": 5727,
      "Ġnedense": 5728,
      "Ġkuru": 5729,
      "Ġkurye": 5730,
      "vense": 5731,
      "ĠÃ§Ã¶zÃ¼me": 5732,
      "iliÄŁi": 5733,
      "ĠÃ§ekiyor": 5734,
      "ĠÃ§ektim": 5735,
      "Ġzorunlu": 5736,
      "Ä±mÄ±zÄ±n": 5737,
      "Ä±mÄ±zda": 5738,
      "Ġbiten": 5739,
      "ĠVerdi": 5740,
      "ĠsaÄŁlay": 5741,
      "ĠÄ°nÅŁ": 5742,
      "ĠParÃ§": 5743,
      "Ġkanun": 5744,
      "ĠarÄ±zalandÄ±": 5745,
      "alanmÄ±ÅŁ": 5746,
      "hane": 5747,
      "Ġadr": 5748,
      "Ã¶ren": 5749,
      "Ä±ldÄ±z": 5750,
      "Ġbekleme": 5751,
      "Ġbayram": 5752,
      "esindeki": 5753,
      "ĠServise": 5754,
      "ĠilettiÄŁim": 5755,
      "Ġizi": 5756,
      "ĠHalk": 5757,
      "ĠHalen": 5758,
      "ĠmaÄŁazaya": 5759,
      "cilere": 5760,
      "ĠsÄ±kÄ±ntÄ±lÄ±": 5761,
      "ĠÄ°Ã§inde": 5762,
      "ĠÄ°Ã§inden": 5763,
      "Ġoyal": 5764,
      "ĠarkadaÅŁlar": 5765,
      "ĠaracÄ±mÄ±n": 5766,
      "Arnica": 5767,
      "ĠsayÄ±lÄ±": 5768,
      "ĠTeknosa": 5769,
      "ĠgÃ¶tÃ¼rdÃ¼k": 5770,
      "ĠgÃ¶tÃ¼rdÃ¼ÄŁÃ¼m": 5771,
      "ĠhakkÄ±": 5772,
      "Ġpaketin": 5773,
      "ĠsÃ¶yleniyor": 5774,
      "ĠaÅŁk": 5775,
      "ĠaltÄ±na": 5776,
      "Ġkarttan": 5777,
      "Ġazal": 5778,
      "ĠyÃ¶net": 5779,
      "ĠÄ°ÅŁleri": 5780,
      "ĠÃľcretini": 5781,
      "ĠIs": 5782,
      "Ġkesintisi": 5783,
      "Ġhastal": 5784,
      "ĠEngel": 5785,
      "ĠbÄ±raktÄ±m": 5786,
      "ĠEtti": 5787,
      "ĠHerhangi": 5788,
      "ĠtutarÄ±": 5789,
      "abilirim": 5790,
      "ĠuÃ§ak": 5791,
      "Ġ2016": 5792,
      "Ġkord": 5793,
      "ĠyaptÄ±ÄŁÄ±mda": 5794,
      "ĠdÃ¼zelmedi": 5795,
      "Ġhastane": 5796,
      "Ġfilmler": 5797,
      "Ġkargomun": 5798,
      "Ġekranda": 5799,
      "ĠSatÄ±cÄ±": 5800,
      "Ġkutusunu": 5801,
      "Ġederek": 5802,
      "ĠHazÄ±r": 5803,
      "ĠÃĩalÄ±ÅŁma": 5804,
      "ĠÃĩalÄ±ÅŁmÄ±yor": 5805,
      "Ġmasa": 5806,
      "Allianz": 5807,
      "ĠMaÄŁduriyeti": 5808,
      "ĠyÄ±ka": 5809,
      "Ġdoktora": 5810,
      "halle": 5811,
      "ĠErtesi": 5812,
      "Ġkiralama": 5813,
      "lÄ±ÄŁÄ±na": 5814,
      "Ġkodunu": 5815,
      "Ġduyur": 5816,
      "ĠmÃ¼dahale": 5817,
      "Ġdavet": 5818,
      "diÄŁimizde": 5819,
      "ĠkulÃ¼b": 5820,
      "Ġyenilen": 5821,
      "ĠtaÅŁÄ±": 5822,
      "Ġadrese": 5823,
      "ĠÃľyeli": 5824,
      "ĠdÃ¼zeltilmesi": 5825,
      "Ġsahibi": 5826,
      "ĠuÃ§uÅŁum": 5827,
      "ĠyazÄ±klar": 5828,
      "ĠHemen": 5829,
      "Ġtahl": 5830,
      "Ġdedikleri": 5831,
      "ĠÃ§arÅŁ": 5832,
      "Ġherkesin": 5833,
      "ĠDeÄŁiÅŁik": 5834,
      "ĠJolly": 5835,
      "ĠSalonu": 5836,
      "ĠkanallarÄ±": 5837,
      "ogle": 5838,
      "Ġbunlar": 5839,
      "ĠBursa": 5840,
      "Ġtalebim": 5841,
      "Ġtalebimi": 5842,
      "Ġkayboldu": 5843,
      "oft": 5844,
      "rima": 5845,
      "ĠTea": 5846,
      "ĠVarlÄ±k": 5847,
      "fix": 5848,
      "ĠTabi": 5849,
      "ĠDefolu": 5850,
      "ĠanlayÄ±ÅŁ": 5851,
      "ĠanlayamadÄ±m": 5852,
      "ĠAsus": 5853,
      "Ġkomple": 5854,
      "ĠBeklet": 5855,
      "ĠkalktÄ±": 5856,
      "Ġsebeple": 5857,
      "ĠbÃ¶lÃ¼mÃ¼nde": 5858,
      "Ġsilin": 5859,
      "ĠYÃ¶netimi": 5860,
      "ĠÃ¶nemse": 5861,
      "ĠÃ§atlak": 5862,
      "ĠBeach": 5863,
      "Ġmilyon": 5864,
      "ĠDevam": 5865,
      "ĠÄ±sÄ±tÄ±": 5866,
      "ĠÃ¶zÃ¼r": 5867,
      "ĠMedical": 5868,
      "ĠGÃ¶zlÃ¼k": 5869,
      "Ġanneme": 5870,
      "ĠGitti": 5871,
      "ĠKampany": 5872,
      "ĠAlÄ±ndÄ±": 5873,
      "ĠmÃ¼dÃ¼rÃ¼": 5874,
      "Ã¼sten": 5875,
      "Ġserum": 5876,
      "ĠBeylikdÃ¼zÃ¼": 5877,
      "ĠsÄ±cak": 5878,
      "ĠYoutube": 5879,
      "ĠTavrÄ±": 5880,
      "ĠesnasÄ±nda": 5881,
      "ĠyoÄŁunluktan": 5882,
      "vetti": 5883,
      "ĠcivarÄ±nda": 5884,
      "Konya": 5885,
      "Ġstokta": 5886,
      "Ġisterim": 5887,
      "temelen": 5888,
      "ĠYanÄ±lttÄ±": 5889,
      "ĠkampanyasÄ±ndan": 5890,
      "Erikli": 5891,
      "ĠgÃ¶nderi": 5892,
      "ĠdaÄŁÄ±tÄ±m": 5893,
      "Ġapartman": 5894,
      "ĠÃ§abuk": 5895,
      "ĠGarantisi": 5896,
      "ĠGaziantep": 5897,
      "baÅŁÄ±": 5898,
      "ĠKarÅŁÄ±": 5899,
      "ĠYardÄ±mcÄ±": 5900,
      "BaÅŁkent": 5901,
      "hisar": 5902,
      "Ġbiberon": 5903,
      "ĠaÄŁrÄ±sÄ±": 5904,
      "ĠNote": 5905,
      "ĠKargolan": 5906,
      "Ġmeydana": 5907,
      "Merh": 5908,
      "Sorunu": 5909,
      "Ġticaret": 5910,
      "ĠFitness": 5911,
      "ĠFotoÄŁrafÃ§Ä±lÄ±k": 5912,
      "ĠTermal": 5913,
      "ĠKurumsal": 5914,
      "ransfer": 5915,
      "ĠTemsilc": 5916,
      "Asus": 5917,
      "Ġumurs": 5918,
      "ĠMayÄ±sta": 5919,
      "ĠRedmi": 5920,
      "EskiÅŁehir": 5921,
      "Joker": 5922,
      "Vivense": 5923,
      "kamall": 5924,
      "anakkale": 5925,
      ".)": 5926,
      "39": 5927,
      "500": 5928,
      "524": 5929,
      "63": 5930,
      "76": 5931,
      "84": 5932,
      "87": 5933,
      "Bey": 5934,
      "Bundan": 5935,
      "Es": 5936,
      "Eti": 5937,
      "FLO": 5938,
      "Jatomi": 5939,
      "KÄ±z": 5940,
      "Kale": 5941,
      "Mar": 5942,
      "Or": 5943,
      "OKÄ°": 5944,
      "PG": 5945,
      "UPS": 5946,
      "Uzun": 5947,
      "Ver": 5948,
      "Vatan": 5949,
      "Wee": 5950,
      "Yar": 5951,
      "YÄ±l": 5952,
      "ben": 5953,
      "bata": 5954,
      "cz": 5955,
      "car": 5956,
      "canÄ±n": 5957,
      "cks": 5958,
      "fon": 5959,
      "gah": 5960,
      "gisi": 5961,
      "io": 5962,
      "idi": 5963,
      "ky": 5964,
      "kon": 5965,
      "lum": 5966,
      "les": 5967,
      "lÃ¼m": 5968,
      "lÄ±yorum": 5969,
      "lisi": 5970,
      "nard": 5971,
      "pa": 5972,
      "sen": 5973,
      "sinde": 5974,
      "sÃ¶r": 5975,
      "sper": 5976,
      "tak": 5977,
      "taya": 5978,
      "use": 5979,
      "wn": 5980,
      "yÄ±n": 5981,
      "yet": 5982,
      "ydÃ¼": 5983,
      "Ġ/": 5984,
      "ĠQ": 5985,
      "Ġum": 5986,
      "Ġ00": 5987,
      "Ġ**": 5988,
      "arin": 5989,
      "Ã¼se": 5990,
      "erli": 5991,
      "ernard": 5992,
      "ang": 5993,
      "ĠbÃ¼rosu": 5994,
      "Ġberb": 5995,
      "ĠbÃ¶cek": 5996,
      "ÄŁli": 5997,
      "ÄŁunu": 5998,
      "ÄŁÃ¼s": 5999,
      "alim": 6000,
      "alib": 6001,
      "ore": 6002,
      "Ġseri": 6003,
      "Ġstand": 6004,
      "Ġkr": 6005,
      "Ġkaz": 6006,
      "Ġkup": 6007,
      "Ġkaza": 6008,
      "ilton": 6009,
      "Ġger": 6010,
      "Ġgiy": 6011,
      "Ġgez": 6012,
      "ĠgÄ±da": 6013,
      "irse": 6014,
      "Ġyi": 6015,
      "Ġyor": 6016,
      "Ġyana": 6017,
      "Ġyumur": 6018,
      "Ġyamuk": 6019,
      "ĠyalnÄ±z": 6020,
      "ĠyukarÄ±": 6021,
      "div": 6022,
      "Ã¶f": 6023,
      "olfix": 6024,
      "etin": 6025,
      "ette": 6026,
      "Ġtaz": 6027,
      "Ġtemel": 6028,
      "ĠtÃ¼ketic": 6029,
      "ayene": 6030,
      "akayÄ±t": 6031,
      "Ġvize": 6032,
      "Ġhabersiz": 6033,
      "Ġhijyen": 6034,
      "ekÃ§": 6035,
      "umoÅŁ": 6036,
      "umtel": 6037,
      "esir": 6038,
      "ĠolacaÄŁÄ±nÄ±": 6039,
      "Ġolumlu": 6040,
      "ladÄ±m": 6041,
      "ĠSS": 6042,
      "ĠSak": 6043,
      "ĠSÄ±r": 6044,
      "ĠSah": 6045,
      "ĠSoy": 6046,
      "ĠStor": 6047,
      "Ġalet": 6048,
      "ĠalÄ±ÅŁ": 6049,
      "Ġalarak": 6050,
      "ĠalmadÄ±lar": 6051,
      "ĠalamÄ±yoruz": 6052,
      "ĠBat": 6053,
      "ĠBeÅŁ": 6054,
      "ĠBardak": 6055,
      "Ġbirim": 6056,
      "Ġbirinin": 6057,
      "Ġbirisi": 6058,
      "ledik": 6059,
      "Ã¼rÃ¼l": 6060,
      "Ã¼rÃ¼st": 6061,
      "amond": 6062,
      "ĠTl": 6063,
      "ĠTan": 6064,
      "Ġdub": 6065,
      "Ġdile": 6066,
      "lerimiz": 6067,
      "ĠadÄ±m": 6068,
      "ĠaidatÄ±": 6069,
      "ĠKÄ±l": 6070,
      "ĠKord": 6071,
      "ĠKronik": 6072,
      "Ä±lmadÄ±": 6073,
      "iti": 6074,
      "Ġfor": 6075,
      "Ġfes": 6076,
      "Ġfincan": 6077,
      "Ä±ÅŁlÄ±": 6078,
      "Ġplan": 6079,
      "ulmasÄ±": 6080,
      "iyordum": 6081,
      "ĠÅŁeye": 6082,
      "200": 6083,
      "aÄŁÄ±nda": 6084,
      "Ã¶nderi": 6085,
      "azza": 6086,
      "Ä°lk": 6087,
      "Ġniyet": 6088,
      "Ġyaparak": 6089,
      "Ġyapmama": 6090,
      "ĠyapmayÄ±n": 6091,
      "ĠyapÄ±ÅŁtÄ±r": 6092,
      "cede": 6093,
      "yemiÅŁ": 6094,
      "Ġ130": 6095,
      "ĠMav": 6096,
      "ĠMadem": 6097,
      "Ġefen": 6098,
      "Ġedici": 6099,
      "ĠHey": 6100,
      "Ġdam": 6101,
      "ĠYabancÄ±": 6102,
      "ĠGÃ¶nderi": 6103,
      "ĠÄ°tiraz": 6104,
      "ĠayÄ±na": 6105,
      "ĠaydÄ±n": 6106,
      "emde": 6107,
      "tive": 6108,
      "tibata": 6109,
      "ĠbulamadÄ±m": 6110,
      "Ġveriyorum": 6111,
      "Ġvermesi": 6112,
      "Ġvermeye": 6113,
      "Ġgelmeye": 6114,
      "Ġgelmeden": 6115,
      "tÄ±ma": 6116,
      "Ġileri": 6117,
      "abÄ±nÄ±": 6118,
      "ĠDA": 6119,
      "ĠDet": 6120,
      "ĠDuy": 6121,
      "ĠDÃ¼dÃ¼klÃ¼": 6122,
      "uzu": 6123,
      "ĠgÃ¼neÅŁ": 6124,
      "ĠEur": 6125,
      "ĠElime": 6126,
      "Ġreh": 6127,
      "ĠPC": 6128,
      "ĠPr": 6129,
      "ĠPil": 6130,
      "ĠPat": 6131,
      "ĠPla": 6132,
      "ĠPiÅŁ": 6133,
      "ĠPepsi": 6134,
      "ĠPendik": 6135,
      "masÄ±n": 6136,
      "Ġetk": 6137,
      "Ġetmediler": 6138,
      "Ġdisk": 6139,
      "ademi": 6140,
      "Ġmadem": 6141,
      "Ġaramaya": 6142,
      "ĠÃľtÃ¼": 6143,
      "ĠsipariÅŁin": 6144,
      "ĠsipariÅŁiniz": 6145,
      "ĠanÄ±nda": 6146,
      "Ġankastre": 6147,
      "ĠÃ¶m": 6148,
      "Ġneye": 6149,
      "Ġistes": 6150,
      "Ġistiyorlar": 6151,
      "ĠVen": 6152,
      "ĠVirÃ¼s": 6153,
      "ĠFerdi": 6154,
      "ĠFenerbahÃ§e": 6155,
      "ĠFiyask": 6156,
      "mediÄŁini": 6157,
      "Ġyokken": 6158,
      "ĠÃ¶ner": 6159,
      "makla": 6160,
      "Ġ38": 6161,
      "ĠkullanÄ±mdan": 6162,
      "ĠkullanÄ±lan": 6163,
      "ĠÃĩar": 6164,
      "ĠÃĩocu": 6165,
      "ĠgeÃ§tiÄŁim": 6166,
      "ĠgeÃ§meyen": 6167,
      "ĠgeÃ§memiÅŁ": 6168,
      "tanÄ±n": 6169,
      "ĠÃ§Ä±kÄ±p": 6170,
      "ĠÃ§Ä±kacak": 6171,
      "Ġsoran": 6172,
      "Ġsoruyorum": 6173,
      "ĠNescafe": 6174,
      "Ġkalma": 6175,
      "ĠkalmÄ±ÅŁ": 6176,
      "ĠCafe": 6177,
      "ĠaÃ§ma": 6178,
      "Ġparmak": 6179,
      "uyoruz": 6180,
      "uyorsunuz": 6181,
      "ĠkadarÄ±yla": 6182,
      "Ġiademi": 6183,
      "evim": 6184,
      "ĠBulamÄ±yorum": 6185,
      "rop": 6186,
      "ĠÃľrÃ¼nleri": 6187,
      "ĠÃľrÃ¼nlerin": 6188,
      "lendim": 6189,
      "Ġelden": 6190,
      "Ġellerinde": 6191,
      "Ġelektronik": 6192,
      "tÄ±rdÄ±m": 6193,
      "inizden": 6194,
      "dÄ±klarÄ±": 6195,
      "ĠgeldiÄŁinde": 6196,
      "Ġhizmetler": 6197,
      "Ġsaatler": 6198,
      "Ġsaatlerinde": 6199,
      "ĠgÃ¶ndermiÅŁ": 6200,
      "ĠÃ§alÄ±ÅŁÄ±rken": 6201,
      "ĠÃ¶demenin": 6202,
      "osmeti": 6203,
      "ossman": 6204,
      "ĠyandÄ±": 6205,
      "ĠyansÄ±t": 6206,
      "ĠyapÄ±lmadan": 6207,
      "ĠyapÄ±lsÄ±n": 6208,
      "Ġgitmek": 6209,
      "ĠgitmiÅŁ": 6210,
      "ĠÅŀok": 6211,
      "ĠÅŁeyleri": 6212,
      "ĠdolabÄ±": 6213,
      "ikaya": 6214,
      "Ġedilmiyor": 6215,
      "Ġedilmesi": 6216,
      "ĠKargoyu": 6217,
      "Ġkonuyu": 6218,
      "ĠolmamÄ±ÅŁ": 6219,
      "ĠolmamalÄ±": 6220,
      "ĠsÃ¶yleyerek": 6221,
      "Ġekim": 6222,
      "Ġeksp": 6223,
      "ĠnumarasÄ±na": 6224,
      "ĠsatÄ±ÅŁÄ±": 6225,
      "Ġyerken": 6226,
      "artesi": 6227,
      "ĠÃ¼zeri": 6228,
      "ĠAnkamall": 6229,
      "Ġdenil": 6230,
      "Ġonlar": 6231,
      "Ġonlarda": 6232,
      "ĠYapamÄ±yorum": 6233,
      "ĠhiÃ§biri": 6234,
      "Ġgiriyor": 6235,
      "Ġgiriyorum": 6236,
      "Ġgirdik": 6237,
      "ĠLir": 6238,
      "ĠLoj": 6239,
      "Ä±nÄ±zdan": 6240,
      "Ġolanlar": 6241,
      "ĠBirkaÃ§": 6242,
      "ĠgerekÃ§": 6243,
      "Ġfaturalar": 6244,
      "Ġfaturada": 6245,
      "Ġveriliyor": 6246,
      "ĠÅŁubede": 6247,
      "ĠGelmesi": 6248,
      "Ġsiteler": 6249,
      "Ġsorunla": 6250,
      "ĠsorunlarÄ±": 6251,
      "ĠakÄ±t": 6252,
      "ĠbakÄ±yor": 6253,
      "Ġbakiye": 6254,
      "ĠÅŁikayetleri": 6255,
      "ĠÅŁikayetimi": 6256,
      "ĠÅŁikayetÃ§i": 6257,
      "Ġkesiliyor": 6258,
      "Ġatmama": 6259,
      "ĠolduÄŁumu": 6260,
      "Ġyollay": 6261,
      "ĠyolladÄ±lar": 6262,
      "ĠÄ°adesini": 6263,
      "Ġ03": 6264,
      "ĠBileti": 6265,
      "ĠÃĸden": 6266,
      "Ġuydu": 6267,
      "ĠyetiÅŁ": 6268,
      "Ġyetmez": 6269,
      "Ġyetersiz": 6270,
      "Ġzorlan": 6271,
      "ĠGÃ¼nlerdir": 6272,
      "ĠkÃ¶tÃ¼ydÃ¼": 6273,
      "Ġmesa": 6274,
      "ĠalmÄ±ÅŁtÄ±k": 6275,
      "Ġbitir": 6276,
      "Ġbitiyor": 6277,
      "ĠVermedi": 6278,
      "ĠVerilen": 6279,
      "reÄŁli": 6280,
      "ĠkarÅŁÄ±lÄ±k": 6281,
      "obot": 6282,
      "Ġedemez": 6283,
      "ĠyataÄŁÄ±": 6284,
      "Ġinsanlara": 6285,
      "ĠkiÅŁinin": 6286,
      "Ġbayi": 6287,
      "Ġ80": 6288,
      "ĠkaydÄ±m": 6289,
      "Ġ150": 6290,
      "ĠyÃ¼zÃ¼k": 6291,
      "Ġtemas": 6292,
      "ĠalÄ±nan": 6293,
      "Ġizin": 6294,
      "Ġizlerken": 6295,
      "ĠmaÄŁazadan": 6296,
      "ĠfiyatÄ±nÄ±": 6297,
      "ampuan": 6298,
      "alÄ±kesir": 6299,
      "Ġkims": 6300,
      "ĠbozulmuÅŁ": 6301,
      "ĠaslÄ±nda": 6302,
      "Ġfiltr": 6303,
      "ĠbaÅŁvurusu": 6304,
      "ĠbaÅŁvuracaÄŁÄ±m": 6305,
      "ĠbugÃ¼ne": 6306,
      "Ġfazladan": 6307,
      "ĠTelefonda": 6308,
      "ĠAtat": 6309,
      "ĠOldum": 6310,
      "tarbu": 6311,
      "ĠalÄ±ÅŁveriÅŁim": 6312,
      "Ġduruma": 6313,
      "Ġmemnuniyet": 6314,
      "ĠKalmadÄ±m": 6315,
      "Ġmerkezini": 6316,
      "ĠdÃ¼ÅŁÃ¼ndÃ¼m": 6317,
      "ĠyaptÄ±rdÄ±ÄŁÄ±m": 6318,
      "ĠYoksa": 6319,
      "Ġresmi": 6320,
      "ĠgÃ¶tÃ¼rdÃ¼": 6321,
      "ĠaÃ§Ä±lmÄ±ÅŁ": 6322,
      "ĠaÃ§Ä±lmadÄ±": 6323,
      "Ġbelirtildi": 6324,
      "Ġetmekte": 6325,
      "ĠgÃ¶rÃ¼nce": 6326,
      "ĠFaturam": 6327,
      "ĠFaturasÄ±": 6328,
      "ĠWin": 6329,
      "ĠGÃ¶nderildi": 6330,
      "Ġkalite": 6331,
      "ĠazÄ±ndan": 6332,
      "âĢĿ": 6333,
      "ĠIBA": 6334,
      "ĠhastalÄ±k": 6335,
      "ĠhastasÄ±": 6336,
      "ansiyon": 6337,
      "Ġhavuz": 6338,
      "ĠkÄ±rÄ±klÄ±ÄŁÄ±": 6339,
      "Ġsalonu": 6340,
      "Ãĩay": 6341,
      "Ġismi": 6342,
      "Ġindirimi": 6343,
      "iranha": 6344,
      "chafer": 6345,
      "Ġokul": 6346,
      "Ġkoruyucu": 6347,
      "memeli": 6348,
      "ĠHata": 6349,
      "ĠettiÄŁimiz": 6350,
      "Ġilgilenen": 6351,
      "ĠuygulamasÄ±": 6352,
      "Ġhastanede": 6353,
      "ĠbÃ¶lÃ¼mÃ¼": 6354,
      "Ġharca": 6355,
      "ĠgÃ¶steriyor": 6356,
      "ĠgerekiyormuÅŁ": 6357,
      "ĠaÃ§Ä±kla": 6358,
      "Ġoturan": 6359,
      "larÄ±mla": 6360,
      "Benim": 6361,
      "ĠFirmanÄ±n": 6362,
      "Ġtemsilcileri": 6363,
      "Ä±lmÄ±ÅŁtÄ±r": 6364,
      "ĠErtel": 6365,
      "ĠhaksÄ±z": 6366,
      "ĠHakem": 6367,
      "amazsÄ±nÄ±z": 6368,
      "ĠÃ§alÄ±ÅŁanlarÄ±": 6369,
      "ĠonaylandÄ±": 6370,
      "ĠkatÄ±": 6371,
      "ĠkonuÅŁtuÄŁum": 6372,
      "Ä±tma": 6373,
      "ĠÃ§ekilen": 6374,
      "Ġdava": 6375,
      "dÄ±ÄŁÄ±mÄ±zda": 6376,
      "ÅŁamba": 6377,
      "Ġkulak": 6378,
      "ĠkÄ±zÄ±m": 6379,
      "ĠkÄ±zÄ±mÄ±n": 6380,
      "Ġyenisi": 6381,
      "ĠkapandÄ±": 6382,
      "ĠSorunlu": 6383,
      "ĠKullanÄ±cÄ±": 6384,
      "ĠAÃ§Ä±lmÄ±yor": 6385,
      "Ġmarkete": 6386,
      "ĠuÄŁraÅŁÄ±yorum": 6387,
      "Ġikisi": 6388,
      "ĠalmayacaÄŁÄ±m": 6389,
      "ĠtamamÄ±nÄ±": 6390,
      "Ġdaire": 6391,
      "ĠÅŁarja": 6392,
      "ĠyaptÄ±klarÄ±": 6393,
      "ĠyaptÄ±ktan": 6394,
      "ĠEvde": 6395,
      "Ġettirdim": 6396,
      "ĠOnline": 6397,
      "ĠkapsamÄ±na": 6398,
      "Ġabonelik": 6399,
      "ĠBakÄ±m": 6400,
      "ĠfotoÄŁraflar": 6401,
      "ĠbittiÄŁi": 6402,
      "cano": 6403,
      "ĠparamÄ±z": 6404,
      "Atasay": 6405,
      "ĠtavÄ±r": 6406,
      "ĠSports": 6407,
      "ĠpatladÄ±": 6408,
      "Ġindirimli": 6409,
      "ĠbunlarÄ±": 6410,
      "ĠbunlarÄ±n": 6411,
      "Ġnormalde": 6412,
      "Ġyetkilisi": 6413,
      "Ġkamyon": 6414,
      "ĠdÃ¶neminde": 6415,
      "ĠKandÄ±r": 6416,
      "ĠResort": 6417,
      "Ä±cÄ±r": 6418,
      "ĠTabak": 6419,
      "ĠAsla": 6420,
      "ĠseÃ§ene": 6421,
      "ĠBeko": 6422,
      "Ġderhal": 6423,
      "ĠAvr": 6424,
      "ĠanlamÄ±ÅŁ": 6425,
      "ĠÃ¶nemli": 6426,
      "ĠortasÄ±nda": 6427,
      "ĠBorc": 6428,
      "ĠBorÃ§": 6429,
      "ĠgereÄŁini": 6430,
      "ĠBein": 6431,
      "Ġmillet": 6432,
      "ĠkapaklarÄ±": 6433,
      "ĠHavayollarÄ±": 6434,
      "ĠYÄ±llÄ±k": 6435,
      "Ġzamana": 6436,
      "ĠGerekli": 6437,
      "Ġraporu": 6438,
      "ĠaboneliÄŁi": 6439,
      "Kargo": 6440,
      "Ġgecikme": 6441,
      "ĠhattÄ±na": 6442,
      "Ġmuhtemelen": 6443,
      "ĠdÃ¼zenli": 6444,
      "Ġmahvoldu": 6445,
      "ĠgÃ¶nderilecek": 6446,
      "ĠÃ§ikolata": 6447,
      "ĠAcilen": 6448,
      "ĠDeFacto": 6449,
      "Ġedeceklerini": 6450,
      "ĠMaÄŁazasÄ±": 6451,
      "ĠgÃ¼Ã§": 6452,
      "ĠgÃ¼ya": 6453,
      "ĠKokusu": 6454,
      "Ä°ÅŁkur": 6455,
      "ĠMarmara": 6456,
      "ĠsÄ±vÄ±": 6457,
      "ĠaramÄ±ÅŁ": 6458,
      "lamÄ±yoruz": 6459,
      "ĠRenk": 6460,
      "ĠRengi": 6461,
      "Ġbelgesi": 6462,
      "ĠBilgilendir": 6463,
      "ĠKesinti": 6464,
      "Ã¢lÃ¢": 6465,
      "ĠKulaklÄ±k": 6466,
      "ĠÃ¶dÃ¼yorum": 6467,
      "ĠAÅŁÄ±rÄ±": 6468,
      "ĠpoliÃ§e": 6469,
      "Ġirtibata": 6470,
      "allahi": 6471,
      "ĠolmasÄ±n": 6472,
      "ĠaracÄ±lÄ±ÄŁÄ±yla": 6473,
      "ĠBahÃ§": 6474,
      "ĠKÃ¼Ã§Ã¼k": 6475,
      "Ġmerak": 6476,
      "ĠDondurma": 6477,
      "ĠkaÄŁÄ±t": 6478,
      "Ġhelal": 6479,
      "Ġavuk": 6480,
      "ĠKutu": 6481,
      "Ġpanel": 6482,
      "ĠÃĩÃ¶zÃ¼m": 6483,
      "ĠkendiliÄŁinden": 6484,
      "ĠBelirt": 6485,
      "andora": 6486,
      "ĠSoÄŁuk": 6487,
      "ĠÃ§Ã¶kme": 6488,
      "ĠGerÃ§ekten": 6489,
      "ĠExpress": 6490,
      "Ġsandalye": 6491,
      "ĠOyuncak": 6492,
      "Ġgarip": 6493,
      "Ġiyiydi": 6494,
      "ĠTalep": 6495,
      "ĠYalanÄ±": 6496,
      "ĠGoogle": 6497,
      "Ġahlak": 6498,
      "ĠApart": 6499,
      "Ġpipet": 6500,
      "ĠAbonelik": 6501,
      "Ġcadde": 6502,
      "anÃ§o": 6503,
      "ĠvirÃ¼sten": 6504,
      "ĠKamera": 6505,
      "Ġpsikoloj": 6506,
      "ĠMeydan": 6507,
      "ĠdÃ¼ÅŁÃ¼nmÃ¼yorum": 6508,
      "HiÃ§bir": 6509,
      "Ġsisteme": 6510,
      "ĠpoÅŁet": 6511,
      "ĠCaddesi": 6512,
      "ĠHazÄ±rlanÄ±yor": 6513,
      "ernardo": 6514,
      "aliba": 6515,
      "ĠKordon": 6516,
      "ĠFiyaskosu": 6517,
      "ossmann": 6518,
      "ĠLojistik": 6519,
      "tarbucks": 6520,
      "ĠIBAN": 6521,
      "300": 6522,
      "41": 6523,
      "71": 6524,
      "81": 6525,
      "88": 6526,
      "94": 6527,
      "Ac": 6528,
      "Biz": 6529,
      "BoÄŁaziÃ§i": 6530,
      "CW": 6531,
      "Cor": 6532,
      "Cinema": 6533,
      "CFit": 6534,
      "Dr": 6535,
      "Def": 6536,
      "Dev": 6537,
      "Demir": 6538,
      "EB": 6539,
      "Fir": 6540,
      "Franke": 6541,
      "Gi": 6542,
      "Gr": 6543,
      "Hak": 6544,
      "Hayat": 6545,
      "Korkmaz": 6546,
      "Nest": 6547,
      "Ok": 6548,
      "Pro": 6549,
      "Pepsi": 6550,
      "Pron": 6551,
      "Rossmann": 6552,
      "Sal": 6553,
      "Ses": 6554,
      "Superonline": 6555,
      "TM": 6556,
      "Vodafone": 6557,
      "adi": 6558,
      "aca": 6559,
      "adÄ±k": 6560,
      "baz": 6561,
      "bise": 6562,
      "cunda": 6563,
      "cÄ±mÄ±z": 6564,
      "do": 6565,
      "dow": 6566,
      "ea": 6567,
      "gat": 6568,
      "gaz": 6569,
      "gut": 6570,
      "hone": 6571,
      "iazza": 6572,
      "kal": 6573,
      "lut": 6574,
      "lob": 6575,
      "mÄ±": 6576,
      "marÄ±m": 6577,
      "nado": 6578,
      "ota": 6579,
      "oot": 6580,
      "pol": 6581,
      "paz": 6582,
      "rim": 6583,
      "ref": 6584,
      "soy": 6585,
      "seler": 6586,
      "saki": 6587,
      "tey": 6588,
      "uki": 6589,
      "vi": 6590,
      "vasyon": 6591,
      "via": 6592,
      "vizyon": 6593,
      "yanÄ±n": 6594,
      "zle": 6595,
      "Ġx": 6596,
      "ĠÄ±": 6597,
      "ĠâĤº": 6598,
      "ĠXiaomi": 6599,
      "arar": 6600,
      "arsÄ±z": 6601,
      "Ã¼lÃ¼": 6602,
      "Ã¼lÃ¼yor": 6603,
      "ÅŁar": 6604,
      "ÅŁiÅŁ": 6605,
      "andan": 6606,
      "Ġbal": 6607,
      "ĠbasÄ±l": 6608,
      "Ġbeden": 6609,
      "Ġblok": 6610,
      "inc": 6611,
      "inye": 6612,
      "ÄŁeri": 6613,
      "orsel": 6614,
      "ĠsÄ±n": 6615,
      "Ġsep": 6616,
      "Ġsez": 6617,
      "Ġkg": 6618,
      "Ġkek": 6619,
      "ĠkÄ±nÄ±yorum": 6620,
      "Ã§en": 6621,
      "ilt": 6622,
      "ilmemesi": 6623,
      "Ġgen": 6624,
      "Ġgene": 6625,
      "Ġgri": 6626,
      "ĠgÃ¼cÃ¼": 6627,
      "Ġgranit": 6628,
      "ĠgÃ¼rÃ¼l": 6629,
      "enen": 6630,
      "enek": 6631,
      "irdaÄŁ": 6632,
      "Ġyedi": 6633,
      "ĠyeÅŁil": 6634,
      "dig": 6635,
      "Ä±nar": 6636,
      "memeye": 6637,
      "Ã¶v": 6638,
      "Ã¶re": 6639,
      "dak": 6640,
      "elli": 6641,
      "Ġton": 6642,
      "Ġtip": 6643,
      "ĠtÃ¼p": 6644,
      "aydÄ±m": 6645,
      "ĠiÄŁ": 6646,
      "akÃ¼l": 6647,
      "Ġvade": 6648,
      "Ġvarken": 6649,
      "ĠvÃ¼cu": 6650,
      "Ġhik": 6651,
      "ĠhÃ¼s": 6652,
      "Ġhediy": 6653,
      "ĠhÃ¢lÃ¢": 6654,
      "uncu": 6655,
      "undig": 6656,
      "Ġolunca": 6657,
      "Ġolmayacak": 6658,
      "laj": 6659,
      "ladÄ±ÄŁÄ±m": 6660,
      "ladÄ±ÄŁÄ±mda": 6661,
      "apara": 6662,
      "izz": 6663,
      "iÅŁe": 6664,
      "Ġdem": 6665,
      "ĠdediÄŁim": 6666,
      "urfa": 6667,
      "ason": 6668,
      "asia": 6669,
      "ĠSin": 6670,
      "ĠSol": 6671,
      "ĠSine": 6672,
      "ĠSesi": 6673,
      "ĠSleepy": 6674,
      "ĠalÄ±m": 6675,
      "Ġalmama": 6676,
      "ĠalacaÄŁÄ±m": 6677,
      "ĠalayÄ±m": 6678,
      "Ġaldat": 6679,
      "ĠBal": 6680,
      "ĠBas": 6681,
      "ĠBoy": 6682,
      "ĠBuna": 6683,
      "ĠBÃ¶l": 6684,
      "ĠBebe": 6685,
      "ĠBosch": 6686,
      "ĠBanyo": 6687,
      "ĠÃ§Ä±": 6688,
      "ĠÃ§iÅŁ": 6689,
      "ĠÃ§ey": 6690,
      "ĠÃ§elik": 6691,
      "Ã¼rmÃ¼yor": 6692,
      "amda": 6693,
      "amÄ±yorsunuz": 6694,
      "ĠTeh": 6695,
      "lerdi": 6696,
      "Ġaile": 6697,
      "ĠKu": 6698,
      "ĠKat": 6699,
      "ĠKara": 6700,
      "ĠKey": 6701,
      "ĠKah": 6702,
      "ĠKoz": 6703,
      "ĠKop": 6704,
      "ĠKod": 6705,
      "ĠKeÅŁke": 6706,
      "ĠKusur": 6707,
      "ĠKocaeli": 6708,
      "ĠAir": 6709,
      "ĠAile": 6710,
      "ĠAMA": 6711,
      "ĠAÄŁustos": 6712,
      "ĠAfyon": 6713,
      "Ä±lÄ±m": 6714,
      "Ä±ldÄ±k": 6715,
      "Ġmo": 6716,
      "ĠmÃ¼r": 6717,
      "Ġmus": 6718,
      "isk": 6719,
      "isim": 6720,
      "Ġfan": 6721,
      "Ä±ÅŁma": 6722,
      "Ä±ÅŁÄ±n": 6723,
      "Ġpu": 6724,
      "Ġpil": 6725,
      "Ġpek": 6726,
      "ĠÅŁÃ¼p": 6727,
      "Ä±rmaya": 6728,
      "Ä°ME": 6729,
      "Ġnin": 6730,
      "ĠyapmadÄ±": 6731,
      "ĠyapÄ±yoruz": 6732,
      "ĠyapamÄ±yor": 6733,
      "ĠMis": 6734,
      "ĠMaÃ§": 6735,
      "ĠMask": 6736,
      "ĠMetro": 6737,
      "ĠMate": 6738,
      "ĠMersin": 6739,
      "sti": 6740,
      "duy": 6741,
      "Ġemek": 6742,
      "ĠeÄŁitim": 6743,
      "Ġemin": 6744,
      "ĠHam": 6745,
      "ĠYarÄ±m": 6746,
      "ĠÄ°cra": 6747,
      "liyim": 6748,
      "Ġvermem": 6749,
      "Ġvermeyi": 6750,
      "ĠvereceÄŁim": 6751,
      "Ġgelmez": 6752,
      "Ġilgi": 6753,
      "ĠDurumu": 6754,
      "ĠDemir": 6755,
      "ĠDuman": 6756,
      "uzla": 6757,
      "uzur": 6758,
      "uzey": 6759,
      "uzzle": 6760,
      "ĠgÃ¼ne": 6761,
      "ĠgÃ¼nleri": 6762,
      "ĠPan": 6763,
      "ĠPak": 6764,
      "ĠPos": 6765,
      "ĠPuan": 6766,
      "ĠPenti": 6767,
      "ĠPetrol": 6768,
      "masyon": 6769,
      "masÄ±nÄ±n": 6770,
      "ĠkarÄ±n": 6771,
      "Ġkarant": 6772,
      "ĠkaranlÄ±k": 6773,
      "rama": 6774,
      "Ġbilir": 6775,
      "Ġbiliyorum": 6776,
      "Ġbilmem": 6777,
      "Ġbilgis": 6778,
      "Ġbilgisay": 6779,
      "Ġetmeyen": 6780,
      "ĠetmiÅŁtim": 6781,
      "ĠgÃ¶ÄŁÃ¼s": 6782,
      "ĠdiÄŁeri": 6783,
      "Ġmama": 6784,
      "ĠmaÃ§": 6785,
      "Ġmaili": 6786,
      "Ġmaddi": 6787,
      "Ġucu": 6788,
      "ĠardÄ±ndan": 6789,
      "mesey": 6790,
      "Ã¼mer": 6791,
      "ĠÃľmraniye": 6792,
      "ĠsipariÅŁimiz": 6793,
      "ĠsipariÅŁlerim": 6794,
      "eÃ§et": 6795,
      "Ġanket": 6796,
      "lÄ±ca": 6797,
      "Ġisters": 6798,
      "ĠistemiÅŁ": 6799,
      "dere": 6800,
      "amayan": 6801,
      "ĠVan": 6802,
      "ĠVize": 6803,
      "ĠolduÄŁuna": 6804,
      "Ä±nacak": 6805,
      "Ġtarihini": 6806,
      "Ġtarihleri": 6807,
      "ĠdeÄŁi": 6808,
      "ĠbaÅŁlay": 6809,
      "alÄ±tÄ±m": 6810,
      "ĠOlan": 6811,
      "ĠOtur": 6812,
      "Ġgidin": 6813,
      "Ġ37": 6814,
      "Ġ39": 6815,
      "metik": 6816,
      "metse": 6817,
      "ĠkullanÄ±mÄ±": 6818,
      "ĠkullanÄ±yoruz": 6819,
      "Ġkullanmama": 6820,
      "ĠÃĩiz": 6821,
      "ĠÃĩev": 6822,
      "ĠÃĩelik": 6823,
      "uÅŁa": 6824,
      "larÄ±yla": 6825,
      "Ã¼zde": 6826,
      "alardan": 6827,
      "etic": 6828,
      "ĠsÃ¼rem": 6829,
      "ĠÃ§Ä±kmaya": 6830,
      "ĠÃ§Ä±kÄ±nca": 6831,
      "Ġsormadan": 6832,
      "Ġsorumlu": 6833,
      "ezz": 6834,
      "cros": 6835,
      "ĠNet": 6836,
      "ĠaÃ§Ä±sÄ±ndan": 6837,
      "ĠparanÄ±z": 6838,
      "ĠparanÄ±zÄ±": 6839,
      "Ġkaps": 6840,
      "ĠkapÄ±da": 6841,
      "Ġkargodan": 6842,
      "Ġkargoyla": 6843,
      "utma": 6844,
      "utella": 6845,
      "ĠiÅŁÃ§": 6846,
      "ĠiÅŁtir": 6847,
      "Ġiadeye": 6848,
      "Ġiadeyi": 6849,
      "Ġiadesinin": 6850,
      "ĠaldÄ±ÄŁÄ±mdan": 6851,
      "ĠgÃ¶rÃ¼yor": 6852,
      "ĠgÃ¶rdÃ¼": 6853,
      "Ġ5000": 6854,
      "Ġcm": 6855,
      "Ġcumartesi": 6856,
      "ĠyazdÄ±r": 6857,
      "ĠyazÄ±p": 6858,
      "ĠyazmasÄ±na": 6859,
      "ĠyazÄ±lÄ±": 6860,
      "teÅŁ": 6861,
      "lenme": 6862,
      "leniyor": 6863,
      "lender": 6864,
      "lenecek": 6865,
      "Ġelimizde": 6866,
      "Ġelimize": 6867,
      "Ġelinizde": 6868,
      "ĠulaÅŁabil": 6869,
      "Ġhizmetlerinden": 6870,
      "Ġsaatlik": 6871,
      "Ġsaattir": 6872,
      "Ġsaatimin": 6873,
      "ĠSorunun": 6874,
      "Åŀikayet": 6875,
      "ĠgÃ¶nderilen": 6876,
      "ĠgÃ¶nderdiÄŁi": 6877,
      "atura": 6878,
      "ĠÃ§alÄ±ÅŁÄ±yorlar": 6879,
      "ĠfirmayÄ±": 6880,
      "Ġtesp": 6881,
      "Ġtesis": 6882,
      "ĠteslimatÄ±": 6883,
      "Ġyans": 6884,
      "ĠyapÄ±ldÄ±ktan": 6885,
      "Ġgitmeye": 6886,
      "Ġgittiler": 6887,
      "ĠgitmediÄŁim": 6888,
      "Ġbeklerken": 6889,
      "Ġtelefonlar": 6890,
      "Ġtelefondan": 6891,
      "ĠdÃ¶nÃ¼p": 6892,
      "Ġdolmadan": 6893,
      "ĠsÃ¶yleyen": 6894,
      "ĠsÃ¶ylememe": 6895,
      "Ġekte": 6896,
      "Ġeksper": 6897,
      "ĠnumaralarÄ±nÄ±": 6898,
      "sansÃ¶r": 6899,
      "tern": 6900,
      "ĠArab": 6901,
      "ĠArayÄ±p": 6902,
      "Ġsatarken": 6903,
      "ĠAldÄ±ktan": 6904,
      "manÄ±": 6905,
      "Ġbuldum": 6906,
      "ĠÃ¼zÃ¼cÃ¼": 6907,
      "ĠAna": 6908,
      "ĠAnd": 6909,
      "Ġdeniliyor": 6910,
      "Ġondan": 6911,
      "Ġonlara": 6912,
      "Ġevimde": 6913,
      "Ġgirmek": 6914,
      "Ġgirmiyor": 6915,
      "oto": 6916,
      "ĠLam": 6917,
      "Ä±nÄ±zda": 6918,
      "ĠRoc": 6919,
      "ĠmaÄŁdurum": 6920,
      "Ġhatam": 6921,
      "Ġhaftalar": 6922,
      "Ġkime": 6923,
      "ĠoranÄ±": 6924,
      "ĠAyÄ±n": 6925,
      "ĠAyak": 6926,
      "ĠverilmiÅŁ": 6927,
      "ĠverilmemiÅŁ": 6928,
      "ĠGeliyor": 6929,
      "ĠUn": 6930,
      "ĠUSB": 6931,
      "ĠUmarÄ±m": 6932,
      "Ġakan": 6933,
      "Ġbelge": 6934,
      "ĠSipariÅŁin": 6935,
      "ĠSipariÅŁimin": 6936,
      "ĠSipariÅŁlerim": 6937,
      "ĠbaktÄ±": 6938,
      "ĠbakÄ±mÄ±": 6939,
      "Ġkesilen": 6940,
      "Ġediyoruz": 6941,
      "Ġediyordum": 6942,
      "ĠyaÅŁayan": 6943,
      "ĠattÄ±": 6944,
      "Ġotob": 6945,
      "ĠkÃ¶ÅŁ": 6946,
      "Ġhaftada": 6947,
      "Ġ600": 6948,
      "Ġmarkadan": 6949,
      "Ġsizde": 6950,
      "ĠBile": 6951,
      "ĠkuramÄ±yorum": 6952,
      "ÄŁrenÃ§": 6953,
      "Ġuyan": 6954,
      "ĠyakÄ±t": 6955,
      "Ġmuame": 6956,
      "elerle": 6957,
      "ĠÃ§ekici": 6958,
      "Ġzorla": 6959,
      "undaki": 6960,
      "Ġ750": 6961,
      "ĠGÃ¼nde": 6962,
      "ĠarkasÄ±nda": 6963,
      "Ġistemedi": 6964,
      "Ġbitecek": 6965,
      "Ġbitince": 6966,
      "reen": 6967,
      "ĠkarÅŁÄ±ma": 6968,
      "ĠsaÄŁlÄ±ÄŁ": 6969,
      "ĠedeceÄŁiz": 6970,
      "ĠyataÄŁÄ±n": 6971,
      "ĠparÃ§ayÄ±": 6972,
      "ĠparÃ§alarÄ±": 6973,
      "Ġproj": 6974,
      "alandÄ±rma": 6975,
      "uperb": 6976,
      "ivas": 6977,
      "Ġbeklemek": 6978,
      "Ġbekleyen": 6979,
      "Ġbekledikten": 6980,
      "Ġbayat": 6981,
      "ĠZaman": 6982,
      "ĠZarar": 6983,
      "Ġmide": 6984,
      "ĠÃ¼ste": 6985,
      "Ġilettiler": 6986,
      "Ġmaillere": 6987,
      "Ġkoli": 6988,
      "ĠtanÄ±m": 6989,
      "ĠhesabÄ±": 6990,
      "ĠalÄ±nÄ±yor": 6991,
      "fendi": 6992,
      "Ġfiyatlar": 6993,
      "Ġbiletini": 6994,
      "ĠSony": 6995,
      "ĠSÃ¼rec": 6996,
      "Ġkimlik": 6997,
      "raft": 6998,
      "Ġbozucu": 6999,
      "Ġfilme": 7000,
      "Ġsalg": 7001,
      "Ġlaf": 7002,
      "Ġlav": 7003,
      "Ġoyalama": 7004,
      "asyonu": 7005,
      "ĠÃĩÄ±kÄ±yor": 7006,
      "ĠÃ¼rÃ¼nlerim": 7007,
      "ĠAtasay": 7008,
      "Ġdurdu": 7009,
      "Ġdurduk": 7010,
      "ĠKale": 7011,
      "ĠKalite": 7012,
      "Ġmerkezinde": 7013,
      "ĠdÃ¼ÅŁÃ¼nÃ¼yor": 7014,
      "ĠgÃ¼venilir": 7015,
      "ĠyaptÄ±rmak": 7016,
      "Ġrestor": 7017,
      "ĠhakkÄ±m": 7018,
      "ĠaÃ§Ä±lma": 7019,
      "ĠaÃ§Ä±lÄ±p": 7020,
      "Ġsesler": 7021,
      "Ġbelirtmek": 7022,
      "Ġpaketini": 7023,
      "Ġgarantiye": 7024,
      "ĠliralÄ±k": 7025,
      "Ġmakinemin": 7026,
      "lardaki": 7027,
      "ĠkapatÄ±yor": 7028,
      "ĠolmadÄ±lar": 7029,
      "ĠGÃ¶ndermiyor": 7030,
      "Ġaltyap": 7031,
      "ĠkartÄ±ndan": 7032,
      "Ġsistemini": 7033,
      "ĠyÃ¶nÃ¼nde": 7034,
      "ĠÃľcretsiz": 7035,
      "ĠhesabÄ±nÄ±": 7036,
      "Ġkendime": 7037,
      "Ġkendisi": 7038,
      "ĠbÄ±raktÄ±": 7039,
      "ĠEttir": 7040,
      "ĠEttiÄŁim": 7041,
      "Ġtabi": 7042,
      "ĠtabaÄŁÄ±": 7043,
      "ĠBaÅŁk": 7044,
      "ĠBaÅŁlÄ±ÄŁÄ±": 7045,
      "erisiyim": 7046,
      "ĠAkademi": 7047,
      "ĠProf": 7048,
      "ĠEdildi": 7049,
      "ĠEdilmedi": 7050,
      "Ġsalondaki": 7051,
      "ĠÃ¶ÄŁretmen": 7052,
      "Ġgiderek": 7053,
      "ileda": 7054,
      "ĠeÅŁya": 7055,
      "ĠeÅŁimi": 7056,
      "ĠeÅŁime": 7057,
      "ĠbaÄŁlanamÄ±yorum": 7058,
      "chi": 7059,
      "ĠKapaÄŁÄ±": 7060,
      "ĠÃ¶zellik": 7061,
      "ĠÃ¶zelliÄŁi": 7062,
      "Ġuygulamalar": 7063,
      "ĠhastanÄ±n": 7064,
      "Ġtemizleme": 7065,
      "ĠekranÄ±": 7066,
      "Ġharc": 7067,
      "ĠmasasÄ±": 7068,
      "Ġboyu": 7069,
      "Ġseferde": 7070,
      "ĠMax": 7071,
      "burger": 7072,
      "ĠKendil": 7073,
      "ĠsÄ±rf": 7074,
      "ĠsÄ±rada": 7075,
      "ĠErken": 7076,
      "ĠÃ¼yeliÄŁi": 7077,
      "Ġbeyan": 7078,
      "ĠkireÃ§": 7079,
      "ĠkiraladÄ±m": 7080,
      "Ġkatk": 7081,
      "Ġtoplu": 7082,
      "********": 7083,
      "Ġsabit": 7084,
      "ĠTelevizyon": 7085,
      "ĠMahvetti": 7086,
      "ĠsonuÃ§lan": 7087,
      "ertiz": 7088,
      "Ġbahs": 7089,
      "Ġyenisini": 7090,
      "Ġ170": 7091,
      "stagram": 7092,
      "ĠDoÄŁum": 7093,
      "Ġortadan": 7094,
      "ĠbaÅŁvurusunda": 7095,
      "ĠdÃ¼zeltme": 7096,
      "ĠkazanÃ§": 7097,
      "Ġbekletil": 7098,
      "Ġbeklettiler": 7099,
      "ĠÅŁirketine": 7100,
      "ĠÃľstÃ¼ne": 7101,
      "ĠSÃ¶zleÅŁme": 7102,
      "Ġotele": 7103,
      "ĠÄ°nsanlarÄ±n": 7104,
      "ĠÃ¶ÄŁrenci": 7105,
      "Ġbilgim": 7106,
      "ĠMuayene": 7107,
      "ĠYataÅŁ": 7108,
      "Ġbununla": 7109,
      "Ġtavuk": 7110,
      "Ġdoldurdum": 7111,
      "ĠUyar": 7112,
      "ĠUygun": 7113,
      "Ġkanallar": 7114,
      "amayacaÄŁ": 7115,
      "amayacaÄŁÄ±nÄ±": 7116,
      "Ġkaybol": 7117,
      "bugÃ¼n": 7118,
      "Ä±rttÄ±": 7119,
      "ĠBizim": 7120,
      "odrum": 7121,
      "uvalet": 7122,
      "ĠTablet": 7123,
      "ĠOysa": 7124,
      "emeyeceÄŁini": 7125,
      "Ġoradaki": 7126,
      "Ġdikkatli": 7127,
      "anlÄ±urfa": 7128,
      "Ġverdikleri": 7129,
      "ĠyaÅŁadÄ±m": 7130,
      "ĠÃ§ocuÄŁumu": 7131,
      "Ã¼fus": 7132,
      "Ġdepozit": 7133,
      "ĠBorcu": 7134,
      "ĠBununla": 7135,
      "Ġinceledi": 7136,
      "Ġinceleme": 7137,
      "ĠfaturamÄ±n": 7138,
      "Ġmakineyi": 7139,
      "ĠgereÄŁinin": 7140,
      "Ġmilleti": 7141,
      "Ġbilgileri": 7142,
      "ĠetmeyeceÄŁim": 7143,
      "Ã¼mÃ¼ze": 7144,
      "ĠÃ§aÄŁÄ±rdÄ±m": 7145,
      "Ġkilo": 7146,
      "Ġkendini": 7147,
      "ĠTarafÄ±ndan": 7148,
      "ĠMedipol": 7149,
      "ĠGereksiz": 7150,
      "ĠGÃ¶zÃ¼k": 7151,
      "ĠayrÄ±l": 7152,
      "ĠayrÄ±ldÄ±": 7153,
      "ĠDÃ¶ner": 7154,
      "Ġaktarmada": 7155,
      "ĠaboneliÄŁimi": 7156,
      "Ġdireksiyon": 7157,
      "Media": 7158,
      "ĠfÄ±rÄ±n": 7159,
      "ĠaracÄ±ma": 7160,
      "ĠÃ¶ncesi": 7161,
      "ĠÃ¶ncesinde": 7162,
      "Ġleke": 7163,
      "ĠMaÄŁduriyetimin": 7164,
      "ĠKabalÄ±ÄŁÄ±": 7165,
      "ĠYaÅŁÄ±yorum": 7166,
      "Ġistemem": 7167,
      "ĠgÃ¶nderilmedi": 7168,
      "ĠAlÄ±nan": 7169,
      "Ġaktivasyon": 7170,
      "ĠbeÄŁenerek": 7171,
      "ĠbeÄŁenmedim": 7172,
      "alkon": 7173,
      "ĠgÃ¶zlÃ¼ÄŁÃ¼": 7174,
      "ĠgÃ¶zlÃ¼ÄŁÃ¼mÃ¼n": 7175,
      "ĠmÃ¼ÅŁteriler": 7176,
      "ĠTarihi": 7177,
      "ĠHotels": 7178,
      "Ġmetre": 7179,
      "Ġnakil": 7180,
      "ĠiÃ§eride": 7181,
      "ĠhasarlÄ±": 7182,
      "Ġengelli": 7183,
      "ĠsÄ±navÄ±na": 7184,
      "ĠSanki": 7185,
      "ĠSanÄ±rÄ±m": 7186,
      "ĠYerine": 7187,
      "ĠkardeÅŁ": 7188,
      "Ġesnaf": 7189,
      "Tekzen": 7190,
      "ĠTatil": 7191,
      "ĠbuharlÄ±": 7192,
      "ĠÃ¶dÃ¼yoruz": 7193,
      "ĠcivarÄ±": 7194,
      "ĠsaygÄ±sÄ±zlÄ±k": 7195,
      "erji": 7196,
      "Ġsurat": 7197,
      "Ġkitab": 7198,
      "Ġtortu": 7199,
      "ĠdÃ¼ÅŁtÃ¼": 7200,
      "Ġpazartesi": 7201,
      "Ġemlak": 7202,
      "Ġemniyet": 7203,
      "ĠHesabÄ±mdan": 7204,
      "yaka": 7205,
      "leyemiyorum": 7206,
      "ĠAdres": 7207,
      "ĠYasal": 7208,
      "dÄ±ÄŁÄ±nÄ±zda": 7209,
      "Ġsitenizden": 7210,
      "ĠtuÅŁuna": 7211,
      "Ġifade": 7212,
      "ĠTornado": 7213,
      "ĠKÄ±zÄ±m": 7214,
      "ĠaynÄ±sÄ±": 7215,
      "ĠNormalde": 7216,
      "ĠSonrasÄ±": 7217,
      "ĠSonrasÄ±nda": 7218,
      "ĠInstagram": 7219,
      "ĠkargolanmadÄ±": 7220,
      "ĠHaftadÄ±r": 7221,
      "ĠDavranÄ±ÅŁÄ±": 7222,
      "Ġhadi": 7223,
      "ĠSeyahat": 7224,
      "ĠShell": 7225,
      "ĠalÄ±rÄ±z": 7226,
      "ĠmÄ±sÄ±nÄ±z": 7227,
      "ĠElimde": 7228,
      "ĠNeredeyse": 7229,
      "Ġkendileri": 7230,
      "Ġunuttum": 7231,
      "Bilet": 7232,
      "ĠbÄ±ktÄ±m": 7233,
      "Ġsosyal": 7234,
      "ĠKÄ±sa": 7235,
      "AltÄ±n": 7236,
      "ĠseansÄ±na": 7237,
      "omat": 7238,
      "Ġsinemaya": 7239,
      "etlife": 7240,
      "ĠSizin": 7241,
      "ĠSebeb": 7242,
      "ĠDair": 7243,
      "ĠPoliÃ§e": 7244,
      "ĠOfisi": 7245,
      "ĠÃĸÄŁren": 7246,
      "ĠKuruyemiÅŁ": 7247,
      "ĠBaÄŁlantÄ±": 7248,
      "Ġmecburen": 7249,
      "Ġulus": 7250,
      "ĠSinemalarÄ±": 7251,
      "Ġkargonun": 7252,
      "ĠmeÅŁgul": 7253,
      "ianchi": 7254,
      "ĠÄ±ÅŁÄ±ÄŁÄ±": 7255,
      "Ã¼vtÃ¼rk": 7256,
      "ĠkÃ¼sur": 7257,
      "ĠyumuÅŁ": 7258,
      "Ġvites": 7259,
      "ĠSÄ±zdÄ±rÄ±yor": 7260,
      "ĠMesaj": 7261,
      "ĠGarenta": 7262,
      "ĠÃ¼slup": 7263,
      "ĠAktarmada": 7264,
      "Ġihtimal": 7265,
      "ĠEskiÅŁehir": 7266,
      "ĠEsenyurt": 7267,
      "celikle": 7268,
      "ĠSokak": 7269,
      "ĠBekliyorum": 7270,
      "Ġdarbe": 7271,
      "ĠFinansbank": 7272,
      "ĠUzak": 7273,
      "ĠaklÄ±ma": 7274,
      "Ġadresinden": 7275,
      "ĠoyalÄ±yorlar": 7276,
      "KÄ±zÄ±m": 7277,
      "YargÄ±": 7278,
      "Ġberbat": 7279,
      "Ġstandart": 7280,
      "ĠStore": 7281,
      "Ġdublaj": 7282,
      "cedes": 7283,
      "ĠMavi": 7284,
      "Ġefendim": 7285,
      "ĠPrime": 7286,
      "Ãĩaykur": 7287,
      "Gidiyor": 7288,
      "dows": 7289,
      "lutv": 7290,
      "lobal": 7291,
      "pazarÄ±": 7292,
      "orselen": 7293,
      "ĠgÃ¼rÃ¼ltÃ¼": 7294,
      "Ġhikmetse": 7295,
      "Ä°MER": 7296,
      "''": 7297,
      "38": 7298,
      "42": 7299,
      "57": 7300,
      "79": 7301,
      "Ad": 7302,
      "Adana": 7303,
      "BD": 7304,
      "Bernardo": 7305,
      "Can": 7306,
      "Civil": 7307,
      "Dell": 7308,
      "ET": 7309,
      "EÅŁim": 7310,
      "ETS": 7311,
      "FK": 7312,
      "FT": 7313,
      "Ford": 7314,
      "GB": 7315,
      "Gold": 7316,
      "Homet": 7317,
      "Kap": 7318,
      "KÄ±r": 7319,
      "Kab": 7320,
      "Kocaeli": 7321,
      "Kumtel": 7322,
      "MW": 7323,
      "Mon": 7324,
      "Mart": 7325,
      "Metlife": 7326,
      "NB": 7327,
      "Net": 7328,
      "Nisan": 7329,
      "Nescafe": 7330,
      "Pas": 7331,
      "Pop": 7332,
      "PTT": 7333,
      "Pril": 7334,
      "PanÃ§o": 7335,
      "Rena": 7336,
      "Si": 7337,
      "Sin": 7338,
      "Sat": 7339,
      "Sek": 7340,
      "Spor": 7341,
      "SKÄ°": 7342,
      "Sleepy": 7343,
      "Tr": 7344,
      "Torku": 7345,
      "Vol": 7346,
      "by": 7347,
      "ber": 7348,
      "ban": 7349,
      "buz": 7350,
      "cesi": 7351,
      "casÄ±": 7352,
      "city": 7353,
      "dya": 7354,
      "dinin": 7355,
      "dalan": 7356,
      "dÃ¼ÄŁÃ¼": 7357,
      "eu": 7358,
      "edaÅŁ": 7359,
      "fre": 7360,
      "feksiyon": 7361,
      "gen": 7362,
      "gesi": 7363,
      "hli": 7364,
      "ja": 7365,
      "ji": 7366,
      "kar": 7367,
      "kol": 7368,
      "kanÄ±": 7369,
      "kÄ±rÄ±": 7370,
      "kemeye": 7371,
      "limi": 7372,
      "liyorlar": 7373,
      "layÄ±cÄ±": 7374,
      "ms": 7375,
      "mit": 7376,
      "mÄ±yorum": 7377,
      "mÃ¼ÅŁt": 7378,
      "nem": 7379,
      "nec": 7380,
      "pe": 7381,
      "posta": 7382,
      "qu": 7383,
      "rik": 7384,
      "raz": 7385,
      "rÄ±s": 7386,
      "rÄ±lma": 7387,
      "siy": 7388,
      "simum": 7389,
      "tepe": 7390,
      "teyiz": 7391,
      "ux": 7392,
      "ves": 7393,
      "vye": 7394,
      "wag": 7395,
      "yar": 7396,
      "yalarÄ±": 7397,
      "yÄ±nca": 7398,
      "zon": 7399,
      "Ġ$": 7400,
      "ĠÂł": 7401,
      "Ġlim": 7402,
      "arm": 7403,
      "arn": 7404,
      "arasÄ±": 7405,
      "areti": 7406,
      "arÃ§a": 7407,
      "Ã¼ler": 7408,
      "Ã¼len": 7409,
      "Ã¼dÃ¼m": 7410,
      "ÅŁÃ¼r": 7411,
      "ÅŁembe": 7412,
      "any": 7413,
      "Ġbol": 7414,
      "Ġbes": 7415,
      "ĠbÃ¼r": 7416,
      "Ġbro": 7417,
      "Ġblu": 7418,
      "Ġbunda": 7419,
      "Ġbeye": 7420,
      "Ġbanyo": 7421,
      "ĠbÄ±Ã§ak": 7422,
      "int": 7423,
      "inat": 7424,
      "ÄŁlen": 7425,
      "maca": 7426,
      "master": 7427,
      "orme": 7428,
      "Ġsp": 7429,
      "Ġsel": 7430,
      "Ġsim": 7431,
      "Ġsey": 7432,
      "ĠsayÄ±": 7433,
      "Ġsoya": 7434,
      "Ġsinem": 7435,
      "Ġsivil": 7436,
      "Ġkem": 7437,
      "ĠkÄ±na": 7438,
      "ĠkalÄ±": 7439,
      "Ġkep": 7440,
      "Ġkamp": 7441,
      "ĠkayÄ±p": 7442,
      "ilim": 7443,
      "ilek": 7444,
      "illeri": 7445,
      "ilev": 7446,
      "ilecek": 7447,
      "ilmeyen": 7448,
      "ilsin": 7449,
      "ĠgÄ±cÄ±r": 7450,
      "Ġgaliba": 7451,
      "ende": 7452,
      "diven": 7453,
      "Ä±ntÄ±m": 7454,
      "Ä±ndÄ±k": 7455,
      "mel": 7456,
      "memesine": 7457,
      "mediniz": 7458,
      "dÄ±z": 7459,
      "Ã¶tar": 7460,
      "elin": 7461,
      "elaket": 7462,
      "imle": 7463,
      "Ġtap": 7464,
      "ĠtÃ¼y": 7465,
      "ayarak": 7466,
      "Ġib": 7467,
      "aka": 7468,
      "aks": 7469,
      "Ġval": 7470,
      "Ġvallahi": 7471,
      "Ġhek": 7472,
      "Ġhev": 7473,
      "ĠhanÄ±": 7474,
      "Ġhiss": 7475,
      "Ġhuzur": 7476,
      "umdan": 7477,
      "unluk": 7478,
      "esiy": 7479,
      "ĠolacaÄŁÄ±m": 7480,
      "lamÄ±ÅŁ": 7481,
      "lacak": 7482,
      "lamadÄ±": 7483,
      "apÄ±": 7484,
      "apfre": 7485,
      "izli": 7486,
      "ĠdediÄŁimde": 7487,
      "urdum": 7488,
      "larmÄ±ÅŁ": 7489,
      "ĠSet": 7490,
      "ĠSek": 7491,
      "ĠSeti": 7492,
      "ĠSev": 7493,
      "ĠSamsun": 7494,
      "ĠSÃ¶k": 7495,
      "ĠSuyu": 7496,
      "ĠStok": 7497,
      "ĠSuperonline": 7498,
      "ĠSÄ±nava": 7499,
      "ĠalmadÄ±": 7500,
      "ĠalÄ±cÄ±": 7501,
      "Ġalabilir": 7502,
      "ĠalÄ±nacak": 7503,
      "iki": 7504,
      "ikel": 7505,
      "ĠBT": 7506,
      "ĠBin": 7507,
      "ĠBÄ±k": 7508,
      "ĠBaz": 7509,
      "ĠBeri": 7510,
      "ĠBundan": 7511,
      "ĠBolu": 7512,
      "ĠBask": 7513,
      "ĠBize": 7514,
      "Ġbirden": 7515,
      "Ġbirine": 7516,
      "ĠbirleÅŁ": 7517,
      "Ġbirileri": 7518,
      "ĠÃ§ak": 7519,
      "ĠÃ§iÄŁ": 7520,
      "amik": 7521,
      "ĠTw": 7522,
      "ĠTer": 7523,
      "ĠTeÅŁ": 7524,
      "ĠTanÄ±": 7525,
      "ĠTic": 7526,
      "ĠTurkcell": 7527,
      "ĠTHY": 7528,
      "ĠTemel": 7529,
      "ĠTorku": 7530,
      "ĠTrab": 7531,
      "ĠdÃ¼rÃ¼st": 7532,
      "lerimizi": 7533,
      "Ġade": 7534,
      "Ġacel": 7535,
      "Ġabar": 7536,
      "ĠKaf": 7537,
      "ĠKoy": 7538,
      "ĠKÃ¶p": 7539,
      "ĠKÄ±b": 7540,
      "ĠAh": 7541,
      "ĠAlÄ±": 7542,
      "ĠAlamÄ±yorum": 7543,
      "ĠApp": 7544,
      "ĠATM": 7545,
      "ĠAsansÃ¶r": 7546,
      "Ä±lÄ±p": 7547,
      "Ä±lmayan": 7548,
      "Ġmuz": 7549,
      "Ġmop": 7550,
      "ĠmÃ¼s": 7551,
      "Ġmola": 7552,
      "itro": 7553,
      "itsu": 7554,
      "isel": 7555,
      "isinde": 7556,
      "iskÃ¼": 7557,
      "Ġfelaket": 7558,
      "Ä±ÅŁlarÄ±": 7559,
      "Ġpet": 7560,
      "Ġped": 7561,
      "Ġpencer": 7562,
      "Ġpuzzle": 7563,
      "ulti": 7564,
      "ĠÅŁampuan": 7565,
      "Ä±rlar": 7566,
      "Ä±rtÄ±k": 7567,
      "aÄŁan": 7568,
      "aÄŁlar": 7569,
      "aÄŁÄ±nÄ±": 7570,
      "Ä°st": 7571,
      "Ġnaf": 7572,
      "ĠniÅŁan": 7573,
      "ĠyapmasÄ±nÄ±": 7574,
      "Ġyapars": 7575,
      "ĠyapÄ±lama": 7576,
      "ĠyaptÄ±nÄ±z": 7577,
      "ĠyapamayacaklarÄ±nÄ±": 7578,
      "ĠMR": 7579,
      "ĠMo": 7580,
      "ĠMÃ¼ÅŁt": 7581,
      "stal": 7582,
      "Ġed": 7583,
      "Ġex": 7584,
      "Ġemeklilik": 7585,
      "ĠiÃ§er": 7586,
      "ĠHan": 7587,
      "ĠHep": 7588,
      "ĠHoc": 7589,
      "ĠHabersiz": 7590,
      "ĠdaÄŁ": 7591,
      "ĠYe": 7592,
      "ĠYen": 7593,
      "ĠYoÄŁ": 7594,
      "ĠYere": 7595,
      "ĠYana": 7596,
      "ĠYumur": 7597,
      "ĠYavaÅŁ": 7598,
      "ĠGere": 7599,
      "ĠGÃ¶k": 7600,
      "ĠayÄ±ndan": 7601,
      "emizde": 7602,
      "tif": 7603,
      "liÄŁe": 7604,
      "dÄ±ÄŁÄ±ndan": 7605,
      "dÄ±ÄŁÄ±ma": 7606,
      "Ġveremiyorum": 7607,
      "Ġveremiyoruz": 7608,
      "Ġgeleni": 7609,
      "Ġgelirken": 7610,
      "tÄ±p": 7611,
      "tÄ±cÄ±": 7612,
      "tÄ±sÄ±z": 7613,
      "ĠDak": 7614,
      "ĠDep": 7615,
      "ĠDemek": 7616,
      "ĠDÄ±ÅŁÄ±": 7617,
      "ĠDyson": 7618,
      "land": 7619,
      "landÄ±ÄŁÄ±": 7620,
      "ĠEg": 7621,
      "ĠEle": 7622,
      "ĠEti": 7623,
      "ĠEbebek": 7624,
      "ĠEBA": 7625,
      "ĠEreÄŁli": 7626,
      "Ġraf": 7627,
      "Ġrandev": 7628,
      "arkÄ±": 7629,
      "ĠPeynir": 7630,
      "ĠPiazza": 7631,
      "masÄ±z": 7632,
      "ĠkarÄ±ÅŁtÄ±r": 7633,
      "dilat": 7634,
      "dimi": 7635,
      "Ġbilin": 7636,
      "Ġbilmeyen": 7637,
      "Ġbiliyorsunuz": 7638,
      "Ġbilelim": 7639,
      "iyo": 7640,
      "Ġ220": 7641,
      "Ġetmez": 7642,
      "eyes": 7643,
      "iha": 7644,
      "Ġsonuna": 7645,
      "Ġsonsuz": 7646,
      "Ġdiyen": 7647,
      "Ã¶yl": 7648,
      "dÄ±ÄŁÄ±mÄ±": 7649,
      "ĠarÄ±yorsunuz": 7650,
      "Ġarayacak": 7651,
      "mesin": 7652,
      "ĠÃ¼rÃ¼ne": 7653,
      "Ã¼mÃ¼ÅŁ": 7654,
      "Ã¼mlÃ¼": 7655,
      "ĠÃľzer": 7656,
      "ĠsipariÅŁte": 7657,
      "Ġanah": 7658,
      "Ġanlamda": 7659,
      "ĠÃ¶der": 7660,
      "Ġistemiyor": 7661,
      "ukuki": 7662,
      "amada": 7663,
      "amadÄ±ÄŁÄ±m": 7664,
      "amadÄ±k": 7665,
      "ĠVi": 7666,
      "ĠVaat": 7667,
      "Ġtart": 7668,
      "Ġhallet": 7669,
      "ment": 7670,
      "ĠFan": 7671,
      "ĠFabr": 7672,
      "ĠFakÃ¼l": 7673,
      "ads": 7674,
      "ĠolduÄŁunda": 7675,
      "Ġyoktur": 7676,
      "ĠÃ¶nlem": 7677,
      "ĠbaÅŁÄ±na": 7678,
      "ĠbaÅŁlÄ±ÄŁÄ±": 7679,
      "maktan": 7680,
      "ĠOlarak": 7681,
      "Ġgidil": 7682,
      "dÄ±rÄ±cÄ±": 7683,
      "ĠkullanmadÄ±ÄŁÄ±m": 7684,
      "ĠÃĩikol": 7685,
      "ediyor": 7686,
      "ĠgeÃ§ersiz": 7687,
      "ĠsÃ¼rÃ¼yor": 7688,
      "0000": 7689,
      "Ġbenzer": 7690,
      "ĠÃ§Ä±ktÄ±m": 7691,
      "ĠÃ§Ä±kmasÄ±": 7692,
      "ĠinÅŁ": 7693,
      "Ġsormama": 7694,
      "epaÅŁ": 7695,
      "ĠNot": 7696,
      "ĠNumara": 7697,
      "ĠkalmamÄ±ÅŁ": 7698,
      "ĠCr": 7699,
      "ĠCan": 7700,
      "ĠCle": 7701,
      "ĠCiddi": 7702,
      "ĠCayma": 7703,
      "ĠCÄ°MER": 7704,
      "ubat": 7705,
      "ubuk": 7706,
      "lÄ±ktÄ±r": 7707,
      "acasÄ±": 7708,
      "ereja": 7709,
      "Ġ46": 7710,
      "Ġ47": 7711,
      "ĠiÅŁini": 7712,
      "ĠiÅŁte": 7713,
      "ĠiÅŁten": 7714,
      "ĠiÅŁsiz": 7715,
      "ĠiÅŁareti": 7716,
      "ĠgÃ¶rmediÄŁim": 7717,
      "ĠcamÄ±": 7718,
      "Ġcilt": 7719,
      "Ġyazar": 7720,
      "ĠyazÄ±sÄ±": 7721,
      "roid": 7722,
      "rown": 7723,
      "tex": 7724,
      "ĠÃľrÃ¼nden": 7725,
      "Ġellerinden": 7726,
      "Ġelbise": 7727,
      "tÄ±rmak": 7728,
      "ĠmarkayÄ±": 7729,
      "Ġmarkalar": 7730,
      "ĠulaÅŁÄ±m": 7731,
      "ĠulaÅŁacak": 7732,
      "ĠgeldiÄŁini": 7733,
      "Ġsaatinde": 7734,
      "mayacaÄŁÄ±m": 7735,
      "ĠgÃ¶ndermeye": 7736,
      "ĠgÃ¶nderiliyor": 7737,
      "ĠÃ§alÄ±ÅŁtÄ±": 7738,
      "ĠÃ§alÄ±ÅŁmadÄ±": 7739,
      "ĠÃ§alÄ±ÅŁmasÄ±": 7740,
      "ĠÃ§alÄ±ÅŁmaya": 7741,
      "2014": 7742,
      "ĠÃ¶dev": 7743,
      "ĠÃ¶demek": 7744,
      "Ġtesad": 7745,
      "osp": 7746,
      "osunu": 7747,
      "tÄ±ÄŁÄ±nda": 7748,
      "ĠyanÄ±yor": 7749,
      "ĠyansÄ±": 7750,
      "ĠyapÄ±lÄ±p": 7751,
      "ĠyapÄ±lmadÄ±ÄŁÄ±": 7752,
      "Ġservisin": 7753,
      "Ġservisini": 7754,
      "Ġgitmiyor": 7755,
      "trason": 7756,
      "Ġtelefonumun": 7757,
      "ĠdÃ¶nen": 7758,
      "ĠdÃ¶nÃ¼yor": 7759,
      "avr": 7760,
      "ĠÅŀey": 7761,
      "Ġdolaba": 7762,
      "Ġedildim": 7763,
      "ĠedilmemiÅŁ": 7764,
      "ĠKargoda": 7765,
      "tÃ¼sÃ¼": 7766,
      "ĠsÃ¶yleyin": 7767,
      "ĠsÃ¶ylediÄŁimde": 7768,
      "Ġtekn": 7769,
      "ĠyÄ±lda": 7770,
      "ĠyÄ±lÄ±nÄ±n": 7771,
      "ĠsatÄ±l": 7772,
      "Ġsatmak": 7773,
      "ĠsattÄ±m": 7774,
      "ĠsatÄ±yorlar": 7775,
      "ĠsatÄ±yorsunuz": 7776,
      "ĠsattÄ±ÄŁÄ±": 7777,
      "ĠsattÄ±klarÄ±": 7778,
      "Ġyerlerde": 7779,
      "ememe": 7780,
      "emediler": 7781,
      "ĠdeÄŁiÅŁiyor": 7782,
      "ĠdeÄŁiÅŁecek": 7783,
      "ĠtaktÄ±m": 7784,
      "ĠtakÄ±nca": 7785,
      "ĠAldÄ±m": 7786,
      "ĠzamanÄ±": 7787,
      "netto": 7788,
      "ĠAnlay": 7789,
      "edef": 7790,
      "ĠonlarÄ±n": 7791,
      "Ġevin": 7792,
      "ĠYapmÄ±yorlar": 7793,
      "Ġgirme": 7794,
      "Ġgirecek": 7795,
      "Ġgirmez": 7796,
      "oton": 7797,
      "ĠLens": 7798,
      "ĠLPG": 7799,
      "ĠdeÄŁiliz": 7800,
      "elievler": 7801,
      "ĠhatayÄ±": 7802,
      "ĠhaftayÄ±": 7803,
      "Ġhaftaya": 7804,
      "ĠfaturanÄ±n": 7805,
      "ĠfaturasÄ±nÄ±": 7806,
      "Ġoran": 7807,
      "ĠorasÄ±": 7808,
      "ĠAyda": 7809,
      "ĠAyrÄ±": 7810,
      "Ġverilmeden": 7811,
      "ĠyaramÄ±yor": 7812,
      "ĠÅŁubeyi": 7813,
      "Ġsitesine": 7814,
      "ĠUludaÄŁ": 7815,
      "Ġakl": 7816,
      "ĠakÄ±l": 7817,
      "ankaya": 7818,
      "Ġenfeksiyon": 7819,
      "Ġkent": 7820,
      "tÄ±ÄŁÄ±mÄ±zda": 7821,
      "lamaz": 7822,
      "ĠbakÄ±yorum": 7823,
      "ĠbakmÄ±yor": 7824,
      "ĠbakalÄ±m": 7825,
      "ĠyaÅŁat": 7826,
      "ĠyaÅŁÄ±yor": 7827,
      "ĠyaÅŁamÄ±ÅŁ": 7828,
      "ĠattÄ±ÄŁÄ±m": 7829,
      "ĠlakayÄ±t": 7830,
      "Ġyolda": 7831,
      "Ġyolcu": 7832,
      "Ġoturt": 7833,
      "Ġbulunmakta": 7834,
      "Ġbulunduk": 7835,
      "ĠbulunmaktadÄ±r": 7836,
      "ĠbulunmamaktadÄ±r": 7837,
      "Ġcez": 7838,
      "ĠÄ°adem": 7839,
      "ĠÄ°ademi": 7840,
      "rand": 7841,
      "Ġdurumunu": 7842,
      "Ġdurumunda": 7843,
      "ĠdefasÄ±nda": 7844,
      "sÄ±zÄ±n": 7845,
      "ĠBilgim": 7846,
      "akkab": 7847,
      "Ġkurab": 7848,
      "ĠdÃ¼ÅŁÃ¼yor": 7849,
      "ĠkÄ±rÄ±l": 7850,
      "elerdir": 7851,
      "ĠfarkÄ±na": 7852,
      "Ġsudan": 7853,
      "mamÄ±": 7854,
      "ĠÃ§ekti": 7855,
      "ĠÃ§ekmek": 7856,
      "ĠÃ§ektir": 7857,
      "ĠÃ§ekimi": 7858,
      "ĠÃ§ektiler": 7859,
      "ĠÃ§ekirde": 7860,
      "Ġ700": 7861,
      "Ä±mÄ±zla": 7862,
      "ĠÄ°lgi": 7863,
      "Ġmesaf": 7864,
      "Ġistemek": 7865,
      "Ġbitim": 7866,
      "Ġbittikten": 7867,
      "ĠcevabÄ±nÄ±": 7868,
      "Ã¼sÃ¼": 7869,
      "leÅŁti": 7870,
      "ĠkarÅŁÄ±n": 7871,
      "ĠkarÅŁÄ±sÄ±nda": 7872,
      "Ġedemedim": 7873,
      "Ġedebilir": 7874,
      "Ġinternete": 7875,
      "ĠyatÄ±ÅŁ": 7876,
      "ĠparÃ§alar": 7877,
      "ĠparÃ§anÄ±n": 7878,
      "Ġcevaplar": 7879,
      "Ġpromosyon": 7880,
      "ĠarÄ±zayÄ±": 7881,
      "alanÄ±yor": 7882,
      "ĠinsanÄ±n": 7883,
      "hanÄ±m": 7884,
      "upa": 7885,
      "ĠsÃ¶yler": 7886,
      "ĠdÃ¼zene": 7887,
      "eÄŁin": 7888,
      "ĠEkst": 7889,
      "ĠEkmek": 7890,
      "ife": 7891,
      "Ã¼lk": 7892,
      "Ġbayana": 7893,
      "ĠÃ¼yesi": 7894,
      "ĠÃ¼yesiyim": 7895,
      "ĠÃ¼yesiy": 7896,
      "Ġkayn": 7897,
      "Ġ155": 7898,
      "tÃ¼rÃ¼": 7899,
      "Ã¼yÃ¼": 7900,
      "ĠyÃ¼zÃ¼": 7901,
      "ĠyÃ¼zÃ¼me": 7902,
      "ĠyÃ¼zÃ¼ÄŁÃ¼": 7903,
      "ĠyÃ¼zÃ¼nÃ¼z": 7904,
      "ĠServisten": 7905,
      "Ġilettim": 7906,
      "Ġiletildi": 7907,
      "ĠtanÄ±": 7908,
      "ĠalÄ±nmasÄ±nÄ±": 7909,
      "Ä±lacaÄŁÄ±": 7910,
      "ĠbaÄŁÄ±r": 7911,
      "ĠbaÄŁlat": 7912,
      "Ġbelirli": 7913,
      "Ġizn": 7914,
      "ĠiÅŁlemler": 7915,
      "latin": 7916,
      "Ġmedya": 7917,
      "ĠgelmediÄŁini": 7918,
      "Ġbiletin": 7919,
      "ĠSonuÃ§": 7920,
      "amparÃ§a": 7921,
      "ĠÃ¶demeden": 7922,
      "ĠsÄ±kÄ±ntÄ±m": 7923,
      "ĠÄ°Ã§im": 7924,
      "ĠÄ°Ã§eri": 7925,
      "ĠbaÅŁvuracaÄŁÄ±mÄ±": 7926,
      "ock": 7927,
      "ocaman": 7928,
      "ĠdoÄŁduÄŁ": 7929,
      "ĠcihazÄ±mÄ±n": 7930,
      "ĠdeÄŁiÅŁtirdi": 7931,
      "ĠdeÄŁiÅŁtirilmesini": 7932,
      "ĠsÃ¶zlÃ¼": 7933,
      "AralÄ±k": 7934,
      "Ġuzman": 7935,
      "Ġalmakta": 7936,
      "ĠTesla": 7937,
      "ĠAtÄ±yor": 7938,
      "ĠOlmuyor": 7939,
      "ehmet": 7940,
      "resim": 7941,
      "Ġdurmuyor": 7942,
      "muyorum": 7943,
      "ĠKaldÄ±r": 7944,
      "Ġmerkeze": 7945,
      "ĠdÃ¼ÅŁÃ¼nerek": 7946,
      "ĠgÃ¼vendiÄŁimiz": 7947,
      "Ġgetirecek": 7948,
      "Ġoluyoruz": 7949,
      "Ġbelirtilen": 7950,
      "Ġetmekteyim": 7951,
      "Ġpakete": 7952,
      "Ġpakette": 7953,
      "Ġ''": 7954,
      "Ġgarantiden": 7955,
      "ĠgÃ¶rÃ¼nmÃ¼yor": 7956,
      "Ġliraya": 7957,
      "Ġmakinesinin": 7958,
      "umaÅŁ": 7959,
      "ĠkapattÄ±m": 7960,
      "ĠParacÄ±k": 7961,
      "Ġ99": 7962,
      "ĠsaÃ§larÄ±mÄ±": 7963,
      "***'": 7964,
      "ĠÄ°ÅŁe": 7965,
      "ĠIsÄ±": 7966,
      "ĠIsÄ±n": 7967,
      "ĠIKEA": 7968,
      "ĠhesabÄ±m": 7969,
      "ĠbÄ±rakÄ±yor": 7970,
      "ĠEtmedi": 7971,
      "Ġtaban": 7972,
      "ĠBaÅŁladÄ±": 7973,
      "Ġsevin": 7974,
      "Ġtuttur": 7975,
      "ĠKonut": 7976,
      "ĠAkÅŁam": 7977,
      "ĠAkÄ±llÄ±": 7978,
      "ĠyÃ¼ksel": 7979,
      "ĠyÃ¼kledim": 7980,
      "Ġhavalim": 7981,
      "Ġburda": 7982,
      "ĠburasÄ±": 7983,
      "ĠEdilmiyor": 7984,
      "ĠEdilemeyen": 7985,
      "ĠgeÃ§tiÄŁi": 7986,
      "ĠgeÃ§tiÄŁini": 7987,
      "ĠdÄ±ÅŁÄ±ndan": 7988,
      "Ġsalonun": 7989,
      "Ġsalonuna": 7990,
      "ÃĩiÃ§ek": 7991,
      "ĠaraÃ§ta": 7992,
      "laka": 7993,
      "Ġokut": 7994,
      "antol": 7995,
      "Ġkorun": 7996,
      "Ġ186": 7997,
      "ĠHatta": 7998,
      "ĠÃ§Ä±kardÄ±": 7999,
      "Ġilgilendir": 8000,
      "Ġesk": 8001,
      "Ġhastanesinde": 8002,
      "Ġhastaneden": 8003,
      "ĠettiÄŁini": 8004,
      "Ġfilmine": 8005,
      "ĠiÃ§erisinden": 8006,
      "ĠaÄŁrÄ±": 8007,
      "ĠekranÄ±nda": 8008,
      "ĠSatÄ±n": 8009,
      "ĠSatÄ±yor": 8010,
      "ĠyanlÄ±ÅŁlÄ±kla": 8011,
      "ĠÄ±srar": 8012,
      "ĠÄ±slak": 8013,
      "Ġbankac": 8014,
      "malarÄ±nÄ±": 8015,
      "ĠboyasÄ±": 8016,
      "Ġgarantisinin": 8017,
      "ĠMaalesef": 8018,
      "ĠFirmasÄ±": 8019,
      "ĠÃ§ocuklarÄ±n": 8020,
      "ĠÃ§ocuklara": 8021,
      "ĠÃ§ocuklarÄ±m": 8022,
      "ĠKent": 8023,
      "ĠErikli": 8024,
      "amazan": 8025,
      "ĠonaylanmadÄ±": 8026,
      "Ãľn": 8027,
      "Ãľy": 8028,
      "ĠkiracÄ±": 8029,
      "Ġkoydu": 8030,
      "Ġkoyup": 8031,
      "Ġihbar": 8032,
      "ĠÄ°zmit": 8033,
      "ĠkonuÅŁuyor": 8034,
      "ĠkonuÅŁmalar": 8035,
      "ĠkÄ±smÄ±nÄ±": 8036,
      "ĠkÄ±smÄ±na": 8037,
      "Ġduyuru": 8038,
      "ĠMahke": 8039,
      "Ġdavlum": 8040,
      "ĠYeter": 8041,
      "ĠarayacaÄŁÄ±z": 8042,
      "ĠÄ°nternette": 8043,
      "ĠÄ°nternetten": 8044,
      "ĠbahÅŁiÅŁ": 8045,
      "ĠÃĸdediÄŁim": 8046,
      "ĠKullanÄ±m": 8047,
      "ĠÅŁimdiden": 8048,
      "ĠGarantiye": 8049,
      "ĠvermiÅŁtim": 8050,
      "ĠbaÅŁladÄ±k": 8051,
      "Ġadresine": 8052,
      "ĠuÄŁraÅŁtÄ±m": 8053,
      "Ġikaz": 8054,
      "ĠsatÄ±ÅŁa": 8055,
      "Ġyemekler": 8056,
      "Ġdonuyor": 8057,
      "ĠDoÄŁuÅŁ": 8058,
      "ĠkarÅŁÄ±laÅŁÄ±yorum": 8059,
      "Ġodada": 8060,
      "ĠodasÄ±": 8061,
      "ĠÃ¼zerindeki": 8062,
      "ĠdÃ¼zeltilmesini": 8063,
      "Ġtemsilcisini": 8064,
      "ijitsu": 8065,
      "ĠOnar": 8066,
      "Ġbekletip": 8067,
      "ĠuÃ§uÅŁu": 8068,
      "Ġabonesiyim": 8069,
      "ĠfotoÄŁraflarÄ±": 8070,
      "ĠbilgisayarÄ±m": 8071,
      "Ġkoltuklar": 8072,
      "emediÄŁim": 8073,
      "ÄŁinize": 8074,
      "Ġformunu": 8075,
      "ĠyayÄ±nlan": 8076,
      "ĠyayÄ±nlarÄ±": 8077,
      "Ġturu": 8078,
      "ĠSayaÃ§": 8079,
      "Ã¼ÄŁÃ¼nÃ¼": 8080,
      "canayÄ±": 8081,
      "ĠKargomu": 8082,
      "umuzun": 8083,
      "Ġmalum": 8084,
      "Ġdoldurup": 8085,
      "ĠgerÃ§ekleÅŁti": 8086,
      "Ġborcumu": 8087,
      "oga": 8088,
      "Ġbunlara": 8089,
      "ĠÅŁifr": 8090,
      "amayacaÄŁÄ±m": 8091,
      "Ġsizinle": 8092,
      "ĠVerilmeyen": 8093,
      "ĠVerilmemesi": 8094,
      "Ġyetkililer": 8095,
      "Ġyetkililerin": 8096,
      "Ġtelevizyonum": 8097,
      "ofret": 8098,
      "ĠSaÄŁlÄ±ÄŁÄ±": 8099,
      "ĠTedav": 8100,
      "ebebi": 8101,
      "Ġbedelini": 8102,
      "Ġsigortam": 8103,
      "ĠBizi": 8104,
      "ĠmiktarÄ±": 8105,
      "ĠResim": 8106,
      "ĠBayram": 8107,
      "ĠanlayÄ±ÅŁÄ±": 8108,
      "ĠdeÄŁerlendirme": 8109,
      "emeyecek": 8110,
      "ĠyapÄ±yordum": 8111,
      "ĠDÃ¼nya": 8112,
      "Ġsayfaya": 8113,
      "Ġsabahtan": 8114,
      "444": 8115,
      "AyakkabÄ±": 8116,
      "ĠmÃ¼ÅŁterisiyim": 8117,
      "ĠgÃ¶rÃ¼ÅŁÃ¼p": 8118,
      "ĠAltÄ±nda": 8119,
      "ĠyakÄ±ÅŁmadÄ±": 8120,
      "ĠyakÄ±ÅŁmayan": 8121,
      "Ġsildim": 8122,
      "ĠGÃ¶re": 8123,
      "ĠGÃ¶tÃ¼r": 8124,
      "Ġortak": 8125,
      "iversite": 8126,
      "ĠuygulamayÄ±": 8127,
      "Ġdepart": 8128,
      "ĠÃ§atladÄ±": 8129,
      "Ġkargolar": 8130,
      "ĠanlattÄ±m": 8131,
      "Ġgidiyorum": 8132,
      "Ġincelen": 8133,
      "ĠfaturamÄ±z": 8134,
      "Apple": 8135,
      "ĠBedaÅŁ": 8136,
      "ĠGetirmedi": 8137,
      "Ġgelirse": 8138,
      "ĠÃĩekim": 8139,
      "ĠGecikti": 8140,
      "ĠÃ¼Ã§Ã¼ncÃ¼": 8141,
      "ĠtÃ¼ketim": 8142,
      "ĠhayÄ±r": 8143,
      "ĠÃ§evir": 8144,
      "ĠKasa": 8145,
      "Ġannem": 8146,
      "ĠkullanmaktayÄ±m": 8147,
      "ĠyazÄ±lÄ±mÄ±": 8148,
      "Ġdevletin": 8149,
      "Ġkutusun": 8150,
      "Ġdirekt": 8151,
      "bileceÄŁini": 8152,
      "ĠyayÄ±nÄ±": 8153,
      "ĠdilekÃ§": 8154,
      "ĠpaylaÅŁtÄ±m": 8155,
      "ĠilaÃ§lama": 8156,
      "ĠtakÄ±mÄ±nÄ±n": 8157,
      "ĠÃ§aydan": 8158,
      "Ġadapt": 8159,
      "ĠKampanyasÄ±": 8160,
      "Ġistemez": 8161,
      "ĠCihazÄ±": 8162,
      "Ġdenememe": 8163,
      "ĠÄ±sÄ±nma": 8164,
      "Ã¼stÃ¼": 8165,
      "Ġbatar": 8166,
      "ĠÅŁiÅŁe": 8167,
      "ĠarabasÄ±": 8168,
      "ĠaraÅŁtÄ±rdÄ±m": 8169,
      "ĠgÃ¶zlÃ¼ÄŁÃ¼n": 8170,
      "ĠmaÄŁduriyetimi": 8171,
      "ĠmaÄŁduriyetimin": 8172,
      "anÄ±zÄ±n": 8173,
      "Ġfabrika": 8174,
      "Ġfabrikaya": 8175,
      "Ġgidecek": 8176,
      "ĠeÅŁimle": 8177,
      "ĠgerÃ§ekleÅŁtirdim": 8178,
      "Ġbilgilerimi": 8179,
      "ĠsapÄ±": 8180,
      "ĠKayseri": 8181,
      "ĠaralÄ±klarla": 8182,
      "ebilirsiniz": 8183,
      "ĠgÃ¼ncellemesi": 8184,
      "Enza": 8185,
      "Ġsoyuldu": 8186,
      "ĠyemeÄŁi": 8187,
      "Ġmobilya": 8188,
      "Ġbelgeleri": 8189,
      "Ġdondurma": 8190,
      "ĠKesintisi": 8191,
      "Ä°nternetten": 8192,
      "ĠbuzdolabÄ±nÄ±n": 8193,
      "Sunny": 8194,
      "Ã¼bÃ¼": 8195,
      "ĠdetaylÄ±": 8196,
      "ĠToplamda": 8197,
      "ĠKulÃ¼bÃ¼": 8198,
      "ĠVatandaÅŁ": 8199,
      "ĠFarkÄ±": 8200,
      "ĠsaÄŁlÄ±ÄŁÄ±yla": 8201,
      "ĠParamÄ±zÄ±": 8202,
      "Ġimzalat": 8203,
      "kswag": 8204,
      "ĠsÄ±zdÄ±r": 8205,
      "Ġkavga": 8206,
      "Ġtenezz": 8207,
      "ĠteÅŁekkÃ¼r": 8208,
      "Ġmaruz": 8209,
      "Ġperfor": 8210,
      "emizin": 8211,
      "ĠPasta": 8212,
      "Ġdizi": 8213,
      "ĠÃ¶lÃ§Ã¼": 8214,
      "ĠkoltuÄŁum": 8215,
      "ĠkoltuÄŁu": 8216,
      "ĠYanÄ±ltÄ±yor": 8217,
      "Telefonum": 8218,
      "Ġirsal": 8219,
      "ĠAÄŁÄ±r": 8220,
      "Ġpiyasada": 8221,
      "ĠyapacaklarÄ±nÄ±": 8222,
      "ĠdaÄŁÄ±tÄ±ma": 8223,
      "ĠÄ°lgilenmiyor": 8224,
      "ĠÄ°lgilenmiyorlar": 8225,
      "ĠTemizlik": 8226,
      "ĠTemizleme": 8227,
      "larÄ±nÄ±zÄ±": 8228,
      "amukkale": 8229,
      "ĠdÃ¼ÄŁÃ¼nÃ¼mÃ¼z": 8230,
      "Ġmercilere": 8231,
      "ĠyaparsanÄ±z": 8232,
      "ĠYÃ¼zÃ¼nden": 8233,
      "ĠilÃ§esinde": 8234,
      "ĠDÃ¼zen": 8235,
      "ĠDÃ¼zce": 8236,
      "ĠsorduÄŁumuzda": 8237,
      "ĠaÃ§tÄ±ÄŁÄ±mÄ±zda": 8238,
      "ĠdakikalÄ±k": 8239,
      "Ġtahsilat": 8240,
      "ĠgÃ¶revlisi": 8241,
      "MACFit": 8242,
      "ĠlambasÄ±": 8243,
      "Ġsuyundan": 8244,
      "ĠSaÃ§ma": 8245,
      "ĠÃ§eÅŁitli": 8246,
      "ĠdÃ¼ÄŁmesi": 8247,
      "Ġvereceksiniz": 8248,
      "Ġredde": 8249,
      "ĠanlamÄ±": 8250,
      "ĠgeÃ§iÅŁtir": 8251,
      "Ġtedavisi": 8252,
      "ĠBaÅŁvuru": 8253,
      "ĠyÄ±rtÄ±ldÄ±": 8254,
      "meyince": 8255,
      "ĠSiyah": 8256,
      "ĠSabiha": 8257,
      "ĠKazanÃ§": 8258,
      "ĠÅŁahs": 8259,
      "ĠDenizbank": 8260,
      "Ġucuz": 8261,
      "ĠbaÅŁkasÄ±": 8262,
      "ĠgÃ¶nderilmiÅŁtir": 8263,
      "ĠyaÅŁamak": 8264,
      "ĠbulunduÄŁumuz": 8265,
      "ĠZorlu": 8266,
      "Ġsandaly": 8267,
      "ĠAracÄ±n": 8268,
      "Altus": 8269,
      "Ġsahibiyim": 8270,
      "ĠgÃ¶rÃ¼ÅŁtÃ¼ÄŁÃ¼mde": 8271,
      "ĠÄ±sÄ±tmÄ±yor": 8272,
      "Arac": 8273,
      "DoÄŁtaÅŁ": 8274,
      "Denizbank": 8275,
      "Ġbabam": 8276,
      "ĠkoÅŁul": 8277,
      "ĠSebep": 8278,
      "Ġduvar": 8279,
      "ĠKadar": 8280,
      "ĠAdam": 8281,
      "ĠÅŁofÃ¶r": 8282,
      "ĠyapamayÄ±z": 8283,
      "ĠFÄ±rÄ±n": 8284,
      "ĠolmadÄ±ÄŁÄ±ndan": 8285,
      "ĠeÅŁyalar": 8286,
      "ĠbaÄŁlantÄ±sÄ±": 8287,
      "ĠÃ§evremdeki": 8288,
      "Ġtutanak": 8289,
      "Sony": 8290,
      "tamonu": 8291,
      "Ġsinyal": 8292,
      "ĠÅŁaÅŁÄ±rttÄ±": 8293,
      "ĠMontaj": 8294,
      "ĠHayal": 8295,
      "ĠHayÄ±r": 8296,
      "ĠPlayStation": 8297,
      "Ġetiket": 8298,
      "ĠKartÄ±mdan": 8299,
      "ĠLeke": 8300,
      "ĠÅŁubenizde": 8301,
      "Ġhaziranda": 8302,
      "Ġpatatesler": 8303,
      "ĠMÃ¼dÃ¼rlÃ¼ÄŁÃ¼": 8304,
      "Ġsoyulmalar": 8305,
      "ginÃ§": 8306,
      "ĠsÄ±nÄ±fta": 8307,
      "Ġkeyfi": 8308,
      "athlon": 8309,
      "ĠdÃ¼kkan": 8310,
      "ĠDikkat": 8311,
      "Ġmacun": 8312,
      "Ġmahallesinde": 8313,
      "ĠÃ¶ÄŁle": 8314,
      "Ġhallede": 8315,
      "ĠFormu": 8316,
      "Ġbenzeri": 8317,
      "ĠolmamÄ±za": 8318,
      "ĠArtÄ±ÅŁÄ±": 8319,
      "ĠaskÄ±ya": 8320,
      "restige": 8321,
      "ĠistediÄŁimizde": 8322,
      "KasÄ±m": 8323,
      "YataÅŁ": 8324,
      "Ġsilikon": 8325,
      "ĠVakÄ±fBank": 8326,
      "Ġsorumluluk": 8327,
      "ĠConnec": 8328,
      "ĠÄ°nÅŁaat": 8329,
      "ĠgÃ¶tÃ¼rdÃ¼ÄŁÃ¼mde": 8330,
      "ĠIsrarla": 8331,
      "ĠÃ§arÅŁaf": 8332,
      "ĠDeÄŁiÅŁikliÄŁi": 8333,
      "ĠÃ¶nemsemedim": 8334,
      "ĠÄ±sÄ±tÄ±cÄ±sÄ±": 8335,
      "ĠKargolanmadÄ±": 8336,
      "Merhaba": 8337,
      "YÄ±llardÄ±r": 8338,
      "idiye": 8339,
      "ĠSSD": 8340,
      "ĠSakarya": 8341,
      "ĠaydÄ±nlat": 8342,
      "ĠDeterj": 8343,
      "ĠPlastik": 8344,
      "osmetica": 8345,
      "Ġekspertiz": 8346,
      "Ġdenilerek": 8347,
      "ĠgerekÃ§esiyle": 8348,
      "ĠkaydÄ±mÄ±": 8349,
      "ĠAtatÃ¼rk": 8350,
      "ĠWindows": 8351,
      "Ġavukat": 8352,
      "Nestle": 8353,
      "refour": 8354,
      "ĠÃ§eyrek": 8355,
      "ĠTehdit": 8356,
      "ĠKozmetik": 8357,
      "Ġmusluk": 8358,
      "ĠMaske": 8359,
      "ĠMetrocity": 8360,
      "Ġkarantina": 8361,
      "Ġbilgisini": 8362,
      "crosoft": 8363,
      "Ġtespit": 8364,
      "ĠAndroid": 8365,
      "ĠRocher": 8366,
      "ĠistemediÄŁimi": 8367,
      "ĠsalgÄ±nÄ±": 8368,
      "Kablo": 8369,
      "Popeyes": 8370,
      "Renault": 8371,
      "Siemens": 8372,
      "SatÄ±n": 8373,
      "Ġheves": 8374,
      "ĠBazen": 8375,
      "ĠBaskÃ¼l": 8376,
      "ĠTrabzon": 8377,
      "ĠabartÄ±sÄ±z": 8378,
      "ĠKÄ±brÄ±s": 8379,
      "ĠApple": 8380,
      "Ġnafile": 8381,
      "ĠGereÄŁinin": 8382,
      "ĠGÃ¶kÃ§en": 8383,
      "ĠFakÃ¼ltesi": 8384,
      "ĠNotebook": 8385,
      "Ġhavaliman": 8386,
      "ĠTedavi": 8387,
      "kswagen": 8388,
      "ĠtenezzÃ¼l": 8389,
      "Ġperforman": 8390,
      "ĠConnect": 8391,
      "),": 8392,
      ".!": 8393,
      ".:": 8394,
      "1000": 8395,
      "32": 8396,
      "53": 8397,
      "58": 8398,
      "69": 8399,
      "78": 8400,
      "80": 8401,
      "800": 8402,
      "906": 8403,
      "AP": 8404,
      "Ada": 8405,
      "BG": 8406,
      "Bor": 8407,
      "Bah": 8408,
      "BeÅŁ": 8409,
      "Ch": 8410,
      "Ck": 8411,
      "Dyson": 8412,
      "EL": 8413,
      "El": 8414,
      "Eur": 8415,
      "EBA": 8416,
      "Go": 8417,
      "Git": 8418,
      "Hes": 8419,
      "Haz": 8420,
      "Hopi": 8421,
      "Horoz": 8422,
      "KS": 8423,
      "KT": 8424,
      "KÃ¼": 8425,
      "Kredi": 8426,
      "Kitap": 8427,
      "LCW": 8428,
      "May": 8429,
      "Makin": 8430,
      "Maltepe": 8431,
      "Molfix": 8432,
      "Ne": 8433,
      "Nex": 8434,
      "NÃ¼fus": 8435,
      "OO": 8436,
      "OS": 8437,
      "On": 8438,
      "Oz": 8439,
      "Ocak": 8440,
      "Play": 8441,
      "Petrol": 8442,
      "Prima": 8443,
      "Pandora": 8444,
      "Pereja": 8445,
      "Pamukkale": 8446,
      "Ra": 8447,
      "SK": 8448,
      "Sh": 8449,
      "Sw": 8450,
      "Sen": 8451,
      "SÃ¼t": 8452,
      "SarÄ±": 8453,
      "Samsun": 8454,
      "SÄ±fÄ±r": 8455,
      "Sinem": 8456,
      "Schafer": 8457,
      "Starbucks": 8458,
      "TR": 8459,
      "Tes": 8460,
      "TÃ¼r": 8461,
      "Tav": 8462,
      "Top": 8463,
      "TOKÄ°": 8464,
      "TÃ¼vtÃ¼rk": 8465,
      "TedaÅŁ": 8466,
      "Un": 8467,
      "UludaÄŁ": 8468,
      "UBG": 8469,
      "XEL": 8470,
      "YurtiÃ§i": 8471,
      "Yves": 8472,
      "adÄ±": 8473,
      "ace": 8474,
      "ago": 8475,
      "aut": 8476,
      "bis": 8477,
      "barÄ±": 8478,
      "beyi": 8479,
      "biliyor": 8480,
      "badem": 8481,
      "cs": 8482,
      "cam": 8483,
      "cuk": 8484,
      "dk": 8485,
      "dine": 8486,
      "dbir": 8487,
      "dunuz": 8488,
      "eal": 8489,
      "gur": 8490,
      "gre": 8491,
      "gulan": 8492,
      "ght": 8493,
      "garin": 8494,
      "hur": 8495,
      "hmet": 8496,
      "hka": 8497,
      "hlo": 8498,
      "iel": 8499,
      "idan": 8500,
      "iPhone": 8501,
      "kek": 8502,
      "kullan": 8503,
      "ktan": 8504,
      "kana": 8505,
      "koda": 8506,
      "ld": 8507,
      "lin": 8508,
      "lor": 8509,
      "lhan": 8510,
      "lilere": 8511,
      "lulu": 8512,
      "mal": 8513,
      "mana": 8514,
      "nek": 8515,
      "nes": 8516,
      "noz": 8517,
      "nova": 8518,
      "otal": 8519,
      "ose": 8520,
      "oint": 8521,
      "para": 8522,
      "park": 8523,
      "ped": 8524,
      "priz": 8525,
      "rey": 8526,
      "sÃ¼n": 8527,
      "servis": 8528,
      "saf": 8529,
      "smart": 8530,
      "skÃ¼": 8531,
      "saray": 8532,
      "tx": 8533,
      "tme": 8534,
      "tek": 8535,
      "tara": 8536,
      "tÃ¶r": 8537,
      "tonu": 8538,
      "temiz": 8539,
      "udi": 8540,
      "ust": 8541,
      "usun": 8542,
      "uÄŁu": 8543,
      "vlet": 8544,
      "vher": 8545,
      "vresim": 8546,
      "wox": 8547,
      "ym": 8548,
      "yÄ±l": 8549,
      "ydÄ±m": 8550,
      "yalÄ±": 8551,
      "yayÄ±": 8552,
      "yalar": 8553,
      "yos": 8554,
      "ysa": 8555,
      "yÃ¼p": 8556,
      "ysam": 8557,
      "yince": 8558,
      "yatÄ±": 8559,
      "yXEL": 8560,
      "ze": 8561,
      "zurum": 8562,
      "zeme": 8563,
      "zoz": 8564,
      "Ġ#": 8565,
      "Ġ+": 8566,
      "ĠX": 8567,
      "Ġun": 8568,
      "Ġ!,\"": 8569,
      "Ġamp": 8570,
      "Ä±Ã§": 8571,
      "arÄ±ndan": 8572,
      "aryak": 8573,
      "Ã¼yen": 8574,
      "ÅŁÄ±k": 8575,
      "erah": 8576,
      "erlik": 8577,
      "erimi": 8578,
      "ano": 8579,
      "andÄ±": 8580,
      "andÄ±m": 8581,
      "anya": 8582,
      "ansÄ±": 8583,
      "anÄ±lmaz": 8584,
      "Ġby": 8585,
      "Ġbine": 8586,
      "Ġbark": 8587,
      "Ġbisik": 8588,
      "Ġblender": 8589,
      "ĠbÃ¶yl": 8590,
      "devlet": 8591,
      "ins": 8592,
      "inÃ§": 8593,
      "ÄŁan": 8594,
      "ÄŁda": 8595,
      "ÄŁlu": 8596,
      "allarÄ±": 8597,
      "madÄ±ÄŁÄ±nÄ±": 8598,
      "madÄ±nÄ±z": 8599,
      "maÄŁan": 8600,
      "ors": 8601,
      "orland": 8602,
      "Ġsa": 8603,
      "Ġso": 8604,
      "ĠsÃ¶n": 8605,
      "Ġsef": 8606,
      "Ġsig": 8607,
      "ĠsÃ¼p": 8608,
      "ĠsÃ¼tÃ¼n": 8609,
      "Ġseklinde": 8610,
      "ĠsÃ¼tÃ¼": 8611,
      "Ġka": 8612,
      "Ġkli": 8613,
      "ĠkÃ¶y": 8614,
      "Ġkade": 8615,
      "Ġkus": 8616,
      "Ġkediler": 8617,
      "Ġkloz": 8618,
      "Ġkoskoca": 8619,
      "ĠkumaÅŁ": 8620,
      "Ã§Ä±": 8621,
      "Ã§ek": 8622,
      "Ã§Ä±k": 8623,
      "Ã§iler": 8624,
      "ilem": 8625,
      "ilatÃ¶r": 8626,
      "Ġgur": 8627,
      "ĠgÃ¼l": 8628,
      "ĠgenÃ§": 8629,
      "Ġgtx": 8630,
      "eniyor": 8631,
      "ento": 8632,
      "irim": 8633,
      "irler": 8634,
      "ireksiyon": 8635,
      "ĠyemiÅŁ": 8636,
      "ĠyÄ±rtÄ±k": 8637,
      "diy": 8638,
      "dida": 8639,
      "diÄŁini": 8640,
      "mece": 8641,
      "melerine": 8642,
      "dÄ±ma": 8643,
      "Ã¶ÅŁ": 8644,
      "olit": 8645,
      "olped": 8646,
      "elere": 8647,
      "etk": 8648,
      "ett": 8649,
      "etleri": 8650,
      "etsiz": 8651,
      "etoot": 8652,
      "imento": 8653,
      "Ġtep": 8654,
      "ĠtanÄ±n": 8655,
      "Ġtransfer": 8656,
      "Ġtuvalet": 8657,
      "ayip": 8658,
      "aton": 8659,
      "atÄ±cÄ±": 8660,
      "Ġia": 8661,
      "ĠiPhone": 8662,
      "ĠiÄŁrenÃ§": 8663,
      "akende": 8664,
      "Ġvid": 8665,
      "Ġvant": 8666,
      "Ġhe": 8667,
      "Ġhaciz": 8668,
      "eker": 8669,
      "ekler": 8670,
      "Ã¼nÃ¼zÃ¼": 8671,
      "onda": 8672,
      "esin": 8673,
      "esse": 8674,
      "Ġolama": 8675,
      "ĠolayÄ±": 8676,
      "ĠolmasÄ±nÄ±": 8677,
      "ĠolacaÄŁÄ±": 8678,
      "ĠolamayacaÄŁÄ±nÄ±": 8679,
      "lamÄ±yorlar": 8680,
      "iÅŁli": 8681,
      "Ġdemesi": 8682,
      "ĠdemiÅŁler": 8683,
      "Ġdekon": 8684,
      "Ġdesen": 8685,
      "uri": 8686,
      "urdu": 8687,
      "larÄ±mda": 8688,
      "asaray": 8689,
      "ĠSA": 8690,
      "ĠSp": 8691,
      "ĠSt": 8692,
      "ĠSar": 8693,
      "ĠSil": 8694,
      "ĠSÃ¶yle": 8695,
      "ĠSte": 8696,
      "ĠSarÄ±": 8697,
      "ĠSilik": 8698,
      "ĠSarÄ±m": 8699,
      "ĠSens": 8700,
      "ĠSizi": 8701,
      "ĠSigortam": 8702,
      "ĠSincan": 8703,
      "ĠSÃ¼mer": 8704,
      "ĠSuperb": 8705,
      "ĠSebebi": 8706,
      "ĠSKT": 8707,
      "Ġalay": 8708,
      "ĠalÄ±nÄ±": 8709,
      "ĠalÄ±mÄ±": 8710,
      "ĠalmÄ±yorlar": 8711,
      "ĠalmadÄ±m": 8712,
      "ĠalamÄ±yor": 8713,
      "Ġalanda": 8714,
      "ĠalmalarÄ±": 8715,
      "Ġalyans": 8716,
      "Ġalarm": 8717,
      "ikasÄ±": 8718,
      "ĠBayat": 8719,
      "ĠBÃ¶cek": 8720,
      "ĠBÄ±Ã§ak": 8721,
      "ĠBang": 8722,
      "ĠBalÄ±kesir": 8723,
      "ĠBalkon": 8724,
      "ĠBianchi": 8725,
      "ĠBlutv": 8726,
      "Ä±ksÄ±z": 8727,
      "ĠÃ§ayÄ±": 8728,
      "ĠÃ§ubuk": 8729,
      "lev": 8730,
      "lemiÅŁ": 8731,
      "lediler": 8732,
      "lediÄŁim": 8733,
      "lemesi": 8734,
      "leyi": 8735,
      "Ã¼rÃ¼n": 8736,
      "Ã¼rÃ¼k": 8737,
      "Ã¼rken": 8738,
      "ambi": 8739,
      "aming": 8740,
      "ĠTK": 8741,
      "ĠTÃ¼n": 8742,
      "ĠTra": 8743,
      "ĠTÃ¼k": 8744,
      "ĠToz": 8745,
      "ĠTaki": 8746,
      "ĠTransfer": 8747,
      "ĠTuzla": 8748,
      "Ġdu": 8749,
      "Ġdar": 8750,
      "ĠduÅŁ": 8751,
      "Ġdiler": 8752,
      "ĠdÃ¶v": 8753,
      "ĠKit": 8754,
      "ĠKem": 8755,
      "ĠKuÅŁ": 8756,
      "ĠKaÄŁÄ±": 8757,
      "ĠKayÄ±p": 8758,
      "ĠKurt": 8759,
      "ĠKasko": 8760,
      "ĠKurumu": 8761,
      "ĠKipa": 8762,
      "ĠKloz": 8763,
      "ĠKoskoca": 8764,
      "ĠAdÄ±": 8765,
      "ĠAla": 8766,
      "ĠAlan": 8767,
      "ĠAcÄ±": 8768,
      "ĠAdet": 8769,
      "ĠAidatÄ±": 8770,
      "ĠAlamama": 8771,
      "Ä±lmak": 8772,
      "Ä±lmadÄ±ÄŁÄ±": 8773,
      "ĠmalÄ±": 8774,
      "Ġmiyim": 8775,
      "ĠmÃ¼c": 8776,
      "Ġmulti": 8777,
      "itikasÄ±": 8778,
      "isiyle": 8779,
      "Ġfaz": 8780,
      "Ġfram": 8781,
      "ĠfÄ±ndÄ±k": 8782,
      "Ġfaks": 8783,
      "Ġpes": 8784,
      "Ġpos": 8785,
      "Ġpus": 8786,
      "ĠpÃ¼s": 8787,
      "Ġplat": 8788,
      "Ġpansiyon": 8789,
      "Ġpizz": 8790,
      "ulop": 8791,
      "ultu": 8792,
      "okopi": 8793,
      "ĠÅŁim": 8794,
      "ĠÅŁÄ±k": 8795,
      "ĠÅŁebek": 8796,
      "Ä±rdÄ±m": 8797,
      "Ä±rlan": 8798,
      "2002": 8799,
      "aÄŁÄ±na": 8800,
      "azlÄ±": 8801,
      "Ä°s": 8802,
      "Ä°Ã§": 8803,
      "Ä°Phone": 8804,
      "Ä°lhan": 8805,
      "Ġnab": 8806,
      "ĠyapÄ±": 8807,
      "ĠyaptÄ±ÄŁ": 8808,
      "ĠyapacaÄŁ": 8809,
      "ĠyapamadÄ±m": 8810,
      "ĠyapamÄ±yoruz": 8811,
      "ĠyaptÄ±ÄŁÄ±nÄ±": 8812,
      "ĠyapmanÄ±zÄ±": 8813,
      "ĠyapÄ±larak": 8814,
      "Ġyapabilirim": 8815,
      "ceÄŁimi": 8816,
      "cevher": 8817,
      "Ġ110": 8818,
      "ĠMer": 8819,
      "ĠMek": 8820,
      "ĠMana": 8821,
      "ĠMeg": 8822,
      "ĠMurat": 8823,
      "ĠMehmet": 8824,
      "star": 8825,
      "Ġep": 8826,
      "ĠeylÃ¼l": 8827,
      "Ġecz": 8828,
      "ĠiÃ§tiÄŁim": 8829,
      "ĠHikay": 8830,
      "ĠHaber": 8831,
      "ĠHenÃ¼z": 8832,
      "ĠHaciz": 8833,
      "ĠHilton": 8834,
      "ĠHosp": 8835,
      "ĠYunu": 8836,
      "ĠYÄ±rt": 8837,
      "ĠYeÅŁil": 8838,
      "ĠYalnÄ±z": 8839,
      "ĠYumoÅŁ": 8840,
      "ĠGM": 8841,
      "ĠGer": 8842,
      "ĠGiÅŁ": 8843,
      "ĠGiyim": 8844,
      "ĠGÃ¶l": 8845,
      "ĠGiden": 8846,
      "ĠGranit": 8847,
      "ĠGreen": 8848,
      "ĠGlobal": 8849,
      "ĠGofret": 8850,
      "ĠÄ°p": 8851,
      "ĠÄ°gdaÅŁ": 8852,
      "ĠÄ°sp": 8853,
      "ĠayarÄ±": 8854,
      "ĠaylarÄ±nda": 8855,
      "ĠayÄ±rt": 8856,
      "ĠaylardÄ±r": 8857,
      "Ġayakkab": 8858,
      "eminde": 8859,
      "emli": 8860,
      "embey": 8861,
      "tiÄŁini": 8862,
      "liÄŁim": 8863,
      "dÄ±ÄŁÄ±na": 8864,
      "Ġbuton": 8865,
      "ĠbulamÄ±yoruz": 8866,
      "Ġbutonu": 8867,
      "Ġveremedim": 8868,
      "Ġgelmem": 8869,
      "Ġgelmeyen": 8870,
      "Ġgelsin": 8871,
      "ĠgelmiÅŁti": 8872,
      "Ġgelmeyecek": 8873,
      "tÄ±sÄ±": 8874,
      "erime": 8875,
      "Ġiler": 8876,
      "ĠilginÃ§": 8877,
      "abÄ±n": 8878,
      "abinde": 8879,
      "ĠDil": 8880,
      "ĠDama": 8881,
      "ĠDuÅŁ": 8882,
      "ĠDiye": 8883,
      "ĠDireksiyon": 8884,
      "landÄ±ÄŁÄ±nÄ±": 8885,
      "landÄ±rma": 8886,
      "uzen": 8887,
      "uzul": 8888,
      "ĠgÃ¼nÃ¼n": 8889,
      "ĠgÃ¼nÃ¼m": 8890,
      "ĠEdir": 8891,
      "ĠEge": 8892,
      "ĠETS": 8893,
      "ĠEFT": 8894,
      "ĠÃ¼l": 8895,
      "Ġru": 8896,
      "Ġrad": 8897,
      "ĠrazÄ±": 8898,
      "Ġrobot": 8899,
      "ĠreÃ§et": 8900,
      "ĠrÃ¶tar": 8901,
      "ĠrandÄ±m": 8902,
      "arket": 8903,
      "ĠPet": 8904,
      "ĠPis": 8905,
      "ĠPip": 8906,
      "ĠParan": 8907,
      "ĠParaf": 8908,
      "ĠPed": 8909,
      "ĠPow": 8910,
      "ĠPrima": 8911,
      "ĠPiranha": 8912,
      "ĠPlatin": 8913,
      "Ġbilmiyor": 8914,
      "ĠbilmediÄŁim": 8915,
      "ĠbildiÄŁiniz": 8916,
      "iyiz": 8917,
      "Ġetmesi": 8918,
      "Ġetmedim": 8919,
      "ĠetmemiÅŁ": 8920,
      "ĠetmiÅŁler": 8921,
      "eyt": 8922,
      "eyaÄŁ": 8923,
      "ĠsonlandÄ±r": 8924,
      "ĠgÃ¶m": 8925,
      "tah": 8926,
      "dÄ±ÄŁÄ±mdan": 8927,
      "Ġmax": 8928,
      "Ġmaz": 8929,
      "Ġmahalle": 8930,
      "Ġusan": 8931,
      "laÅŁtÄ±r": 8932,
      "ĠaramamÄ±za": 8933,
      "ĠÃ¼retimi": 8934,
      "Ġarar": 8935,
      "Ä±sÄ±na": 8936,
      "Ä±sÄ±nÄ±n": 8937,
      "mesinin": 8938,
      "ahi": 8939,
      "ahÄ±": 8940,
      "Ã¼ml": 8941,
      "Ġanti": 8942,
      "ĠÃ¶b": 8943,
      "Ġnez": 8944,
      "Ġnevresim": 8945,
      "Ġistem": 8946,
      "Ġistina": 8947,
      "mÄ±ÅŁÄ±m": 8948,
      "Ġod": 8949,
      "Ġop": 8950,
      "Ġodalar": 8951,
      "ĠVere": 8952,
      "ĠVide": 8953,
      "ĠVitr": 8954,
      "Ġzan": 8955,
      "Ġzehir": 8956,
      "ĠFi": 8957,
      "ĠFiz": 8958,
      "ĠFiyasko": 8959,
      "ĠFakir": 8960,
      "ĠFace": 8961,
      "ĠolduÄŁunun": 8962,
      "Ã¼ÅŁte": 8963,
      "miÅŁim": 8964,
      "miÅŁiz": 8965,
      "ÂłĠ": 8966,
      "ĠbaÅŁlan": 8967,
      "ĠOra": 8968,
      "ĠOna": 8969,
      "ĠOsman": 8970,
      "ĠOGS": 8971,
      "Ġ3000": 8972,
      "ĠkullandÄ±k": 8973,
      "ĠkullanÄ±ma": 8974,
      "Ġkullanmam": 8975,
      "ĠkullanÄ±rÄ±m": 8976,
      "ĠÃĩor": 8977,
      "ĠÃĩat": 8978,
      "ĠÃĩÃ¶k": 8979,
      "ĠÃĩeki": 8980,
      "ĠÃĩiÃ§ek": 8981,
      "ĠÃĩanakkale": 8982,
      "ediz": 8983,
      "uÅŁtur": 8984,
      "ervuar": 8985,
      "ĠamacÄ±": 8986,
      "alarÄ±ndan": 8987,
      "ĠgeÃ§ip": 8988,
      "mÄ±yoruz": 8989,
      "etiye": 8990,
      "taniye": 8991,
      "ĠsÃ¼rece": 8992,
      "ĠsÃ¼resini": 8993,
      "Ġbenek": 8994,
      "ĠÃ§Ä±kmadan": 8995,
      "ĠÃ§Ä±karken": 8996,
      "ĠÃ§Ä±kamÄ±yoruz": 8997,
      "ĠÃ§Ä±ktÄ±ÄŁÄ±nÄ±": 8998,
      "Ġsordu": 8999,
      "Ġsorduk": 9000,
      "ezgah": 9001,
      "ĠNak": 9002,
      "ĠNov": 9003,
      "Ġkalka": 9004,
      "ĠkalacaÄŁÄ±m": 9005,
      "ebebek": 9006,
      "ebze": 9007,
      "ĠCuma": 9008,
      "ĠCof": 9009,
      "ĠClas": 9010,
      "ĠKarar": 9011,
      "ĠKaram": 9012,
      "ĠaÃ§Ä±n": 9013,
      "ĠaÃ§tÄ±": 9014,
      "ĠaÃ§madÄ±": 9015,
      "ĠaÃ§tÄ±k": 9016,
      "ĠaÃ§madan": 9017,
      "ĠaÃ§Ä±ldÄ±": 9018,
      "ĠaÃ§Ä±nca": 9019,
      "ĠaÃ§tÄ±ktan": 9020,
      "ĠaÃ§Ä±lacak": 9021,
      "afaza": 9022,
      "masÄ±yla": 9023,
      "ĠkapÄ±ya": 9024,
      "ĠkaplamasÄ±": 9025,
      "sedÃ¼r": 9026,
      "ĠiÅŁleri": 9027,
      "ĠgÃ¶rmedi": 9028,
      "ĠgÃ¶rmÃ¼yor": 9029,
      "ĠgÃ¶rmedik": 9030,
      "Ġ56": 9031,
      "event": 9032,
      "Ġcid": 9033,
      "Ġcerrah": 9034,
      "ĠcÃ¼ml": 9035,
      "ĠyazdÄ±ÄŁÄ±m": 9036,
      "ĠyazmÄ±yor": 9037,
      "ĠyazdÄ±ÄŁÄ±": 9038,
      "ĠyazÄ±sÄ±nÄ±": 9039,
      "ĠÃľrÃ¼nÃ¼mÃ¼": 9040,
[...]
